Ġ t
Ġ a
Ġt h
i n
e r
Ġ w
Ġ s
o u
Ġth e
r e
o n
a t
e n
Ġ c
i t
i s
Ġ b
n d
Ġ d
Ġ m
Ġ h
Ġ o
in g
e s
Ġ p
Ġt o
a n
Ġ f
o r
l l
Ġ I
Ġ l
Ġ y
a r
Ġ g
Ġy ou
e d
Ġa nd
Ġ in
Ġo f
a s
Ġ n
o m
i c
Ġth at
u s
e t
v e
a l
o w
l e
Ġ is
Ġ e
Ġ it
o t
' s
Ġb e
i on
Ġ T
Ġw h
Ġ A
en t
Ġ S
Ġ re
a y
Ġw e
Ġ on
er e
Ġh a
u t
a c
i d
i g
o s
k e
v er
i m
Ġ Ð
ĠT h
a m
a ll
Ġf or
e l
c h
r o
Ġth is
Ġs t
Ġ W
Ġ u
a d
ou t
i r
l d
c t
Ġ k
i f
Ġg o
. .
Ð ¾
it h
l y
h t
q u
Ġ -
Ġd o
Ġ j
Ġha ve
Ġ B
Ġa n
Ġw ith
Ġa re
Ġ r
Ġd e
Ġs e
Ġs o
Ġ v
s t
i ll
u r
Ġl i
Ġ M
es t
o d
all y
' t
us t
Ġa s
Ġ C
c e
Ġm e
Ð °
Ð µ
i l
Ġ H
Ġw as
t er
t h
Ġc an
an t
Ġc om
ou r
ig ht
Ġ Y
at ion
ĠA nd
o l
Ġs h
Ñ Ĥ
o p
s e
Ġn ot
ĠS o
Ġn e
u n
Ġa b
Ġli ke
Ġa t
Ġ D
i e
Ġh e
Ġc on
Ġc h
o re
Ġa l
Ġo r
Ġ qu
Ġ O
om e
r a
u l
Ġ N
p p
Ġyou r
ou ld
Ġ P
Ġf r
g e
er s
' re
Ð ¸
Ġthe y
Ġwh at
us e
Ġa ll
ĠTh e
Ġ L
es s
e m
Ġk n
Ġj ust
ar t
Ġp ro
ver y
u m
Ġl o
Ġ ì
Ġm y
o k
Ġe x
a b
Ġth ere
Ġb ut
Ġkn ow
Ġs u
Ġ G
Ñ ģ
Ġ E
Ġm a
Ð¾ Ð
Ġ en
Ġab out
ĠI t
is t
Ġw or
r i
in d
Ġon e
at e
a nd
in k
Ġl e
or t
' m
Ġ F
ic h
Ñ Ģ
id e
Ġg et
Ġ out
.. .
Ġw ill
ã ģ
i ve
Ð ½
Ġfr om
a in
ĠW e
Ġu p
p e
re s
c a
Ġ R
Ġ if
Ġp l
Ġd on
ac k
Ġ 1
Ġ "
Ġt r
Ġ us
ĠW h
it y
Ġ J
ĠY ou
Ġh ere
h er
Ġs ome
ou g
a k
ar d
Ġgo ing
Ġu n
m ent
Ġth ink
Ġp e
en d
Ġ (
ca use
Ġt im
as t
Ã ©
Ġ our
Ġw ant
am e
i es
Ġ ë
u d
in e
Ġre ally
Ġt e
Ġse e
c i
Ġb y
s o
u re
os e
Ġ [
a re
Ġm ore
a h
on e
c k
op le
Ð° Ð
Ġthe n
Ġth ing
Ġthe m
v en
ou nd
os t
on g
e ct
Ġr ight
a g
Ġin t
Ġpe ople
Ġwh en
ou s
p l
Ġtim e
Ġ im
Ġwh o
Ġ 2
a p
Ġbe cause
h ing
Ġn o
ic e
Ġlo ok
Ġh as
Ġw ould
Ġh ow
ac t
Ġf e
n t
oug h
Ġp r
ĠB ut
Ġs ay
Ñ ĥ
Ġn ow
Ġm an
Ġ very
Ġwor k
i z
Ġ K
i v
it t
Ġa r
e p
Ġc l
Ġwh ich
Ġc o
an s
' ve
Ġs a
f f
' ll
Ġan y
Ġa ct
Ġy e
b er
ac h
a ge
p er
Ġal so
f er
Ġthe se
Ġa d
Ðµ Ð
th er
ac e
ic k
a ke
re at
i re
u e
Ġa g
Ġ U
u ch
ion s
r y
0 0
n a
Ġd id
Ġqu e
Ġha d
Ġe very
ĠH e
Ġl a
Ġw ay
Ġs p
b le
ĠTh is
as s
Ġthe ir
it e
Ġne ed
Ġp art
Ġw ere
Ġb ack
i p
ow n
om et
b e
as e
Ġma ke
ir st
i a
en ce
an g
an k
Ġg ot
Ġp re
Ġcon t
Ġo ther
p t
ĠTh at
o g
Ġgo od
Ġint o
al k
Ġbe en
Ġa m
Ġo ver
u ally
Ġ â
ì Ŀ
Ġu nd
h e
w ay
Ġg r
Ñ Į
Ġd if
Ġp er
Ñ ı
ĠI n
Ġt w
on d
ar s
in t
or m
Ġl ot
Ġwh ere
Ġ Ã
Ġ V
Ġs omet
Ð »
en s
Ġg u
Ġa c
u g
Ñ ĭ
Ä ±
Ġf irst
re e
Ġh is
itt le
Ġim p
Ġm o
a v
Ġl ittle
ĠWh at
Ġm uch
Ġ z
Ġ ê
ab le
ĠÐ ¿
Ġp o
Ġcom p
n e
Ġd is
Ġl et
an ce
Ġh er
Ġthing s
Ġst art
ul t
Ġa pp
Ġre s
Ġf o
Ġc ould
Ġin ter
Ġth ose
Ġd es
Ġwe ll
Ġtw o
Ġk ind
x t
res s
el y
Ã ¤
Ġb r
Ġth r
ĠÐ ²
Ġ i
is h
Ġdif fer
Ġ ro
ĠS t
Ġsomet hing
Ġt ake
Ġb o
y s
Ġsh e
Ġt alk
l o
Ñ ĩ
Ġe ven
Ð º
ã Ģ
ĠÐ ½
Ġb u
ĠI f
Ġd own
ĠC h
ad e
ation s
Ġ use
or d
Ġof f
Ġact ually
Ġs pe
d u
at ed
at er
os s
n ing
Ã ¼
Ġdo es
Ġ Ñģ
Ġne w
Ġb et
ve l
c ess
p le
Ġha pp
t ing
on na
Ġ es
Ġd ay
Ġon ly
ig n
k ay
s el
ent s
ou nt
i ld
i le
Ġs c
Ġh im
Ġag ain
v ing
Ġg onna
Ġcom m
Ġh el
ot her
Ġ ke
ic al
Ġ 3
Ġe l
Ġthr ough
Ġcom e
ar k
d ay
i er
Ã ³
Ġth an
ĠThe y
Ġm ay
Ġs er
í ķ
Ġc all
Ġdiffer ent
Ġsh ould
ĠTh ere
ar y
ĠN ow
ã Ĥ
th ing
w e
or y
f ter
Ġp ut
or s
i al
ë ĭ
Ġund er
Ġin c
ĠY e
u b
f orm
Ġv ide
à ¸
ver s
Ġfe el
Ã ¡
od y
f t
f ore
Ġe m
g et
Ġsa id
it ion
Ġre c
i ous
at ch
Ġtr y
Ġhel p
Ġsh ow
Ð ´
Ġb it
u ll
Ð ²
ÑĤ Ð¾
g r
Ġpl ay
if e
a il
ĠYe ah
Ġqu est
Ġman y
Ġp ers
Ġg reat
Ã Ń
Ġ est
n g
Ġâ Ļ
t y
l a
ĠO h
Ġ ×
à ®
ĠB e
ad y
Ġm ost
ct ion
ĠN o
Ġdo ing
Ġbe ing
Ġto o
c es
Ġb l
. "
Ġre m
is s
on s
> >
r u
w n
on t
i b
e ll
Ġs m
ot h
u al
Ġ >>
Ġp h
l es
o c
f ul
Ġse c
is e
Ġad d
ig h
er t
Ġs ame
â Ģ
Ġme an
Ġf ind
e k
Ġen d
- -
Ð ¼
Ġst ill
a z
Ġ '
Ġm in
Ġye ars
ur n
Ġar ound
sel f
Ġw r
b s
oug ht
ĠâĻ ª
Ġf l
an ge
Ġa fter
Ġpo int
m er
v ed
Ġl ong
o y
ä ¸
Ġc r
way s
Ġs y
Ġt ra
Ġ2 0
a ve
Ġch e
Ġ ent
Ġbe fore
p h
Ġat t
i an
i ly
Ġpers on
Ġb ig
Ġs ch
Ġre al
Ġne xt
Ġlo ve
Ġvide o
ĠL et
Ġf in
Ġma k
i ble
Ġto day
er m
ĠA l
ow er
an n
i x
Ġp ar
Ġst ud
Ã ¶
Ġimp ort
t e
Ġg ive
v es
Ġd ie
Ġde c
Ġte ll
ĠÐ º
Ñģ ÑĤ
Ġwh y
ic ally
ic t
re d
Ġb as
Ġsu re
Ġbe l
at ing
Ġt ak
Ġs et
Ġl ife
Ġdid n
Ø §
o b
u nd
at h
Ġo p
ĠÐ ¾
a it
Ġwor ld
Ġsu pp
i o
Ġc our
ĠÐ ¸
w ard
Ðµ Ð½
Ġal ways
u p
Ġha nd
ĠH ow
ci al
Ġcon s
Ġ Ñ
Ġin d
Ġ 4
ĠA s
Ġf un
j ect
Ġimport ant
Ġs ur
e w
at es
Ġ 5
Ġd i
Ġm ade
Ġin s
Ġas k
Ġ et
Ġn um
Ġc ar
ĠO kay
Ġs im
i k
Ġl ast
ĠG o
Ġm us
Ġre l
ul ar
´ ì
ĠWe ll
pe ct
ĠTh ank
Ġth ree
Ã £
ã ĥ
Ġin v
Ġg en
l ic
Ġhapp en
ë Ĭ
i en
e ver
Ð¾Ð ²
Ġst r
ĠA ll
Ġin st
Ġâ Ģ
Ġde f
Ġs l
Ġm ight
un g
Ġye ar
Ġo wn
Ġke ep
b ody
d er
Ġ ÑĤ
ĠÐ ´
Ġan other
Ġm od
Ġe v
Ġgu ys
Ġab le
Ã£ o
qu e
id ent
ĠY es
Ġit s
Ġpl ace
Ġpro du
ar n
ĠÐ ¼
Ġre p
Ġex per
Ġf am
it ies
if ic
Ġh igh
i ed
o ol
ie w
Ðµ ÑĤ
re n
Ġdon e
Ġ ...
ëĬ Ķ
st em
ĠS e
Ġbet ter
c ome
Ġd el
Ġt y
Ġu m
Ġh o
ĠA n
Ġm on
ing s
Ġs k
Ġo b
c om
ble m
op e
st and
' d
ment s
Ġe le
ĠI s
Ġd a
Ġre g
le ase
i ke
al s
iz e
ê °
Ġc are
Ġne ver
ìĿ ´
es e
Ġm et
ol og
ĠWh en
u ck
Ðµ ÑĢ
Ġ Ã©
Ġd at
Ã §
Ġex am
il ity
Ġd et
c ri
Ġus ed
ĠD o
Ġtr ans
e g
t en
Ñ İ
c us
Ġsec ond
Ġb est
Ġh ard
Ġ ide
Ġpro blem
ê ³
ĠU n
Ñ ħ
Ġ Î
Ġw atch
ĠS h
at ter
Ġpre t
Ġd er
Ġcour se
Å Ł
at ive
ic s
Ġquest ion
ut e
ì Ĺ
ĠF or
at her
Ġc ol
i end
Ġ í
Ġ Z
Ġdoes n
ar ch
Ġinter est
Ġp ol
Ġc or
i ence
Ġp res
Ġe ach
Ġsy stem
Ġf act
i el
ab ly
Ġ er
Ġr un
Ġì Ŀ
Ġto p
n er
Ġth ought
Ġe as
i ent
Ġc re
Ñ Ī
Ġcomm un
y e
re ady
ll ow
Ġevery thing
om m
Ġm ed
ļ Ķ
Ġc ount
it s
Ġcom pl
h ip
Ù Ħ
o ok
Ġto get
Ġtoget her
am p
Ġg ame
Ġal ready
Ð°Ð »
Ġcall ed
al e
Å Ĥ
ĠM y
Ġunder stand
Ġd r
Ġm om
it ed
Ð¾Ð »
Ġus ing
z y
Ġnum ber
ãĢ ģ
c ed
Ġc le
Ð½ Ð¾
ëĭ ¤
in ce
Ġlook ing
Ġpret ty
Ġpro b
ĠS he
Ġ ve
Ġget ting
Ġwe ek
Ġe ff
u ff
a ir
u es
er n
Ġ Q
ou p
ent ion
Ġs ide
Ð¾Ð ¼
Ġfor m
Ġb us
Ġas s
Ġ ed
as on
we en
âĢ ¦
Ġt urn
Ġc ur
Ġco ll
Ġd ire
ĠG od
Ġ1 0
Ġe qu
ĠÐ ±
Ġop en
Ġsu ch
ir d
Ð°Ð º
Ġe ar
Ä Ļ
g an
Ġpart ic
Ġfr iend
Ġex p
Ġex t
Ġh ome
Ġw ater
ĠO n
ÑĤ ÑĮ
or k
ĠÐ¿ ÑĢ
Ġmo ve
n ess
en se
h o
Ġch ar
c o
in s
Ġb oth
Ġ1 9
Ġg ra
Ġbet ween
á »
Ġì ķ
as h
ĠR e
a i
al th
u res
em ber
Ġa v
Ġ ver
Ã ª
one y
Ġth ank
Ġmay be
u c
im e
ê³ ł
Ġa way
Ġn ame
ou se
Ġac c
Ġmus ic
Ġch ange
Ġp ass
g er
Ġbu ild
Ġv al
in ess
an y
Ġfe w
´ ë
t a
Ġl ist
Ã ¥
Ġo ld
Ġì ŀ
Ġs ort
Ġme m
Ġc a
ce pt
Ġgen er
Ġye ah
Ġwh ile
Ġany thing
r ic
gr am
Ġe in
c y
ur ing
ĠD e
Ġp ower
Ġcom ing
Ġwor d
Ġ- -
Ġbel ie
Ġf ound
t o
Ð ¿
Ġme ans
Ġin form
Ġ Ø
Ġ Ñĩ
Ġsm all
00 0
Ġc ame
Ġ íķ
w h
Ġwork ing
Ġexam ple
Ġp os
Ġde p
ê ²
ä º
ot e
Ġde m
ì §
t s
Ġv ar
a ut
Ġt ri
ch n
Ġhe ad
Ġwho le
× Ļ
z e
Ġtry ing
Ġt em
Ġc ou
et s
Ġ 6
Ġf il
vel op
Ġc ase
à ¯
Ġprob ably
Ġo kay
Ġpl an
Ġs it
Ġsch ool
ĠTh en
¸ ë
m e
Ġpro cess
Ġf ar
Ġre ad
Ġp oss
Ġb re
Ġso l
ic ht
Ġsupp ort
ĠT o
ert ain
Ġstart ed
Ġc ap
Ġle ft
Ġdat a
Ġtim es
ÐµÐ »
Ġwant ed
Ð° Ð½
Ġtalk ing
Ġis t
Ġha ving
um p
Ġcont in
Ġsu b
ĠÐ ·
p r
ëĭ Ī
in a
Å ¼
Ġc reat
od e
× ķ
æ ĺ
! !
Ġt erm
is m
Ð¾Ð ´
ĠBe cause
Ġw ent
id er
Ġpro v
Ġch ild
Ġd en
Ġl ight
b r
³ Ð¾
o h
Ġbo ok
Ġ Ù
ut ion
ĠJ ust
en e
Ġf our
Ġv is
ê° Ģ
Ġh ope
Ġmak ing
ĠL e
ì ķ
Ġo pp
a u
Ġm oney
Ġpro gram
Ã ¨
Ġst and
I N
Ġs ign
Ġle arn
Ã ł
ĠD on
Ġte am
ĠÐ½ Ð°
l ud
Ġre st
ic es
æ ľ
Ġ ÑĢ
Ġa ut
Ġle ad
ation al
d e
g y
Ġn ice
Ġd as
Ġd ist
Ġh um
ĠO ne
æ Ī
Ġcom es
Ġj o
Ġc ent
Ġex pl
Ġm ark
re en
l ed
g in
ì ļĶ
Ġle vel
Ġcon f
us h
Ġde velop
Ġt est
en g
v ious
at ure
ÐµÐ ¼
re t
Ġj e
Ġst uff
Ġcl ass
ow s
Ġê ·
Ġs i
Ġl es
ro p
ç ļ
Ġp or
Ġw ar
ìĹ Ĳ
Ġevery one
Ġg e
Ġche ck
ot t
Ġs ing
Ġar t
Ġfo llow
Ġ20 1
ĠF r
a is
ì ĸ
Î ±
å °
ĠÃ ł
im es
Ġre t
Ġch ang
Ġp ub
Ġin f
Ġte chn
ad a
iv es
Ġbe h
æĺ ¯
Ġlook s
ãĢ Ĥ
Ð ·
ĠWh y
çļ Ħ
Ġen ough
Ġb ra
it ch
ä »
Ġad v
Ð ±
Ġwith out
w er
mer ic
d en
Ġcompl et
Ġide a
ter s
o ck
Ġdef in
Ġe ver
Ġg l
Ġon ce
Ġbr ing
Ġsay ing
Ġan s
Ġhe ar
n ect
Ġl ess
g o
re am
ad o
ì ŀ
Ġm ind
ent e
Ġf ull
Ġb ad
Ġw om
Ġsome one
Ġd u
Ġw on
Ġcont ro
ort un
Ġhe alth
Ġch o
ĠA r
Ġcon c
Ġinform ation
Ġst op
at t
at ely
ä ½
Ġgr oup
Ġ Ñĥ
Ġqu ite
Ġres p
E R
ug ht
ê ¸
m an
iz ed
ĠB r
Ġrem ember
Ġfam ily
Ġbus iness
a w
Ġspe c
Ġa u
ĠO r
Ä ħ
Ġse en
Ġl ar
Ġ 7
g g
b ers
Ġd ra
Ġmon th
Ġsay s
Ġis s
Ġli ve
Ġl ine
Ġmom ent
Ġex c
el s
Ġs ound
Ġco ol
Ġlo c
Ġc ertain
Ġd ri
Ð¾ ÑĤ
am es
Ġm ust
n y
Ð¸ ÑĤ
Ġk id
Ġinc lud
ìĿ Ħ
at or
Ä Ł
h a
are d
Ġse em
Ð ¹
ì Ħ
Ġel se
Ġì ł
ir l
Ġ 8
Ġv o
Ġquest ions
in es
e e
æĪ ĳ
Ã¼ r
ĠA meric
Ġst ory
Ġser v
ver n
ag es
l and
ĠâĢ ĵ
er a
ĠC an
Ġp op
et her
Ġn a
Ġor der
Ġmak es
Ġs ince
c on
ct or
Ġth ough
Ġprodu ct
Ð» Ð¸
Ġle g
Ġme et
al f
Ñģ Ñı
un ch
it er
o ve
×ķ ×
i et
Ð°Ð ¼
it al
Ġsu per
l ing
Ġp ay
Ġpar a
Ġj ob
ĠH ere
Ġs w
k s
pt ion
m a
Ġbelie ve
¬ ë
Ġw ait
Ð¾Ð ¹
Ġun t
Ġqu ick
h r
ĠÑ į
ĠP ro
Ġm en
à ¹
Ġday s
Ġgo es
Ġspe ak
ĠA t
em ent
Ġm iss
Ġa w
Ġdes ign
Ġpro ject
Ð¾ ÑĢ
i j
ant s
at s
ĠCh r
Ġ 9
Ġc ut
Ġre qu
ĠÐ½ Ðµ
ĠN ot
as ter
Ġm ill
Ġpartic ular
Ġp ie
Ġstud ents
Ġf ive
ou n
ĠN e
Ġg i
Ġp as
Ġf ree
ĠS p
l ich
Ġpro f
Ġen g
Ġpr ot
ĠL ike
os ed
Ġcon nect
a pp
Ġë §
it ing
Ġb lo
Ġl os
ist s
Ġexper ience
re nt
Ġst ay
Ġfo od
t on
ru ct
Ġh ist
v iew
in ing
m ost
i vers
b o
ãģ Ħ
ĠT r
g en
Ġp lease
Ġcommun ity
Ġc e
A N
n o
Ġb ody
Ġh our
Ġ vers
á º
c er
Ġê °
Ġre ason
ĠR ight
Ġl ater
Ï Ħ
Ġh ouse
Ġ X
Ð¾Ð ½
Ġst ate
f ic
å ¤
Å Ľ
iel d
Ġp ri
Ġp ast
Ġw alk
olog y
er ing
an na
Ġt er
Ġho ld
Ġor gan
b en
Î ¿
Ã³ n
Ġeff ect
Ġyour self
Ġpl us
a j
and o
ur al
Ġro om
le ct
ê² Į
? "
s ide
Ġbe come
Ñ Ĩ
Ġ Â
o od
Ġcon st
Ġn ight
ut es
Ð ¶
Ġbre ak
Ġp ain
Ġst ep
ire d
Ġnot hing
Ġunt il
Ñ ĸ
Ð°Ð ²
Ù Ĭ
Ġd uring
ì§ Ģ
l ess
o ll
Ð½ Ñĭ
Î ¹
f ect
i ver
ı Ħ
ith er
y ing
Ġbe gin
×Ļ ×
iv id
ĠÃ §
Ġs al
Ġt a
Ġp ot
Ġ $
Ġm ar
Ġcle ar
Ġf ace
Ġgr ow
Ġ *
Ġins ide
Ġfriend s
Ġle ave
en n
Ġeas y
Ġare a
al ity
ou d
Ġe at
Ù Ĩ
Ġp ur
or n
Ġsa w
Ġans wer
Ġfr ont
Ġbe aut
¼ ë
Ġm atter
Ġs on
ĠN ew
Ġres ult
id es
ch e
Ġf ut
p s
Ġfo cus
Ġinterest ing
å ¥
Ġa p
" .
Ġcre ate
Ð¾ Ñģ
Ġp ress
r oss
Ġp ick
l ine
Ġto ok
ĠM ay
r ow
Ġ ich
ĺ ë
Ġre f
Ġm or
r act
are nt
A R
Ġex act
Ġsp ace
w ork
Ð½ Ð¸
Ġb ir
Ġde v
Ð ³
Ġto ld
Ġpub lic
ci ally
Ġv iew
ĠHe y
m ed
ll o
c c
Ġf ac
Ġcou ple
Ġhe art
l er
Ġre ady
Ġal most
ar ing
Ġh alf
ĠM e
av or
i que
Ġchar ac
Ġpr act
O N
an e
Ġ il
Ð½ Ð°
Ġv i
l ish
he ad
Ġle ast
Ġbas ically
as ed
r ight
Ġy et
Ġtak ing
Ġcount ry
Ġw in
Ġis n
Ġposs ible
Ġc am
Ġinc re
Ġp at
Ġw anna
Ġcons ider
Ġab s
Ġwith in
Ġhum an
Ġthink ing
Ġo h
¡ ľ
Ġqu i
as es
Ġ 0
it ely
ä¸ į
Ġk ill
Ġm il
Ġinv est
is ter
Ġsu c
ion al
el f
Ġwh ether
Ġcontro l
Ġagain st
ot s
ëĭĪ ëĭ¤
i or
Ġpres ent
Ġ Ø§
Ġwatch ing
u be
er v
Ġn icht
Ġgo vern
ĠTh ese
Ġ :
u it
ug h
Ġwork s
o o
Ġw ir
Ġa ir
ĠT e
Ð°Ð ·
is ion
wh ere
Ġto t
j oy
ì ĭ
Ġv ol
ĠÐ µ
Ġcl ose
ĠA d
Ñ ī
in ed
Ġun a
Ġê· ¸ë
° ë
or ry
Ġb ro
Ġfil m
if t
2 0
Ġty pe
Ġhappen ed
ĠA m
Ġg irl
ĠA re
ward s
Ġp our
Ġcol or
el t
Ð° Ñģ
Ġs ense
le x
ĠW ith
us s
ri b
Ġre se
Ġn orm
Ġfut ure
Ġde al
end ing
e y
Ġ x
er o
ĠC l
u k
Ġwhat ever
sel ves
Ġyou ng
ì Ĭ
ĠM ar
ĠChr ist
Ġgu ess
Ġper form
Ġen er
r on
Ġh it
Ġw ond
Ġdire ct
ĠE very
Ġof ten
Ġf a
Ġal ong
Ġcl ick
ĠL ook
Ġsit u
Ġhapp y
e ad
Ġag o
Ġen c
Ġmy self
Ġco ver
Ð¾Ð ±
Ġm id
Ġc ost
Ġt en
ĠS ch
Ġex pect
Ġwas n
Ġstr ong
if ul
Ġopp ortun
in al
y le
Ġsh are
Ġtr ue
Ġapp ro
Ġch all
Ġmin utes
Ġch ann
Ġë Ĥ
Î µ
l i
Ġm ess
or ies
pe cially
Ġwr ong
Ġy es
Ġì Ĺ
ir on
Ġall ow
Ġsu bs
Ġf ore
Ġf ight
Ġso cial
Ġc ra
an a
Ġa ff
Ġ ess
Ġway s
Ġsh ort
Ġf all
Ġla w
ĠWh o
Ġen joy
Ġc al
Ġac cess
f e
Ġn on
Ġac ross
er y
vious ly
ĠE x
id ed
Ġl ink
ĠP r
Ġterm s
ac es
Ġl and
az ing
Ġ1 5
Ġm ult
Ġspe cial
å Ģ
iv ing
ìĿ Ģ
Ġty p
Ġst e
Ġ Ä
Ġfor ward
å ı
Ġf re
å¥ ½
Ġrese arch
à¯ į
Ð° ÑĤ
Ġma in
Ġrec ord
Ġh u
Ġdefin itely
Ġe ither
Ġlist en
Ġke y
Ġmark et
ĠÑĩ ÑĤÐ¾
iz ation
Ġvide os
Ġgu y
Ġf ig
Ġst ra
ĠP l
ull y
am os
Ġm ention
Ġs ong
Ġinter n
r al
ur s
Ġh on
Ġval ue
Ġb ar
c le
Ð¾Ð ¶
Ä ĩ
ľ ë
Ġz u
Ð¸ Ð¼
ä½ ł
Ġsing le
Ġa uch
cus s
Ġget s
Ġsomet imes
å ¾
am b
m m
c ing
Ġper fect
ĠB l
out h
ì ł
Ġs ci
p ar
Ġre d
Ġp ost
Ġm ot
Ġele ct
ĠE u
it ive
ĠS ome
Ġdes cri
Ġcur rent
Ã© s
Ġt re
ĠE n
Ġm it
E N
Ī ë
i um
Ġhe ard
Ġsim ple
l ar
Ġevery body
il ar
Ġneed s
Ġdif fic
ĠGo od
um ent
c ent
Ġo per
Ð° ÑĤÑĮ
et y
Ġbl ack
Ġgi ven
on es
Ġwe l
é Ģ
Ġìķ Ħ
Ġ3 0
A T
Ġst at
ou ch
ĠM r
Ð° ÑĢ
Ġsh o
Ġcon d
× Ķ
m y
Ġchild ren
Ġe u
ÐµÐ ´
ìķ Ħ
ter n
Ġu h
Ġh ar
Ġpr om
Ġp ull
re w
Ġcomp any
Ġbeaut iful
ust om
íķ ĺ
Ðº Ð¸
Ġst re
Ġam azing
ri es
Ġsuc cess
Ġm ach
n ot
Ġdis cuss
Ġn at
¦ ¬
Ġun e
Ġdiffic ult
Ġr is
Î ½
Ġc amp
Ġbu y
ä¸ Ģ
Ġma g
p o
ĠY our
Ġbeh ind
ic a
Ä± n
ĠO K
Ġl ang
Ġwom en
Ġen v
Ġre ce
Ġchann el
i ally
u le
Ġ1 2
th ers
Ġb ott
Ġrep ort
ent ly
f ully
T he
Ġs ent
Ġev ent
Ġener gy
l t
Ġword s
ar r
d le
Ġa head
ard s
Ø ±
äº Ĩ
Ġto ol
con om
Ðµ Ñģ
Ġexact ly
Ġf avor
Ġl ow
Ġpro per
Ġìŀ Ī
Ġ !
Ġrel ations
Ġm as
Ġkid s
Ġent ire
ud e
Ù ħ
ĠWh ere
Ġon es
Ġc ity
ol ut
Ġs ix
ab ility
Ã¶ r
il i
ĠE s
Ġhapp ens
ain s
Ġmod el
Ġp ict
Ġes pecially
Ġ1 00
k t
Ġso on
b y
ro du
Ġan n
Ġsubs cri
ĠQ u
Ġav ail
im ent
Ġv oc
k a
Ġ2 00
ap er
ĠI nd
Ġì §
h or
į °
j or
Ð¸ Ð»
Ġs qu
A U
ar ning
ĠÐ ³
I S
ĠÐ »
ÐµÐ ¹
y es
å ħ
ĠÐ Ĵ
Ġor ig
Ð¾Ð ³Ð¾
Ġask ed
il t
Ð¾Ð ³
Ġcontin ue
Ġì ĺ
r am
Ġo thers
E S
oh n
Ġl ay
Ġbas ed
Ġp u
Ġapp e
Ġl im
Ġpro p
Ģ ë
m in
Ġh ot
ĠL a
Ġf ast
Ġprot ect
Ġam ount
Ġa qu
Ġf und
Ġc ustom
Ġc ult
Ġhand s
Ġha ven
Ġa ud
Ġout side
ĠA fter
ap s
Ġan im
pl oy
Ġh at
ĠF irst
Ġt reat
Ġe p
Ġm ater
Ġbuild ing
Ġë °
å Ĳ
ìĦ ľ
z a
ught er
ĠP e
ne y
et er
at ic
Ġed uc
ê¸ °
Ġmo v
ĵ ¤
am a
r ation
Ġs n
Ù Ī
Ġs um
Ġph ot
ĠÐ Ŀ
Ġ .
æľ ī
Ġfin ish
itt ing
å ®
Ġlar ge
Ġì ĸ
Ġwh ite
ar a
Ġma is
ĠH i
Ġd am
ĠØ§ ÙĦ
Ġbo x
ĠHe llo
Ġs le
Ġo pt
ri ed
¥ ¼
Ġact iv
Ġn Ã£o
ĠC om
Ġplay ing
T h
Ġavail able
Ġp ort
å Ī
ĠA h
Ġl as
Ġear ly
Ġwond er
± °
Ġ1 8
c ul
Ġfun ction
Ġmor ning
ll e
i ents
u x
Ġc ir
it ions
Ġde ep
Ġpol it
y or
m p
ak ing
Į ë
ĠM an
Ġmill ion
Ġ /
Ġind ivid
Ġp an
Ġgovern ment
Ġwr ite
ĠT od
am ent
Ġ Ï
Ġw ind
ĠE ng
ch en
W h
ì ľ
Ġ ident
ãģ §
v ent
ur ch
Ġh y
Ġy a
Ġtr ad
Ġrelations hip
Ã º
Ġd ou
O R
Ġs we
Ġne g
in ation
Ġte xt
i pp
Ġf ine
Ã¡ s
ĠD r
ĠC ome
Ġmonth s
, "
ÐµÐ½ Ð¸
Ġhour s
Ġp od
ir t
Ġinv ol
Ġcoll ect
Ġau f
Ġp a
Ġhist ory
m b
if y
Ġ ?
Ġbel ow
as ure
ab y
Ġlang u
Ġan t
Ġcom b
at o
Ġex ist
Ġë ĭ
Ġtak es
Ġcharac ter
a ff
Ġf ield
Ġe conom
ie f
Ġpie ce
å ľ
Ġre ach
Ġê ²
on y
Ġmater ial
Ġd ig
Ġph ys
Ġimp ro
Ġsim ilar
I C
Ġn et
y n
Ġpos ition
Ã Ł
Ġb ene
re ad
Ġle arning
um e
Ġcle an
ÑĤÐ¾ ÑĢ
Ġco ok
Ġseem s
Ġo l
ĠU S
ĠJ es
Ġ à®
ent ial
ivers ity
ac y
Ġ Ñı
olut ely
re ct
ĠP lease
Ġrep res
Ġt ouch
m en
ĠÐ °
i Ã³n
ĠThank s
Ġan g
Ġma jor
Ġit self
ill s
" ,
i ans
Ġsc reen
Ġh or
Ġknow n
Ġenv iron
Ġfin al
Ġfig ure
ĠT w
Ġe yes
Ġim ag
Ġsee ing
Ġha ir
re m
Ġapp lic
end s
p ut
Ġnew s
Ġcomplet ely
ugh s
Ġkn ew
if ied
ĠJ e
ĠD id
Ġsitu ation
Ġf lo
m s
Ġph one
Ġb all
d o
Ġp arent
Ġs orry
ur y
Ð¸ Ð½
ip s
Ð°Ð ´
Ġinst ead
Ġhu ge
Ġt u
Ġ ãģ
ĠG r
Ġdet ail
ĠÐ Ł
Ġindivid ual
Ġf ire
Ġcl os
Ġw er
un e
Ġrun ning
Ġcon vers
Ġrec omm
Ġcom o
Ġsome body
ĠJ ohn
ĠìĿ ´
ĠO ur
pl es
ĠP h
Ġan al
Ġ5 0
Ġof fer
Ġ <
ition al
g est
Ġv ous
l et
ic y
Ġfeel ing
L E
r os
Ġth ird
Ð¾Ð º
Ġser ies
ĠAn y
is ed
o ld
Ġdra w
Ġserv ice
Ġcan not
b al
ãģ Ĩ
Ġli ving
Ä± m
Ġdiffer ence
Ġopportun ity
Ġne ar
or th
k en
Ġloc al
Ø ª
ĠC on
Ġob ject
Ġd ass
ãģ Ļ
Ĳ ×
Ġquick ly
ra ph
Ġiss ues
éĢ Ļ
ĠAmeric an
Ġpre p
en ces
Ġprof ess
ll ing
o f
Ġfo ot
b re
Ġus ually
Ġgener al
d a
an ces
Ġd est
Ġo cc
Ġmem bers
Ġd ans
Ġequ al
z t
Ġbe com
Ġmo ving
Ġspec ific
ÃŃ a
Ġf ur
Ġne cess
Ġcomm on
Ġatt ack
ĠÑį ÑĤÐ¾
ĠTod ay
Ġun s
ĠG u
i od
Ġacc ount
Ġgra nd
Ġs elf
ĠE l
Ġt ast
Ġcont ent
Ġc u
Ħ ë
ĠMay be
ĠJes us
ore s
p ort
© ´
Ġg ives
Ġnorm al
ÑĢ Ñĥ
Ġimp act
Ã¤ r
Ġd ies
Ġl ab
s h
i os
ĠP res
ĠU nd
ĠO f
Ġfin ally
Ġdo ll
Ġvoc Ãª
p ly
ĠA g
Ġtak en
Ġgr ound
f ort
Ġg ave
ĠIn st
Ġl ost
Ġwork ed
Ġl iter
Ġiss ue
Ġind ust
Ġret urn
Ġhappen ing
Ġwant s
Ð¸ Ð²
Ġproblem s
ĠC ar
Ŀ ¼
ĠAl so
Ġs ize
Ġob viously
ĠS u
ĠS c
Ġrecomm end
our ces
ast ic
.. ..
Ġm i
l ier
ĠE ven
ci a
Ġh ur
v a
Ġm ass
Ġwould n
un t
ck s
Ġf elt
os p
l ight
Ð¾Ð» ÑĮ
n ie
Ġbott om
ĠÐ± Ñĭ
ore d
is on
Ġgr ad
Ġum a
Ġv a
Ġì Ĥ
ress ion
ul ation
I D
id ence
Ġb ur
Ġg one
l u
ìĸ ´ì
Ġre du
Ġj a
ìĿ ĺ
it a
Ġso ft
ĠÃ§ a
ic o
er al
Ã ±
a f
Ġpoint s
g u
Ġd Ã©
ap t
a x
ĠAl right
Ġcam era
Ġa ch
ĠÐ¿ Ð¾
Ġse ver
5 0
Ġs ie
Ï ģ
Ġm al
Ġcomp ut
Ġmid dle
Ġcould n
m ing
Ġì ĭ
ĠH is
Ġg ames
Ġint rodu
Ġc ell
p or
Ġsle ep
Ġë ³
id ing
Ġ ou
Ġde g
Ġdr ink
Ġenviron ment
ĠUn ited
Ġtalk ed
Ġcho ose
Ġj our
e ge
ĠM in
Ġint e
Ġr ather
Ġoff ic
Ðº Ð°
ac hing
Ġmention ed
Ġf ill
Ġtr ack
Ġn ie
Ġ ut
ĠÐ² Ñĭ
ib ility
Ġv ac
Ġr ad
Ġp ack
Ġs end
ĠD as
ĠA b
Ġeng ine
ãģ Ĺ
Ġcomp et
Ã ´
ĠÐ² Ñģ
Ġdo or
Ġlong er
å° į
Ġlangu age
Ġext ra
pl ay
Ġwe bs
um b
ro om
ç ľ
Ġbegin ning
Ġre fer
A M
n en
ig her
f ace
er c
Ġfor get
Ġcom ment
ÐµÐ º
Ð» Ñı
r or
Å¼ e
ĠG e
Ġd ark
Ġany one
ant e
g es
ìĬ µ
Ñ ĳ
b ed
j e
ruct ure
Ġpr im
id a
è ¦
ãģ ¾
Ġm ix
Ġstart ing
ĠìĿ ´ë
Ġprov ide
act ion
Ġm other
Ġper iod
Ġst ick
ĠYou T
Ġtechn ology
ê ¹
Ġb ed
Ġg iving
Ġexpl ain
z en
im ate
Ġrepres ent
lo ad
ĠHow ever
Ġli ves
ut h
ir it
og n
Ġli k
Ġresp ons
Ġpri v
Ġto m
Ã§ Ã£o
i am
Ġexc ited
Ġc ard
gr ound
Ġ× Ķ
Ġs ens
Ġte ach
id o
h od
Ġep is
Ġwel come
Ġw all
ä ¹
Ġch ance
h en
ĠÐ ¡
ĠÄ ĳ
Ġsim ply
ĠÑĤ Ð°Ðº
r ing
j a
b ook
Ġsever al
st e
Ġcreat ed
ĠÐ¾ ÑĤ
Ġp ush
= =
Ġh igher
u f
our ce
o ke
Ġon line
Ġre le
Ġt on
ens ive
Ġfavor ite
Ñĥ Ð´
Ġlook ed
Ġv on
âĢ Ķ
Ġf Ã¼r
Ġbut ton
Ġb ill
Ġchang es
! "
Ġsl ow
ab les
Ġde ath
and s
ate g
Ġthem selves
ãģ £
Ġc op
ãģ ®
Ġperson al
ug hing
Ġ1 1
g ar
ad es
Ġneed ed
Ġstud y
ag ed
ÑģÑĤ Ð²
in o
Ġdis c
k i
Ġadd ress
× ¨
itt en
es ome
ĠÐ ¶
¤ ë
ur a
Ġm u
Ġcontin u
f or
Ġm atch
ãģ ¦
Ġstra ight
Ĳ ë
n ers
Ġdo g
Ġde b
ĠC O
Ġo s
g ed
c ame
Ġcor rect
et te
ĠSe e
Ġinclud ing
ĠEu ro
est er
Ġj ump
ĠWh ich
ĠÐº Ð°Ðº
s on
y a
IN G
Ġe ine
os h
en cy
Ġmed ia
Ġsubscri be
é Ĥ
Ġpr in
Ġha b
ĠP er
ĠW as
Ġp age
it or
Ġto wards
Ġtri ed
en ge
art ment
Ġvar i
Ġp aper
Ġpict ure
Ġvers ion
Ġbr ought
w are
ĠSt ates
Ġs ich
led ge
Ġper cent
Ġgo d
e c
ĠC omm
Ġdec ided
Ġse lect
íķ ľ
) .
ur ity
Ġfur ther
Ġcom ments
le ment
Ġd ream
Ġcent er
m i
Ġc as
Ġwom an
Ġro ad
Ġf ail
Ġbe came
l us
il ities
ãģ ¯
ĠC o
Ġman age
Ġrec ogn
Ġact ion
Ġbene f
Ġear lier
× ľ
Ġspe ed
Ġm ent
Ġso ci
Ġsho ot
u i
ĠÃ ¤
Ġapp ly
v o
x im
Ġca use
Ġsur pr
Ġha ben
D I
Ġf ather
ĠNe xt
ĠYouT ube
Ġc ode
Ġro le
g ress
Ġg reen
et t
Ġbu ilt
Ġfl ow
Ġb ase
Ġtra ining
Ġr ound
ĠW ill
Ġp ath
ĠR o
Ġinterest ed
ìĸ ´
Ġres pect
Ġchang ed
iss ion
Ġstud ent
og raph
Ġappro ach
Ġshow s
å° ±
Ġt ar
Ġcr it
Ġg lo
ìĬµ ëĭĪëĭ¤
Ġde ad
ĠPres ident
Ġth ous
Ġb al
st er
e x
Ġabs olutely
Ġm ic
Ġpract ice
Ġqu ality
Ġl ower
og le
Ġse par
b all
med i
Ġre view
ĠA pp
Ġo k
âĢ ĭ
Ġexper ien
Ġconc ern
ent ially
m ore
ĠJ o
ap an
ĠI ch
ist ic
Ġf air
Ġwebs ite
i res
ĠB y
Ġtra vel
Ġris k
Ġm ir
Ġbo ard
Ġs en
Ġparent s
ĠW ow
Ġfe ed
Ġsa ve
Ġser ious
Ġin it
E L
und red
A S
Ġv an
or row
Ġwor th
Ġse arch
Ġ1 6
Ġpart s
ÑģÑĤ ÑĮ
Ġcomp an
Ġmov ie
Ġmet hod
Ġ ill
Ġw ish
d y
Ġit em
Ġmin us
ang er
Ġvo ice
Ġsk in
Ġare as
Ġe ight
Ġo bs
Ġ ,
Ð°Ð ¹
Ġo il
Ġc y
Ġb aby
s y
Ġem ploy
ĠK e
Ġpl aces
Ġf ix
Ġest Ã¡
ãģ ¨
iv ed
Ġlot s
Ġse ason
un k
al t
Ġt able
ĠÐ ¢
Ã ¢
Ġatt ention
ãģ ª
ĠH er
Ġa ge
Ġp ra
b ack
c il
Ġnet work
r it
Ġdo c
Ġare n
ig en
Ġë Ħ
Ø ¯
end er
Ġtot al
Ġpr ice
Ġcra zy
ì ļ
i qu
th ough
Y ou
Ù ĩ
ãĤ ĵ
Ï ħ
Ġs at
Ġb i
ĠD ie
Ġsh a
Ġthank s
u h
Ġst age
Ð°Ð ¶
ĠF l
Ġle av
Ġbo y
Ġa f
Ã¶ n
ĠG et
Ġac cept
Ġent er
Ġt ur
Ġsi ÄĻ
Ġhon est
ãĢ Į
Ġs am
Ġre pl
g ing
Ġdevelop ment
ĠA ct
or a
ãĢ į
ä ¾
Ġknow s
Ġim age
ĠL ord
Ð¸ ÑĤÑĮ
Ġweek s
Ġse x
Ķ ë
Ġh undred
Ġsound s
Ġlearn ed
Ġb ud
ĠÑģ ÑĤ
Ġinc red
â Ļ
Ġn os
Ġd rop
Ġb en
ĠÐ ĺ
Ġsa fe
at a
Ġf uck
so ci
Ġd an
Ġcr oss
1 0
m o
ver t
Ġ1 7
z ie
å ķ
Ġd om
ĠB o
Ġset ting
Ġinvol ved
ar ily
Ġs ind
Ġs us
Ġwor ry
et h
ê¹ Į
Ġs un
Ġh ier
Ġcertain ly
ou l
ort s
ĠE r
ĠU m
Ġca us
Ġnat ural
ĠÃ ¼
Ġc ry
ĠSe c
Ġs om
æ ²
Ġeduc ation
Ð° ÐµÑĤ
Ġmult ip
Ġal one
Ġe ye
Ġr ate
ĠEuro pe
è ¿
m on
Ġf it
iz ing
pp ed
Ġpress ure
th e
Ð¸ Ñģ
it es
ĠA f
re ci
att le
Ġserv ices
ĠGo ogle
é ģ
Ġc ases
Ġdri ve
Ġchall eng
u z
ĠM o
ìľ ¼ë
v al
åĢ ĭ
Ġf ol
Ġì ¢
ff ic
Ġr a
Ġs in
Ġbl ue
Ġaff ect
Ġm is
Ġsh ot
ĠÐ¾ Ð±
as ing
Ġsign ific
ĠC he
Ġê ³
Ġpos itive
ì £
Ġw ie
Ġ4 0
ord ing
ĠFr om
ê µ
Ġbra nd
Ġtr ust
Ġp le
Ġcommun ic
Ġwe ight
Ġask ing
Ġta x
ĠJ apan
ãģ Ł
Ġíķ ĺ
op s
Ï Ĥ
Ġput ting
Ġro ll
ĠAmeric a
re g
ŀ ×
at ures
ens ion
ĠS omet
Ġorig inal
p ing
Ġ ÅŁ
Ġproduct s
ãĥ ¼
Ġcont act
ol ution
Ġgo al
Ġp ow
Ġperform ance
Ġblo od
at ors
ĠM ich
Ġtem per
ĠD an
Ġsu gg
ÑĤ Ð¸
Ġim m
Ġoff ice
Ġar ri
Ġcom fort
ĠÐ Ķ
Ġsugg est
Ġpl at
Ĥ ĺ
1 9
Ġo m
Ġse ven
ĠC ent
ill e
Ġcon cept
Ġb ag
Ã¼ n
ive ly
Ġd iv
m os
æ ī
Ġfeel s
Ġ ir
ak es
le y
Ġpartic ip
ĠÐ ļ
f l
j ust
Ġs il
ĠP a
A L
Ġgot ta
Ġf an
Ġchall enge
Ġcompan ies
ĠPe ople
< /
Ð¾Ð ·
Ġp en
is ing
Ġa us
em ic
am ente
Ġmeet ing
Ġvis it
Ġsupp osed
ĠOn ce
Ð´ Ð°
or ld
3 0
U S
Ġvi ol
Ġnot ice
ĠÐ Ĳ
h an
p ed
ì ĺ
h h
Ġtr ou
Ġmin ute
ĠP ar
r ay
Ġt it
Ġup d
Ġblo ck
Ġd ue
a ur
Ġfor ce
Ġcou n
ĠâĢ Ķ
Ġtyp es
ë §
Ġl ate
Ġimpro ve
Ġì Ī
Ġa ve
ul es
c l
am ed
Ġaw esome
ĠO k
Ġv ot
Ġmach ine
Ġfollow ing
Ġme asure
ac iÃ³n
u el
ch an
Ġab ility
Ġt out
Ġide as
Ġincre ase
Ġen s
ĠÑ ħ
Ġë ª
Ġj est
ĠÐ ľ
Ġtr uth
h y
Ġsp end
Ġsci ence
et e
Ġ1 4
Ġepis ode
Ġal g
end ed
ãģ ĵ
ar i
ll a
Ġf ish
Ġthr ow
m it
å ¹
Ġcir c
ĠC al
Ġt our
Ġdire ction
Ġno ch
ÐµÐ ²
Ã© n
Ġcount ries
Ġindust ry
in y
ic le
Ġfe et
I t
Ġlead ers
et zt
Ġst aff
ç Ķ
Ġpur p
it o
? !
ĠJ a
Ġst ore
et ic
ĠCh ina
Ġë Ĳ
ĠUn iversity
Ġ #
Ġdec ision
Ġach ie
Ġact ual
u ly
Ġse ction
Ġresult s
Ġst ar
Ġm ist
ib ly
Ġd ad
Ġnum bers
om b
è ª
ĠS pe
Ġm er
Ġ2 5
Ġaut om
Ġco ld
Ø ¨
Ħ ľ
ag er
ĠT V
ĠS ie
ĠH ave
Ġ Å¼e
ug g
ain ed
Ġup on
Ġlo g
Ġcomplet e
Ġbra in
ag ing
ĠM us
o ver
Ġeas ier
Ġinte gr
Ġm Ã¡s
Ġturn ed
Ġst ri
iv al
Ġhe av
ĠT H
Ġwr iting
ÑĢ Ð°
åľ ¨
å¤ §
Ġcl a
d ing
Ġtell ing
Ð¸ Ð´
ic ated
ä» ¥
ac ht
ãģ Ĥ
h aps
ĠSt e
Ġres ources
Ġd ann
Ġpart y
Ġ ÏĦ
Ġsa f
is es
t re
o int
Ġknow ledge
Ġany more
Ġf ly
Ġma int
Ð¸ Ðº
å ĳ
Ġse ll
la ughs
ĠY ork
Ġb ien
Ġo d
Ġeas ily
Ġr ange
Ġo ption
Ø ¹
Ġapp reci
oc r
Ġdet erm
Ñ Ħ
Ġmean ing
Ġs ite
Ġdis co
ver age
Ġl ose
Ġinst all
Ġem ot
ant ly
Ã¤ t
Ġt amb
ĠW ar
ĠH o
ĠG en
em y
ÐµÐ ·
ĠP ol
Ġmess age
Ġnot e
Į Ģ
Ġh et
Ġim medi
Ġav o
Ġbook s
Ġbecom es
res h
Ã¨ s
as ons
Ġhim self
ut s
Ġj u
Ġaw are
Ġrequ ire
Ġsystem s
ĠH ar
Ġam ong
Ġh om
Ġb reat
Ġwe ird
Ġë ¶
Î »
Ø ©
if f
or ing
Ġplat form
ĠT ake
Ġhelp s
ut ions
Ġfor g
Ġl uck
ĠEng lish
Ġwe b
Ġneg ative
Ġt ut
Ġab ove
ng th
Ġê ±°
Ġst ories
Ġlo ad
Ġback ground
Ġsw itch
g a
Ġprin ci
Ġfin an
Ġvar ious
Ġl Ãł
Ġkind s
ain ing
Ġn ature
ĠÐ ŀ
c z
Ġpr ay
Ġg ar
ir m
Ġ &
Ġì ĥ
n s
ĠR ep
ĠF e
Ġre v
ra nd
Ġlike ly
Ġunderstand ing
Ä± r
ãģ ĭ
Ġf al
Ġ1 3
ÑĨ Ð¸
Ġsu d
Ġbr other
Ġpl ant
Ġthrough out
w ise
p re
Ġcult ure
ĠÙ ħ
Ġwonder ful
Ġa h
pp er
Ġso ld
Ġstart s
Ġwr itten
Î ¯
n i
Ġ×Ķ ×
ĠD av
Ġu lt
Ġar m
Ġro ck
Ġwe ar
ë į°
an o
ra g
Ġsqu are
Ð°Ð½ Ð¸
c ast
le br
Ġliter ally
Ġplay ed
Ġhe at
on se
r ict
Ġins p
id s
Ġpop ular
ë ıĦ
Ġc atch
Ġm ount
Ġj ud
Wh at
ÐµÐ ±
R A
a ud
Ðº Ð¾
Ġsur face
Ġcon v
Ġpie ces
O h
æ Ģ
Ġst yle
pp ing
Ġread ing
Ġconvers ation
Ð¾Ð ¿
ä¾ Ĩ
ĠAg ain
Ġb ank
t ime
Ñĥ ÑĤ
er ve
ĠG reat
Ġcap t
Ð°Ð ±
ay s
ĠF in
ific ation
ĠÃ¤ r
Ð° Ñİ
Ġe gg
ĠW el
Ġtar get
ul a
ch es
an i
O O
ic ious
n ow
Ï ĥ
bo ard
Ġg ente
Ġd ro
ĠE t
Ġd in
Ġc os
Ġaut hor
Ø ³
Ġo ch
Ġem ail
Ġsp irit
Ġs itting
m as
Ġstre ngth
Ġbig ger
ĠW ait
Ġm at
Ġpol ice
ress ed
Ġwait ing
is hing
Ġdoll ars
ho od
s s
Ġimag ine
in i
Ġm es
Ġdis e
id ge
ab or
Ġp et
Ġh op
ĠK ing
Ġcomput er
Ġgo ld
Ġn u
Ġf ing
) ,
Ġsec urity
ru ction
Ġsol ution
e xt
Ġp atter
ick en
ure d
Ġstand ard
ìĭ ľ
Ġdou ble
Î ·
Ġw ife
is a
Ġdirect ly
ac ed
Ġb unch
ĠÂ ¿
Ð°Ð» ÑĮ
Ġreg ard
Ġswe et
Ġun ique
ĠâĻ «
Ġtra in
ĠG erm
Î ¬
R E
Ġbeh av
Ġpre d
ì ĥ
s et
Ġdescri ption
Ã© e
Ġc at
å ĵ
Ġcoll ege
ì Ľ
Ġapplic ation
ĠS en
as k
Ġc red
ub lic
Ġmultip le
Ġn i
Ġpres ident
Ġadd ed
Ġro b
Ġaqu i
Ġh osp
Ġtool s
Ġg un
Ġbas ic
Ġl ines
Ġst ructure
ĠR uss
Ġtot ally
Ġbig gest
Ġe en
Ġar g
Ġ× ľ
Ġp ark
ĠD es
Ġce lebr
Ġf ait
ÐµÐ½ ÑĮ
Ġsu ff
Ġreg ular
¨ ë
Ġm ine
ĠK ore
Ġpre vious
Ġp i
Ġse g
Ġpol icy
ĠÐº Ð¾
ĠTr ump
Ġvac c
Ã³ w
ĠS y
Ð¸ Ñĩ
it ter
Ġpolit ical
r as
Ġal s
ÐµÐ» ÑĮ
Ġsha pe
an z
Ġon to
Ġar ch
Ġam b
ag ram
ĠS m
ct ions
Ġjo in
b or
å Ľ
Ġfr ame
ł ĩ
Ġcho ice
à¯ ģ
Ñĥ Ñİ
ĠC or
ĠS w
I T
Ġt end
ĠE ar
Ġto r
Ġev ents
Ġcla im
ĠD a
ĠM ark
Ġgroup s
Ġe ating
ĠW orld
Ġrec ently
Ġtast e
Ġsur v
à ¤
Ġsk ills
ĠÐ¸ Ð·
itt ed
Ġsh op
ìĿ ´ì
Ġest ab
ĠëĤ ĺ
Ġsecond s
ĠTh ose
ĠE nt
Ġì Ħ
ers on
Ġto wn
Ġc and
Ġopt ions
Ġ ing
V ID
Ġenc our
Ġr Ã©
âĻ ª
Ġent re
Ġmove ment
ĠB en
Ġbir th
Ġwh e
Ġh ang
ĠE m
ig e
ro ll
Ġun f
ì Ĥ
Ġr id
Ġsp read
Ġh ost
al d
ĠE d
Ġcons um
U N
Ġop in
it ar
ĠM ed
Ġsub ject
Ġp al
Ġcar ry
Ġag ree
ĠWh ile
Ġcare er
Ġsci ent
Ġsud den
Ġf ile
z i
Ġex cept
é º
Ġpot ential
ĠAn other
Ġcomp lex
ĠS im
end o
Ġr ais
Ġphys ical
Ġd ate
ak er
ĠC ol
Ġpower ful
Ġmem ber
ra p
Ġsp ot
Ġs ource
Ġf em
Ã© m
Ġem p
j i
iet y
Ġinf lu
Ġd ry
Ġlo ck
Ġz ero
ĠU h
Ġr out
Ġpor que
Ġ2 4
Ġt al
Ġfol ks
Ġla unch
Ġcomp on
ĠWel come
Ġk ann
Ã¤ n
ĠÑį ÑĤ
e es
ĠÙ Ī
Ġany way
Ġaud ience
äº º
Ġsl ight
on a
Ġu r
Ġrel ig
Ġext rem
Ä± z
ĠM a
Î ¼
ĠÃ ¶
Ġall ows
Ġf at
ĠF ace
Ġn ational
Ġinter view
ĠM c
Ã© t
Ġc ute
el a
Ġsec ret
ĠW est
ĠD ep
Ġex erc
Ġhist or
Ġpri or
Ġ6 0
av a
ac her
y ond
ĠH a
Ġest e
in ary
ĠN orth
on st
Ġsm art
am s
Ð°Ð» Ð¸
Ġd ar
er ed
Ġfun ny
ĠO b
ĠBl ack
Ġrel ated
ĠB u
Ġsome where
ĠR em
n es
ment e
ĠRe ally
Ġcreat ing
Ġfam il
Ġsoci ety
Ġg el
Ġtrans form
Ä ĥ
Ġinclud e
Ġh ol
l ike
k o
air s
ĠÐ¿ Ð¾Ð´
Ġpers pect
Ġb es
Ġparticular ly
Ġshow ing
ĠP art
Ġqu al
lo ck
Ġreal ity
ho ld
ict ion
o on
Ġv ir
ãģ «
it ary
Ġdr ug
Ġfe ature
Ġre asons
Ġ× ©
Ġwr ote
Ġf ant
Ġb and
Ù ĥ
en a
ke y
Ġear th
d om
Ġfe atures
Ġflo or
Ġspeak ing
Ġt ip
ĠA ust
Ġst ock
Ġch urch
Ġr ac
ìľ¼ë ¡ľ
à¸ Ļ
ãĤ Į
k y
Ġresp onse
Û Į
ul ations
Ġsl ide
Ġgrad u
ci ous
Ġme ant
Ġ ==
Ġ× Ĳ×
ã ħ
Ġkind a
Ġsc ene
Ġm uit
Ġê° Ģ
r ast
re st
Ġplay ers
w a
Ġbro ad
Ġtom orrow
oc ol
ĠÑģ Ð²
ĠB ar
Ä± k
Ġse a
Ġrem ove
Ġrem ind
Ð¾Ð¼ Ñĥ
ĠS ince
Ġave c
ce ll
Ð¸ Ñħ
Ġdoc ument
Ġê·¸ë Ł
Ġne igh
be at
Ġp Ã¥
Ġas pect
Ġd ed
lish ed
il s
Ġour selves
u ce
Ġhe y
ĠÐ¿ÑĢ Ð¾
ent y
Ġas soci
ad os
um ber
Ġ ]
éĤ £
no v
Ġì Ļ
Ñĥ Ñĩ
Ġcond ition
ëĬĶ ëį°
Ġval ues
Ġsc en
min ist
Ġc ast
Ġgrow ing
Ġus er
Ġresp ond
l im
Ã© r
y m
çľ ĭ
os es
sy ch
ĠÑĢ Ð°Ð·
Ġappe ar
Ġpro gress
eng th
Ġj ak
ĠD is
Ġpat ients
ĠS er
Ġg as
Ã¨ re
ìĸ´ì ļĶ
Ġre ci
ìĿ ¸
Ġs ca
ep end
Ñģ Ðº
Ð°Ð ¿
Ġb atter
Ġve h
ð Ł
Ġac com
Ġbe at
Ġpain t
Ġcont rib
Ġs ad
Æ °
al es
Ġt ree
b a
Ġb orn
ic ed
à® ķ
b and
Ġme chan
ĠD et
Ġcap ital
Ġdel iver
Ġfe ar
ŀ ĺ
ĠS outh
Ġb ought
Ġst ress
Ġv or
? ?
i h
ìķ ¼
Ġer a
ìĿ´ ë
Ð° Ñı
is ions
iv ity
Ġhelp ed
Ġass ist
Ġplay er
r an
Ġimmedi ately
Ġmo ved
c ie
ê ±
Ġann oun
å ¿
ìŀ Ĳ
Ġprodu ction
Ġsum mer
Ġt un
Ġprogram s
G H
al ing
ir a
el ess
. )
Ġa verage
è¦ ģ
Ġgl ass
om an
if ically
Ġëĭ ¤
ĠC ong
ĠV er
Ġtr ick
Ġbe gan
Ġv ill
ê ±°
h ow
æ Ń
Ġt ill
Ġ9 0
ber t
Ġê ¸
Ġtemper ature
Ã ²
à¹ Ī
Ġgra ph
Ġê· ¸
Ġr ot
Ġmo b
A Y
a el
Ġre pe
Ġdev ice
Ġ19 9
Ġte le
Ġke pt
p a
æ ĸ
ver se
Ġst ream
Ðµ Ñĩ
ess ion
Ġstr ugg
z z
Ġdeg ree
Ġhelp ing
Ġsm ell
Ġper haps
p ro
Ġcont ext
Ġi k
ĠÐ¿ ÐµÑĢ
Ġcal cul
éº ¼
b ing
Ġreal ize
l am
ĠCh ar
y t
ĠìĿ ´ì
Ġd anger
ĠI m
a a
Ġlo ved
Ġpurp ose
Ġfinish ed
Ġpe ace
Ġo t
Ġglo bal
Ï Ģ
Ġab er
ĸ Ī
Ġcharac ters
Ġn ur
Ġdam age
Ġem er
Ġpre c
ĠW ir
Ġinst it
ĳ ×
Ġallow ed
b on
Ġto d
ÐµÐ ³Ð¾
Ġj etzt
Ġmed ic
Ġsmall er
ce ed
Ġlevel s
Ġint ell
W e
Ġse m
Ġcurrent ly
Ġmod ern
Ġcont ract
Ġdetail s
ortun ately
O S
Ġst ates
Ġad just
ant age
e z
ĠV ery
Ġsc ale
Ġre lease
Ġf az
Ġ ic
it ude
A C
ĠP at
id en
Ń Ĳ
Ġpre fer
olog ical
ĠFace book
Ġê° Ļ
Ġ ..
ĠM ake
ĠÐºÐ¾ ÑĤÐ¾ÑĢ
ĠDav id
ĠAf ric
Ġmod e
ĠC ity
Ġsh all
ĠÑ Ħ
im in
ĠÐ· Ð°
r om
u a
Ġbe yond
Ġdist rib
Ðº Ñĥ
ĠDo es
Ġv ict
r ate
Ġv ai
Ġsuccess ful
Ġh ous
ah a
est s
ĠE st
Ġdisco ver
Ġthere fore
ch a
Ġc up
Ġpop ulation
ĠI l
s c
Ġsp ent
re l
Ġuse ful
Ġt ab
æ Ŀ
Ġ Å
Ġìł ľ
Ġcon se
Ġqu ant
ay a
Ġb on
åı ¯
ĠCh in
Ġê² ĥ
ound s
Ðµ ÑĪ
ell e
Ġ ice
2 1
Ġk ick
ä¸ ĭ
Ġstep s
Ġton ight
Ð½Ñĭ Ð¹
ren ch
. '
Ġgra b
Ġimp lement
ĠìĪ ĺ
Ġmiss ion
Ġclear ly
Ġappreci ate
è Ģ
Ġf resh
ar m
ĠTw o
Ġex ec
Ġproject s
Ġcommun ities
ri ble
Ġreg ion
Ġfre qu
ro y
Ġhow ever
Ġpart ners
an c
Ġmin im
Ġl at
Ġfamil ies
Ġev idence
Ġp un
ra ft
Ġl oss
Ġma p
Ġany body
Ġchang ing
Ġr ules
Ġorgan ization
Ġess entially
ĠR ed
Ġele ment
æ Ĺ
Ġv irt
r at
Ġpr int
and er
are n
em os
Î¿ Ïħ
Ġcond itions
ab e
Ġd ance
Ð¸ ÑĢ
Ġd os
Ð¾ Ñĩ
ĠQ ue
Ġwalk ing
Ġt ro
Ġ id
Ġadd itional
Ġfull y
Ġf ans
Ġadd ition
Ġlik ed
ĠÃ¼ ber
Ġb ow
d i
Ġm aster
o ff
) :
m ber
Ġë ¬
å ¯
åĪ °
la use
Ġo der
Ġsaf ety
Ġre act
à® ¿
b t
Ġdis app
Ġgirl s
S t
ĠA ng
Ġfa ith
Ġturn s
Ġt ight
Ġm outh
am i
z er
Ġwe ap
ĠÐ± ÑĥÐ´
Ġhosp ital
ra id
Ġmic ro
ĠSt ate
ĠM ost
ag n
Ġdec ide
Ġpat ient
Ġcor ner
Ġdi ed
N o
ĠSt ud
re nd
em pt
Ġli e
Ġl if
ĠBe fore
t Ã³
ĠSu per
Ġbe ll
6 0
Ġpriv ate
ĠPa ul
Ġg ib
Ġag re
´ì Ħľ
Ġs ig
Ġinvest ig
Ñı ÑĤ
en ing
Ġdist ance
Ġwar m
Ġdig ital
å¾ Ī
in er
Ġp and
ĠCO VID
Ð ³Ð¾
g n
Ġr ace
Ġpr oud
Ġte aching
Ġ ÑĤÐ¾
ìŀ ¥
ĠAll ah
I n
Ġw ood
Ġcol ors
Ġw ird
u j
id ad
Ġcustom ers
Ġconnect ed
Ġlay er
Ġachie ve
Ġperspect ive
ĠC oll
Ù Ĥ
Ġcl oud
!! !
Ġend ed
łĩ ê²Į
Ġmanage ment
Ġr ich
Ġsub st
Ġrem o
Ġser ve
Ġres ist
Ġthought s
Ġgrow th
ili ar
Ġright s
Ġchar ge
Ġcons ist
Ġwer den
Ġem b
and om
Ġhur t
Ġk an
i as
Ð» Ð¾
Ġsh it
Ġbe g
Ġrece ived
it ation
Ġme at
Ġis so
ff ee
Ġfam ous
Ġcomfort able
I L
ĠB ye
èª ª
åĢ ĳ
oth es
Ġmed ical
Ġenjoy ed
Ġhealth y
Ġw y
c ies
Ġeff ort
Ġdo ctor
Ġmil itary
L AU
Ġg ro
Ġb attle
Ġf ed
Ġcap ac
Ġaf raid
iv il
ĠÐ²Ñģ Ðµ
Ġl ength
ys is
Ġbe i
¤ í
Ġorgan iz
or g
in c
Ġinter act
ĠChin ese
Ġacc ording
Ġincred ible
Ġkill ed
Ġda ughter
ĠÏ Ģ
Ñĭ Ð²
Ġschool s
ĠÂ «
ll er
Ġshould n
n al
Ġcr is
Ġch icken
Ġf aster
Ġextrem ely
Ġopp os
Ġn ous
Ġ +
ri a
Ġfinan cial
Ġexc iting
Ġjour ney
×Ļ× Ŀ
ł ë
Ġdis play
Ġmem ory
Ġheav y
Ð½ Ðµ
Ġpass ed
ÑĢ Ð¸
il es
Ġp sych
Ġspec ifically
Ġeng age
Ġl ed
or ge
ĠD em
ord er
Ġ8 0
Ġcre am
ester day
Ġed ge
ĠÐ¿ Ð¾Ð»
Ġbu ll
Ġind ic
Ġk tÃ³
Ġhope fully
um ents
ag en
Ð½ Ð¾Ð³Ð¾
Ġh ate
ch t
8 0
Ġeff ic
Ġì§ Ģ
Ġintern et
Ġbud get
Ġproper ty
id ay
Ġì ļ
ĠÐ¼ Ð¾Ð¶
ol a
Ġshow ed
ĠM on
Ġthous and
A P
Ġpo or
us ed
ĠJ ack
Ġs Ã¥
ĥ ½
Ġes c
Ġsoft ware
Ġqu ar
ĠØ ¨
Ġnecess arily
om en
i y
Ġevent ually
ish ed
Ġbr ight
E D
Ġs pl
Ġdem and
Ġth reat
Ġs ir
Ġrele ased
ck et
ĠâĢ «
Ġrequ ired
Ġv ote
ì ¹
à® ¤
Ġdevelop ed
ĠìĤ ¬
at ory
Ġd ir
ca pe
Ġslight ly
Ã ¬
à¹ ī
re et
Ġdise ase
Ġcour t
Ġitem s
ĠEar th
ÑģÑĤ Ð¸
Ð¶ Ðµ
ì ²
Ġchalleng es
ĠBr it
Ġdesign ed
1 2
Ġhear ing
Ġlisten ing
z o
ĠÑģ Ð»
ãģ§ ãģĻ
Ġper o
Ġwe aring
pl ic
Ġch em
Ġbal ance
Ġb a
Ġrece ive
im a
Ġsignific ant
ĠÐ¼ Ñĭ
an ch
ĠC r
ĠC oun
ê¸ Ī
Ġjo bs
Ġoffic ial
Ġper m
om s
Ġopportun ities
Ġover all
Ġh us
od es
Ġn ation
ĠR eg
Ġor d
Ġrest aur
Ġì Ĩ
Ġm el
v in
Ġw enn
Ġk Ã¶n
æ ĥ
Ġopin ion
ãĤ Ĥ
è ¬
ĠSomet imes
ç Ĥ
Ñī Ðµ
as c
O U
Ġ20 20
Ġdel icious
ig er
Ġìķ Ī
o le
Ġhand le
Ġc it
Ġíķ ľ
Ġf Ã¶r
o oth
Ġnecess ary
Ġind epend
æ Ħ
ist en
h am
ĠÃ© t
ãĥ ³
Ġmult i
Ï Į
? )
Ġcamp us
Ġtop ic
Ġr ain
Ġpan el
ĠS am
Ġlar ger
aud ience
Ġpa id
Ġeconom ic
ol t
Ġstre et
ĠC ont
Ġdri ving
Ġìł Ģ
Ġh ay
Ġprofess ional
ĠIn tern
å ¸
Ġin put
Ġc ateg
Ġc ro
Ġ ll
E T
Ñĭ Ð¹
* *
ĠZ e
B LE
Ġì ¤
re es
ĠÐ ¯
ed e
ier t
Ġfo ld
Ġd ur
ĠN ational
Ġìĸ ´ë
an ced
Ġfa ire
ut ed
Ġk ing
Ġw ild
o i
up beat
Ġpre vent
i us
ĠÃ ¨
Ġw ide
Ġr ing
Ġtit le
Ġstand ing
Ġal though
Ġh i
Ġsa uce
Ġs ides
Ġanim als
il ing
at ives
ìĹĲ ìĦľ
ĠO ver
Ġdes p
Ġconsider ed
ar ies
i ers
Ġein en
Ġs ister
Ġë ķ
ĠS ure
ãĤ ĭ
ri end
a ign
Ġsh own
Ġs ac
Ġs ont
Ġcent ury
Ġt ien
ĠÎ º
ĠS T
åķ Ĭ
Ġold er
ie m
Ġtr uly
ĠS i
Ġwind ow
iqu es
ar io
æ² Ĵ
Ġloc ation
Î º
Ġì ľ
v i
ag ue
ĠS orry
Ġdis p
Ġhe ll
ĠÃ ī
Ġtr ade
Ġcrit ical
Ġê ±
Ġn amed
Ġprep ared
ĠH ouse
al u
Ġt ough
Ġtri p
Ġs and
c el
Ã¼ z
ĠP ut
Ġap art
is f
v is
Ġli br
a ven
Ġv ie
Ġeffect ive
à¸ ²
Ġmag n
Ġmuit o
Ġê µ
h al
Ġlim it
Ġn ine
Ġwill ing
Ä± ÅŁ
s p
ÐµÐ ³
h i
Ġal t
ĠJ an
Ġorig in
ĠU s
Ġele ments
Ġus es
Ġhelp ful
Ġfl at
Ġfam iliar
ĠP ark
Ġc ore
Ġclos er
Ġact ive
Ġad minist
C E
Ð½Ñĭ Ðµ
ç Ħ
Ġrel ative
Ġment al
Ġr andom
Ġpart ner
Ġut il
ph one
Ġr ule
w w
Ġìł ķ
Ġsch on
Ġco ffee
H A
Ġconnect ion
Ġun it
la ughing
l og
Ġapp l
Ð» Ð°
us ic
ĠB ra
Ġany where
AU DI
Ġsepar ate
bo x
Ġd ivid
Ġtest ing
Ġs ick
Ġwer en
ä» ĸ
Ġ×ľ ×
Ġadv antage
Ġtrans fer
' .
Ġë ¹
Ġfind ing
Ð½ Ð¾Ð¹
Ġì¢ ĭ
Ġfor t
Ġeconom y
Ġl ack
Ġleav ing
Ġd im
å İ
ĠR es
Ø Ń
Ġdiscuss ion
ÐµÐ ¿
Ġg es
du ct
Ġch ain
Ġus ers
e ch
ÅĤ a
Ġdis h
Ġcare ful
Ġte acher
Ġopt im
Ġfl u
at ically
Ġref lect
Ġtreat ment
e ed
i ÄĻ
Ã ¹
à® ¾
Ġequ ip
Ġplan ning
Ġsol ve
ãģ Ŀ
ĠT om
Ġavo id
Ġp ou
Ġgreat er
l in
O L
ĠL u
ĠM ore
Ġatt ract
Ãª n
un a
Ġphot o
er ation
Ġplan et
Ġcop y
Ġvis ual
ir ing
Ġintern ational
Ġla ughing
Ġth ick
Ġhold ing
Ġbring ing
Ġlet ter
Ġb urn
Ġeffect s
it Ã©
our s
O T
Ãª me
ĠSch ool
×ķ× ª
rop ri
l ig
Î± Î¹
Ġad ult
Ġsu gar
Ġr ide
Ġhigh light
Ġno body
Ġ2 1
Ġch at
ĠÐ¿ÑĢ Ð¸
Ġin nov
ung en
Ġatt ach
ed om
å Ĭ
y l
Ġleg al
Ġr ice
Ġcoll abor
k ing
d own
æ Ļ
ãĤ Ĭ
Ġi h
ĠA c
ous ly
Ġr ap
Ġsol id
Ġgener ally
Ġpatter n
al i
à¸ Ń
Ġtrans l
in ter
a ult
Ġë ¨
Ġexp ress
Ġexam ples
Ġch ose
Ġtell s
ÃŃ s
ain t
ĠT ell
ĠMich ael
æ ¨
ĠN umber
Ġt ap
Ġexper iment
Ġbenef it
Ġì °
Ġse qu
Ġexp ensive
Ġgener ation
ĠM any
Ġadd ing
Ġk il
Ġcamp aign
ĠA nt
ra w
omm en
Ġs oul
j o
ĠAct ually
am m
ê² ł
Ġma xim
Ġsal t
Ġc ru
Ġcall ing
ãģ Į
Ġbas is
b an
Ġkeep ing
ĠM or
ed s
ì Ĩ
Ġto do
Ð°Ð¼ Ð¸
Ð½ Ñı
Ġli ved
ĠD u
ãĤ ī
å® ¶
for ce
å¹ ´
fer ence
al a
Ġocc ur
s k
Ġrec ent
Ġc ars
Ġtrad itional
ent le
² Ī
Ġhel d
Ġn ach
ĠCent er
er en
Ġb in
Ù ģ
Ġcomm e
Ġre ve
Ġìĺ ¤
Ġexpect ed
ab il
Ġfocus ed
o v
Ġi P
or ial
i ro
Ġet c
am ing
ĠS on
Ġy esterday
Ġstr ate
ĠÑ Ĩ
Ġë ı
p es
Ġactiv ity
Ġadv ice
Ġopen ing
f in
Ġre la
é ĸ
Ġinst ance
ĠEvery one
b l
p en
Ġvis ion
ĠA lex
if orn
Ġt ick
H e
Ġstrate gy
Ġk om
P E
ĠG l
Ġelect ric
1 5
Ġda ily
Ġhus band
Ġst ation
Ġanal ysis
yn am
Ġatt empt
Ġbill ion
v ant
Ġfor th
Ġm ath
al y
Ġbehav ior
ĠM as
k an
ĠD ay
Ġbl ess
Ġg ut
ĠH igh
o x
Ġd ress
Ġj ed
è ¯
å ĸ
Ġexperien ces
ist a
Ġfight ing
å ·
ĠÑģ Ðº
Ġmost ly
a use
Ġpict ures
ÐµÐ½ ÑĤ
Ġm ad
Ġmod els
ÑĪ Ðµ
ĠC ount
Å Ħ
ÅĤ o
ep t
O M
ĠA N
Ġtrou ble
4 0
Ġb ird
ul ate
Ġm ur
Ġprodu ce
Ġmar ried
b it
Ġthe ory
í ĺ
Ġlead er
ĠL ast
A A
è µ
Ġim ages
Ġexp and
ĠP or
Ġpur ch
ĠS an
ĠChrist mas
ĠAust ral
Ġw id
ĠM iss
Ġknow ing
Ġz e
s hip
k u
Ñħ Ð¾Ð´
ĠInst agram
ĠInd ia
Ġest a
ĠCal iforn
Ġ7 0
Ġdra g
Ġbr ush
Ġn ames
A nd
Ġy o
ill a
Ġsch ed
Ġdest roy
ye ar
Ġv amos
Ġ ÙĦ
Ã§ a
Ġforg ot
Ð¸ Ðµ
Ġra ise
re me
íķ ´
ĠG ive
Ġcont ain
ra b
Ġg ift
ĠÑģ Ð¿
Ġrequ est
Ġsh ut
Ġdeg rees
Ġbenef its
Ñĭ Ðµ
Ġstud ies
Ġend s
Ġevery where
Ġher o
op h
er ry
Ġmaterial s
en ed
N A
å į
Ġmu y
Ġwor se
ä» Ģ
ĠM ad
Ġdec isions
ion e
Ġfore ign
la ughter
i ber
ÐµÐ½Ð¸ Ñı
ãħ ĭ
Ġreal ized
Ġ ign
Ġwe ak
ĠÎ ¼
Ġsca red
Ġass um
A K
ï ¿
ï¿ ½
Ġcover ed
ĠS at
ĠÐ¾ Ð½
Ġindividual s
Ġcomp ared
1 1
ĠAd d
ic les
Ġc ert
r ar
Ġbr ief
Ġactiv ities
Ġf ab
b ar
Ġa st
ĠO ther
Ġclass es
Ġo g
Ġmiss ing
ãģ ł
é Ŀ
w ers
× ©
Ġintrodu ce
Ġequ ation
ãģ¾ ãģĻ
Ġn om
Ġpain ting
us hing
ĠA P
Ġencour age
Ġsh ip
itt ee
iver se
ot a
n am
ãĥ »
Ġexerc ise
ĠÐ Ń
Ġn as
Ġthous ands
ĠCaliforn ia
Ġs es
Ġr ow
ŀ Ī
Ġpand emic
Ġsk ill
b el
Ġdire ctor
Ġmil k
Ġn ut
Ġmot ion
Ġcl osed
è ¨
Ġcred it
ah r
Ġche ese
Ġal tern
im ately
Ġs ust
ĠT ra
Ġgl ad
Ġhigh ly
Ġw a
Ġredu ce
Ġb le
ad or
in ated
ion es
ci ent
Ġdep ending
Ġsh aring
Ġca ught
ra el
Ġme hr
Ġpass ion
ç Ľ
Ġr u
Ġfar m
T I
av es
ĠR ob
ĠB ro
Ġmot iv
ret ch
ru pt
ĠB ig
Ġall e
Ġet t
ub s
ĠJapan ese
ĠH all
Ð¸ Ð»Ð¸
AUDI BLE
ç ¬
Ġcell s
ik a
el ine
il er
Ġì £
Ġsk y
IN AUDIBLE
end e
ap ter
Ġp in
Ġg ather
h ol
le ction
Ġsy n
Ġpl ug
r ound
Ġun iversity
h ib
Ġfant astic
k n
Ġho le
ĠRem ember
in ct
ak s
C H
Ġbro ken
Ġstr ateg
Ġal ive
Ġt ank
Ġc art
r ated
r ie
ĠSt ep
ĠEvery thing
Ġb ound
Ġso bre
Ġcustom er
¡ Į
ur g
ĠB ill
L a
wh at
Ġre action
Ġs ession
Ġpl ans
ĠìĿ´ë łĩê²Į
Ġdown load
ì Ļ
u er
Ġc ab
Ġinst r
if ying
ĠN ice
Ġteam s
Ä± l
Ġgo als
is ch
Ġtrans port
Ġanim al
Ġcost s
Ġcall s
Ġse hr
ì Ī
ri an
Ġd ial
Ġwe ather
à¹ Ģ
ĠÐ² Ð¾ÑĤ
ĠPl ay
Ġsh ared
Ġsm ooth
ab a
Ġleav es
à® ©
Ġconc ent
Ġsh ift
ĠëĲ ĺ
ĠGo vern
Ġdem onst
Ġbut ter
ĠìĹ ¬
Ġsat isf
Īë ¬
Ġrecogn ize
ĠF rench
Ġvol ume
Ã¤ nd
Ñĥ Ð¼
Ġì§ Ħ
ĠKe ep
ow a
ipp ed
ÑģÑĤ ÑĢ
Ġdet ect
ĠÏ ĥ
Ġl ift
Ġcl othes
ĠSt op
Ã µ
m et
Ġcl in
Ġar r
f riend
Ġst uck
Y e
h and
um a
Ġsc ri
Ġfuck ing
ct ors
× ª
Ġjo ining
Ġc ette
ĠØ £
ĠWh ite
Ġi hr
Î Ń
ãģ Ń
Ġinclud ed
ess o
Ġac ad
b um
Ġs ab
ĠÐ´ Ð»Ñı
è¿ Ļ
uf act
ĠRep ublic
r im
Ġye llow
Ġlim ited
T ER
ĠT y
Ġnot es
v est
Ð¸ Ð·
al ed
Ġph ase
and a
ĠM om
R I
Ġim mer
m al
Ġin j
Ġy ang
ud ible
Ð°Ð ³
Ġset t
Ġmag ic
Ġens ure
Ġsp ring
Ġsh ock
Ġwhe el
Ð¾Ð³ Ð´Ð°
ãĤ Ī
Ġcan cer
Ġro ot
Ð Ĳ
gen cy
Ġë į
i i
Ġout put
Ġcomm it
Ġwork ers
ìķĦ ìļĶ
ĠÑģ Ð°Ð¼
ve y
Ġpe u
Ġc ivil
is c
Ġbr ings
ÑĢ Ð°Ð²
an ia
Ä ģ
c raft
mb ol
Ġintell ig
b i
ac ing
y ou
Ġbecom ing
ĠD er
em a
å°± æĺ¯
Ġing red
Ġcomm and
Ġupd ate
Ġpre m
Ġopen ed
Ħ ¤
ÐµÐ½Ð¸ Ðµ
Ġg ard
Ġstat ement
Ġsc rew
Ġpr ote
Ġc ards
Ġt ask
Ġeven ing
Ġst itch
in en
ĠB er
m ark
ĠD ad
ĠÐµ ÑģÑĤÑĮ
Ġ× ŀ×
ìĹ Ī
Ġb an
Ġcl im
Ġfre edom
Ġnorm ally
ÐµÑģ ÑĮ
å ¦
Ġprov ided
Ġìŀ Ĳ
ĠìķĦ ëĭĪ
ĠK im
ied er
ìĿ Į
Ġcit iz
Ġb ike
Ġb ak
Ġno ise
Ġcl imate
iz es
å¾ Į
Ġincre asing
ĠTH E
Ġli qu
Ġperson ally
e f
res p
Ġleg s
ind er
Ġp ed
Ġë§ İ
Ġdep end
Ġvar iety
ĠIs rael
Ġwas h
å Ĩ
Ġqu iet
ĠJ ames
ĠJ ew
Ġfore ver
ĠI nt
Ġcoun ter
ur ance
ĠAny way
ca re
ĠOn ly
ci Ã³n
ad i
ĠE v
ëĭĪ ê¹Į
ĠÎ ±
Ġslow ly
ĠÐ¾ Ð´
Ġnot iced
ier en
Ġfe ll
ĠÐ ĳ
Ġm Ãªme
Ġwhen ever
! )
ĠH y
å ¼
ord s
us ion
ĠSt ar
Ġí ĺ
ĠM ac
ä¸ Ĭ
i ven
Ġìĭ ľ
ĠìĹ Ĩ
ĠT ur
Ġg er
r is
Ġve z
ĠÐ» Ñİ
Ġvers us
Ø§ Ø
ocol ate
Ġplan e
Ġz o
Ġsu it
Th is
Ġn erv
ĠA cc
Ñĥ Ð¶
ìĤ ¬
n h
em e
Ġa uss
Ġme as
Ġtr Ã¨s
Ï ī
Ñģ Ð»Ð¸
ĠAr t
ĠSec ond
Ð¾Ð»ÑĮ ÐºÐ¾
ch o
it ect
Ðµ ÑģÑĤ
Ġb oss
Ġinc ome
ł ¤
Ġsh ad
Ġapp ropri
ĠM al
op t
Ġart ist
Ġplay s
oth ers
ĠIn ter
Ġvir us
Ġh ung
Ġconst ant
Ġscri pt
Ġsn ow
ul f
k et
Ġdev ices
Ġmet al
ight s
ìĦ ¸
Ġsal es
Ġve get
Ġcollect ion
Ġv ia
k er
Ġgot ten
O W
i Ã©n
Ġacc ur
Ġw ave
ult y
ĠA ir
Ġlead ing
ic ing
Ġcent ral
ĠChrist ian
f r
ĠAl though
Ġsong s
Ġf if
Ð½Ñĭ Ñħ
Ġbel ong
oss ible
ì °
Ġphot os
is l
Ġrela x
s a
US IC
ê ·
Ġman ufact
ĠTw itter
Ġdanger ous
Ġhy d
le ar
i ant
ĠâĢ ¦
Ġsudden ly
Ġla ugh
Ġang le
ĠG ot
Ġwor ried
Ð¾ Ðµ
Ġp ap
ĠM art
en o
Ġbatter y
ĠÐ¿ Ð¾Ñģ
Ġlight s
Ġar ms
ĠA bs
m es
âĢ ĵ
use um
Ġte a
ĠM ic
Ġfor mer
ograph y
Ġapplic ations
ĠD ire
çĦ ¶
Ġfeed back
itch en
yor um
u ed
ig t
Æ° á»
os ition
ĠD el
Ġíķ ĺë
ĠB ack
ad s
Ġpr ime
ì£ ¼
ì£ ł
× ĳ
Ġm ut
] .
ĠÐ Ĺ
lo c
k in
Ġexper t
Ġal right
ung s
Ġsupp ly
Ġleaders hip
ĠF ra
Ġtyp ically
Ġs el
Ġtre es
Ġ2 2
h ar
Ġwor st
Ġbus y
ant o
ĠU p
ĠB as
Ġpresent ation
Ġstr ange
Ġth in
ÑĤ Ðµ
Ġveh icle
ĠÐ´ Ð¾
cell ent
7 0
Ġt ired
Ġcris is
Ġt iny
as y
Ġr an
é ĩ
Ġfor ces
ĠÐ¾ Ñĩ
Ġident ify
Ġass ess
Ð¸ÑĤ Ðµ
S E
Ġcreat ive
ç Ł
Ġdep artment
Ġinit ial
æĪĳ åĢĳ
ĠD am
ak t
v ere
Ġinf ect
Ġp ump
áº ¡
Ġv iel
Ġr are
Ġd ot
ash ion
em pl
Ġf lex
Ġk on
Ġtr uck
Ġle ct
Ġpl astic
la w
Ġlik es
Ġr ough
ĠM AT
í ŀĪ
Ġcomm er
Ġas se
Ġc ake
Ġact ions
Ġad m
Ġother wise
ĠHe alth
Ġcoll e
à¹Ģ à¸
Ġr ub
å¾ Ĺ
æ Ķ
Ġsc r
Ġz um
ĠH im
Ġch amp
Ġconcern ed
Ġ5 00
Ġpl ate
ĠO ut
Ġdon c
Ġequip ment
Ġta ught
ll ed
Ġí Ļ
iv a
Ġmot or
Â »
Ġgu ide
å ī
Ġstop ped
Ġr at
Ġlab or
Ġa im
Ġprep are
ĠÑ Ī
Ġshoot ing
ann ed
cri pt
Ġen emy
Ġdep ends
Ġn av
Ġb er
Ġland s
Ġun ivers
i u
Ġfact or
ok ing
Ġcar bon
b ut
ĠL ove
el d
ĠÎ µ
Ġg a
ĠÃ© s
Ġbre ad
Ġvol t
í Ĭ
Ġwas te
Ġkeep s
æī Ģ
Ġst or
Ġhon or
Ġun less
Ġcol um
Ġë ĮĢ
Ġpl ants
Ye ah
Ġinclud es
ä¸ Ń
Ġo x
Ġpe ut
ë§ Į
ìĥ ģ
ist ry
à¸ ±
ĠDep artment
ant a
Ġfing er
Ġst retch
Ġsy mbol
Ġneigh bor
æ ¬
ê° Ħ
~ ~
ĠÑĤ Ñĭ
ĠA ber
k es
Ġmass ive
ĠC H
ĠS al
× ł
ãĤ Ĵ
Ġd ynam
ach e
ĠP re
Ġmon itor
ent ed
E O
Ġrais ed
ist ics
Ú ©
Ġv ou
it en
¡ °
Ġbusiness es
Ġe arn
Ġmob ile
id ade
Ġha be
y r
l ict
Ġcon duct
Ġfed eral
Ġw o
b u
Ġn one
Ġteach ers
ĠØ§ÙĦ Ø
éģ ĵ
id ents
Ø§ ÙĦ
Ġtre nd
ÐµÐ ¶
Ġal bum
Ġm ich
b ased
à¸ µ
Ġtrans ition
ĠÐ½ Ð¾
Ãµ es
h ost
ed y
ĠPro f
p an
ij n
Ġcapac ity
und o
Ġ× ĳ×
Ġbreat h
ĠÐ¼ ÐµÐ½
Ġm Ã¼
í Ļ
ĠA ut
hing ton
Ġn or
Ġg ain
po int
Y es
ĠØ ª
ĠN a
Ã¥ r
Ġi Ã§
ĠM ary
Ġsp in
Ġant i
åĲ §
Ġsome how
Ġlaw s
Ġmom ents
Ġg re
Ġmo ves
ĠW ould
Ġpred ict
Ġv ra
Ġ201 9
¶ Ħ
Ġfund ament
2 5
Ġp ure
Ġw ow
Ġis land
Ġinvest ment
Ġb ath
ĠY a
Ġhard er
Ġt ips
å Ĺ
Ġelect ron
ĠB ob
Ġb ond
od ies
ĠA ug
Ġgib t
Ġch air
Ġtw ice
w ood
Ġcl ar
Ġmas k
Ġhonest ly
Ġ201 8
t ies
' ,
Ġp ens
Ġsurpr ised
Ġcommunic ation
ãģ£ ãģ¦
Ġsp r
Ġwh ose
Ġst ars
× Ĳ×
ĠâĢ ĭ
Ġproper ly
Ġg rew
os ing
Ġdi vers
A D
Ġem pt
Ġexp ression
áº ¿
ĠP al
ãģ Ĭ
Ġjust ice
Ġp air
w o
Ġse at
or ter
Ġlink s
ĠM er
Ġre nd
Ð½Ð¾ Ðµ
up id
ĠH el
ĠM arch
ĠL o
Ñģ ÑĮ
Ġhas n
Ġev alu
ãģ ı
å¤ ©
il os
Ġfund ing
Ġv en
u an
ĠM aster
ĠO l
ĠF re
Ġy ap
ĠS ir
s ch
Ġmist ake
am an
Ġdin ner
ĠWas hington
Ġorganiz ations
ĠÐ¶ Ðµ
av ing
Ġv ÃŃ
Ġbirth day
Ġbe ar
ĠÙ ģ
Ġaff ord
Ġre ven
Ġrelationship s
r ough
ĠT ime
Ġt ag
ĠS un
u ary
ĠP o
c ar
ab ilities
Ġpr ison
Ġl ic
ìł ķ
id den
Ġspec ies
é »
Ġf irm
Ġsc ore
Ġd it
Ġspe ct
Ġp el
Ġcompl icated
æ¨ £
Ġr ank
Ġoppos ite
Ġpick ed
ĠÐº Ð¾Ð½
el er
Ġm ig
ĠS l
ĠN et
Ġne ck
ĠFr ance
Ġtechn ical
à¸ ¡
Ġmil es
Ġprim ary
Ġse in
s es
Ġla ughs
b ra
ÅĽ ci
ri age
Ġn ic
et ers
ĠÃ ª
olog ies
ĠI S
r ad
ud o
Ä± nd
m ar
Ġex ch
Ġcompet ition
Ġauss i
ĠS erv
Ġre nt
Ġch ocolate
Ġw ieder
Ġnear ly
Ġspe ech
Ġun c
Ġpar am
ĠBrit ish
Ġrem ain
à¸ ģ
ur t
ĠØ ¹
Ġcr ack
ail s
Ġprom ise
Ġpay ing
i ÃŁ
Ġad apt
Ð°Ð» Ð°
Ġmov ies
Ġw ire
Ł ¬
æľ ĥ
Ġter rible
Ġs Ã³
Ġperfect ly
åĳ ¢
ord in
Ġj Ã¡
Ġimp ossible
ĠTh ree
Ġn h
Ġtur ning
r um
ĠB el
ig g
Ġrespons ible
Ð¸ Ð¹
Ġincred ibly
w i
ian o
Ġhum ans
ĠÃ ĩ
Ġsetting s
Ġj oy
o ot
Ġdeal ing
ill ed
Ġsur round
Ġfollow ed
Ġposs ibly
Ġinit i
st en
Ġpr os
Ġcand id
Ġass ign
Ġviol ence
W ell
Ġr ise
P S
Ġtamb Ã©m
Ġë ĵ¤
i ance
y an
Ġaud io
ĠB et
ĠAmeric ans
ĠAs s
is chen
ìŀ ħ
Ġult imately
Ġpol ic
Ġmajor ity
éĢĻ åĢĭ
ĠFin ally
er ap
Ġgu ard
ĠMAT T
Ġbr own
Ð¼ Ð¸
Ġch a
ĠHo ly
Ġnerv ous
ipp ing
ÄĻ d
ĠS a
ĵ ľë
¶ Ģ
l ie
çľ Ł
Ġn uc
ĠA pr
é Ľ
ĠKore a
eg o
ĠCan ada
ĠkÃ¶n nen
Ġcomp ar
Ġg anz
ĠM ais
Ġthem e
Ġk i
Ġdraw ing
az on
ĠO ff
t t
ĠW ind
Ġtod os
Ġob vious
Ð½Ð° Ñı
I M
ĠÐ ł
we ll
Ġbl ow
Ġho ok
Ġcir cle
Ġë³ ´
Ġarch itect
ĠK r
Ġc Ã³
Ġprotect ion
eg a
å ĩ
Ġwatch ed
Ġans wers
Ġdi et
iv o
Ġpow der
Ġyour s
Ġhigh est
çĤ º
F F
å º
Ġbo ys
Ã¶ yle
Ġl unch
è¬ Ŀ
ĠI I
Ġset s
Ġmo le
Û ģ
Ġwin ter
Ġluck y
Ġrespons ibility
Ġsign al
Ġwond ering
Ġa x
Ġcook ing
Ð¾Ð² Ð¾ÑĢ
le g
ĠÐ¿ Ð¾ÑĤ
Ġsurpr ise
Ġdem ocr
Ġlo op
Ġj ag
Ġcur ious
Ġmarket ing
Ð Ŀ
ar on
ĠApp le
Ġvirt ual
Ġ19 8
no on
ĠM et
Ð¾Ñģ ÑĤÐ¾
Ð¾Ð± Ñĭ
it u
ĠA w
Ġbu ying
Ġrestaur ant
ĠB ud
Ġdou bt
Ġgr ant
Ġver d
Ġc ash
Ġfac ulty
Th at
ĠE in
å¤ ļ
Ġw ed
it ness
ĠM ag
n el
Ġn arr
Ġacc ident
Ġmed ium
em ents
Ġcr ow
n ight
ìĿ ¼
ä¹ Ł
Ġlibr ary
Ð°Ñİ ÑĤ
Ġtamb iÃ©n
Ġrefer ence
Ġfour th
h ouse
v ention
Ġfill ed
ĠC our
ib r
Ġn g
Ġdevelop ing
Ġprov ides
Ġpo ll
Ġtra ffic
arent ly
à® Ł
Ġform s
Ġcl ient
Ġg entle
Ġmus s
ĠCong ress
ĠInd ian
ce an
Ġp il
Ġc zy
st ood
ut y
Ġn Ã¤
Ġsp ending
Ġconst ruction
ina udible
Ġë§ Ī
Īë¬ ´
Ġìĥ Ŀ
om a
os en
ag o
Ġlar gest
ãħĭ ãħĭ
Ġun iverse
b es
os a
ĠÐµ Ð³Ð¾
Ġd ude
ĠM AR
Ġind eed
Îµ Î¹
Ġman aged
ĠSh ould
S o
Ġappl ied
Ġfair ly
ĠD en
Ġanal y
Ġconst antly
Ñģ Ð¿
H ow
ĠS ay
en cies
ĠP C
Ġegg s
à® °
Ġet h
ĠEnt Ã£o
in ar
i ot
Ġc z
ĠEurope an
ãģ Ī
ĠA M
Ġc Ã¡
Ġrad io
§ Į
Ġh ide
ä» Ĭ
ĠSt art
Ġcl ub
ĠH ope
Ġeff orts
lus ion
Ġc ities
h one
Ġreach ed
Ġgu id
ro id
Ġhar m
Ġcut ting
Ġb ul
1 8
i est
ĠMe x
Ġ iron
çŁ ¥
Ġafter noon
Ġha ll
Ġpr zy
Ġg osh
Ġinflu ence
ĠÐ² Ð¸Ð´
Ġincre ased
ĠMin ister
Ġdis ci
ĠP eter
Ġver t
Ġmen u
Ġse lling
ur ally
Ġqu ote
ĠÂ ¡
Ġcontin ues
mp re
ĠÅŁ ey
it ution
ĠÐ½Ð° Ñģ
c les
ĠGerm an
c zy
ĠÐ £
B e
Ġk itchen
ĠT ry
i pe
Ġic on
ar p
Ġprov iding
ĠTr ans
Ġtechn ique
Ġh Ã¤r
Ġinf rast
Ġsus p
Ã¼ ck
ic ip
ĠÐ ķ
Ġc in
ìĸ ´ë
Ġpr z
Ġcompon ent
Ġby e
ĠB ible
iz er
C h
Ġsol utions
Ġaccom pl
Ġ201 6
I E
ĠT a
Ġass ume
Ġliqu id
Ġë¨ ¹
Ġquar ter
Ġfem ale
ĠTh ink
Ġstat us
it ute
Ġco ach
Ġre in
Ġcomb ination
è ·
ĠT er
Ġobject s
Ġdist rict
Ġmake up
Ġmur der
w as
f en
Ġbow l
Ġpub lished
Ġsp orts
ãģ ¡
Ġident ity
Ġseem ed
Ġact ing
Ð» Ñİ
ri x
Ġup load
Ġh ast
Ġbo at
ĠM od
ri o
Ġ =
Ġcy cle
¯ ¸
Ġl oud
ust ed
com ing
Ġ201 7
Ġon t
Ġleg isl
Ġst ruct
ĠSomet hing
Ġconf lict
Ġu pper
Ġman ager
Ġm ort
Ġf ra
ĠÄ °
ĠM ike
ĠW ork
Ġn Ã³
ph ere
ĠìĤ ¬ë
ĠL and
Ġfil ter
Ġprom ot
æ °
æĻ Ĥ
ķ ¼
Ġrecord ing
× Ŀ
Ġassoci ated
Ġf uel
und er
Ġele ction
Ġemploy ees
ĠCom p
ÑĢÑĥ Ð³
ĠW o
ro l
Ġsa ved
ĠH on
ĠV i
åĪ Ĩ
ac a
p ret
Ġw et
Ġst upid
Ġl ad
Ġf est
Ġw ake
ĠÐ¸ Ð½
Ġgreat est
ĠJ im
Ġserious ly
Ġì ¹
Ġfeel ings
Ġ3 00
i ation
Ġbeaut y
Ġìŀ ĺ
Ġs an
ĵ ł
Ġ- (
Ġcons cious
ĠÐ´ ÐµÐ»
b ye
ç Ļ
M an
Ġlet s
Ġsho es
y d
ä¹ Ī
Ġdisapp e
ĠCount y
ĠSc ott
Ġbut t
Ġaqu ÃŃ
Ġconf ig
resp ond
LAU GH
© ëĭĪëĭ¤
Ġdivid ed
Ġac qu
Ġz one
Ġk omm
a Ã§Ã£o
ì§ ľ
c ut
Ġ2 3
Ġmaxim um
ro g
Ġrun s
Ġcompon ents
Ġarri ved
Ġconf ident
ÑĢ Ð¾Ð²
Ġhe ight
Ġpro ced
E M
ĠÐŃ ÑĤÐ¾
ĠM en
Ġtalk s
Ġconf idence
ĠChr is
Ġlead s
Ġn ose
f all
b b
ĠNot hing
is er
Ġindepend ent
Ġmin or
Ġsy m
l en
ci ence
Ġf ashion
Ġsex ual
Ġb un
h ere
Ġso il
Ġdies e
Ġsh ap
Ġempt y
Ġjour nal
ag on
ĠThe ir
Ġweek end
ÃŃ t
Ġer ror
Ġn ar
Ã ¸
è ©
an cy
Ġìķ Ĭ
Ġfore st
Ġha cer
Ġmiss ed
ãģ ķ
åı¯ ä»¥
Ġev il
Ġstor age
Ġsing ing
in ha
Ġkn ock
Ġimp ress
ĠÐ¾Ñĩ ÐµÐ½ÑĮ
ĠGo ld
ĠS ur
ĠP ort
åİ »
ĠL ond
Ġfaz er
ot y
ot o
Ġan x
ĠWill iam
Ġexist ing
pl ace
ĠC D
Î ³
ĠColl ege
l or
ĠE ast
s en
f ach
o ft
Ġexperien ced
Ġlo ves
im m
Ġpo ly
Ġes se
ì ¤
ĠG rand
è §
ch er
Ġvict im
ĠG es
Ð» ÑĮ
v ision
Ġt all
Ġl ens
ĠÐ· Ð½Ð°
ĠB oth
Ġì ²
Ġsust ain
Ġarg ument
Ġfact ors
Ġautom atically
Ġfr uit
Ġli ber
Ġa le
ĠP ress
ĠB a
ĠÐ ³Ð¾
Ġhundred s
th at
ĠR ich
Ġreci pe
ĠI T
è ĩ
áº ¥
Ġdescri be
Ġdri ver
ĠO ct
ĠM at
Ð´ Ðµ
Ġme al
Ġlat est
Ġth erap
Ġcomp are
ĠAm azon
Ġì¢ Ģ
ĠRuss ia
Ġstr ing
Ġk a
ĠComm un
Ġd ia
I s
Ġmill ions
Ġcor por
Ġcor respond
Ġfix ed
ĠJo e
Ù İ
Ġview s
Ġr iver
Ġstud io
ig ger
Ġfl avor
Ġpres ence
Ġun its
Ġsa ving
av our
Ġp esso
or ith
Ġh ers
ĠN at
as ion
ĠFr ank
Ð¾ ÑĪ
ÅĤ y
í Ħ
Ġein em
Ġfun ctions
um an
Ġn orth
Ġìł Ħ
Ġhor se
v id
Ġple asure
Ð° ÑĪ
Ã© es
ind a
Ġt ail
Ġexpl ore
S T
Ġcommer cial
ĠD uring
ar l
] :
f it
Ġr ates
æ ³
M USIC
Ġhous ing
Ġein er
Ġsitu ations
æ ĭ
Ġdec re
Ġappropri ate
ÐµÐ½ Ð½Ð¾
% .
Ġb ac
Ġw at
ens ity
Ã¤ h
kn own
it z
Ġemot ional
erv ation
Ġbl ind
1 6
í ĥ
å¤§ å®¶
Ġjo ined
Ġloc ated
ĠÑģ Ð¼
ad as
ber g
Ġd ess
Ġde ar
ed en
c os
Ġad opt
1 00
ow e
ĠChe ck
ism o
Ġsim pl
Ġang ry
ĠÐ¼ÐµÐ½ Ñı
ĠC am
Ġp ad
Ġatt end
Ġsam ple
æĹ ¥
Ġì Ľ
ĠI N
ul ous
ĠS ar
ĠSh ow
Ġinfrast ructure
ĠAug ust
Ġless on
Ġn iet
æ İ
Ġfo i
Ġbro ke
t r
ç ķ
Ġ4 5
Ġg ew
Ñĥ Ð¿
at i
Ġmaint ain
Ġart ists
ing er
æĿ ¥
er ved
I A
Ġequ als
Ġoper ation
ill y
ĠëĤ ´
Ġcrow d
Ġintern al
Ġtest s
ĠR ock
ĠC ons
ĠëĦ Īë¬´
w ar
Ġs ou
Ġch art
ĠJ une
ĠApr il
g ent
Ġv ent
Ġqu and
ĠKore an
im o
ç ī
id ers
Ġmount ain
ÑģÑĤ Ð°Ð²
æľ Ī
ij k
Ġdiscover ed
ĠS und
ĠS il
Ġso lo
Â ´
Ġsch ol
ĠE ach
ç µ
Ġb are
Ġí Į
ĠvÃŃ de
Ġingred ients
ĠIt s
Ŀ¼ ê³ł
Ġì Ĭ
Ï į
ĠLe e
Ġsc ary
Ġprinci p
Ġspirit ual
ì ħ
ĠH old
æ²Ĵ æľī
Ġdef ine
ĠL es
ĠN or
ĠE nd
Ġbl og
ĠG reen
Ð°ÐµÑĤ ÑģÑı
p art
el es
äº ĭ
ĠUnd er
Ġpart e
Ġ3 5
Ġse ctor
ĠS ept
Ġaut h
à® ®
om in
Ġcl ients
Ġc i
ĠFr iday
er as
Ġtw e
ul ated
Ġcult ural
ĠÑģÐ² Ð¾
Ġëį Ķ
ĠÃ º
Ġpar ce
à® ²
Ġtrad ition
Ġjud ge
ĠGen eral
Ġdeterm ine
ĠIs n
ĠP L
ne ath
Ġmatter s
íķ ´ì
! ]
Ð° Ñħ
Ġpo ol
Ġvari able
Ġvacc ine
Ġcaus ed
Ġw est
ĠY ep
f ast
Ġph ilos
hor a
Ġcontinu ed
Ġunf ortunately
ãģ į
æ ķ
Ġfl ight
Ġw rap
Ġhu h
ĠAbs olutely
Ġp ink
Ġrem ains
Ġn Ã©
Ġf le
ĠS ol
Ġlos ing
Ġalg orith
Ġrequ ires
Ġfound ation
ĠB ur
Ġprofess ion
ĠM id
Ġë ŃĲ
c an
ĠM il
Ġyoung er
Ġappe ars
ter m
íķĺ ê³ł
ac le
ĠLond on
Ġengine ering
à¸ ¢
Ġadv ent
ìĦ¸ ìļĶ
Ġê¸ °
ĠM aj
ÑĢ ÐµÐ¼
ing u
ĠU K
u ro
s pe
Ġt ent
Ġreport ed
ĠA L
H ey
Ġë§ Ĳ
Ġd ent
ĠAustral ia
ĠJan uary
³ ´
ag ues
ars h
r ig
Ġtien e
à¸ £
Î ®
Ġmach en
un te
Ñĥ Ñģ
Ġelect r
Ġtut orial
Ġpl aced
ĠìĿ´ ê±°
ĠCoun cil
í ĸĪ
°ë ¦¬
ah ren
Ġê·¸ë ŀĺ
Ġpro ve
f ol
Ġqu er
Ġche ap
ĠF ather
ĠP ower
ĵ ľ
Ġpur s
Ġes p
ĠB re
ê¸ °ë
om as
æĥ ³
Ð¸Ð» ÑĮ
Ġge ht
os ter
ê³ ¼
Ġfil es
ĠÐ §
be ll
Ġwh om
Ġë ĺ
Ġex cellent
Ġdat ab
Ġg Ã¶
Ġì§Ħ ì§ľ
Ġbelie f
j et
Ġj ack
Ġsw im
ri al
um in
a uc
Ġso ll
Ġess ential
íķĺ ëĬĶ
Ġev ol
cha ft
ain e
th let
Ġinc or
Ġreport s
Ġdefin ition
ke l
Ġcirc um
Ġprodu ced
Ġ× Ľ
ant ic
n et
Ġa ward
Ġd urch
Ġtrans p
Ġm ale
¦ ¬ë
Ġmo on
ĠGe orge
Ġfly ing
i Ã³
Ġs ources
Ġpl enty
ĠDem ocr
R O
Ġ 00
Ġsec ure
ĠB ir
ra in
Ġz ur
Ġeffic ient
Ġrepe at
Ġmethod s
Ġcal m
Ġdiscuss ed
ĠìŀĪ ëĬĶ
Ġser ver
an ie
ĠInst ead
Ġide al
Ġcon ven
Ġhop ing
ĠT or
Ġdep th
Ġhe aven
EN CE
Ġhab it
gr ad
Ġfl ag
Ġin e
Ġk h
ĠL I
Ġfac ing
ĠA U
ĠT im
Ġg em
ĠJ ul
Ġel a
iz za
Ġfe llow
Ġqu el
Ġsp oke
Ġcitiz ens
u ge
é ĥ½
Ġp ages
Ġf asc
Ġrelig ious
at en
Ġch apter
ĠV al
Ġcons ult
ĠM ill
g l
op er
Ġinf in
Ġmar riage
Ġmedic ine
ĠÐ´ Ð²
Ġdog s
Ġinstr ument
ĠEx act
Ã¡ n
Ġ20 21
Ġf er
Ġwe alth
Ġgr ade
Ñĭ Ñħ
Ġcr ime
Ġth read
Ġess a
Ġw ine
co hol
ph a
à¸ ĩ
og ue
Ġins urance
arr ator
ĠSept ember
Ġv id
ĠSp irit
Ġg est
ĠRuss ian
Ġproper ties
Ġart icle
Ġunder neath
y er
Ġjo int
Ġrelative ly
Ġin ch
Ġdesp ite
ĠG ree
Ġclass ic
Ġsupport ing
Ġinst ruct
lus ive
Ġdi agn
æ Ĭ
Ġadminist ration
Ð°Ð± Ð¾ÑĤ
ĠO pen
æīĢ ä»¥
ĠÐ¿ Ð¾Ðº
Ġdoll ar
Ġconse qu
o ber
ĠGerm any
Ġter r
ĠQ U
ĠÐ ĵ
ç ¾
Ġstrong er
É Ļ
ĠÙ Ĭ
ĠiP hone
Ġfab ric
Ã¼ h
Ġen em
æ ¯
Ġsub t
E E
ond e
Ġcre w
Ġremo ved
Ġl ady
Ġpot entially
ĠÐĿ Ð¾
y al
Ġsym pt
Ġar my
Ġintrodu ced
t es
Ġaspect s
1 4
ĠL ou
Ġ )
Ġde ploy
p et
Ġh an
ĠW atch
Ġweap ons
Ġph en
Ġreg ister
Ġein fach
Ġsp ort
Ġbr idge
Ġin ner
Ġminim um
Ġw itness
Ġes o
Ġvill age
Ġown er
¦¬ ê³ł
Ġsc ream
il ed
Ġp itch
b ru
Ġadv ance
ä¸į æĺ¯
Ġsupp ose
ĠAt t
ÐµÑĤ ÑģÑı
Ġdiffer ences
ak ed
Ġinter pret
Ã ¦
iend o
Ġabs ol
ĠÐ±ÑĥÐ´ ÐµÑĤ
Ġë ²
Ġtri al
Ġthink s
ly ing
cept ion
ĠAfric an
Ġchem ical
Ġta pe
Ġconvers ations
Ġdistrib ution
t i
ĠA I
Ġfl ash
Ġunder stood
ĠGovern ment
å° ı
! ?
ĠS k
ê± °ë
ri er
T S
ĠAcc ording
Ñİ ÑĤ
Ġsp ons
ÑĤ Ð¾Ð±Ñĭ
Ġval u
ere m
icht ig
Ġresist ance
ĠG al
ger y
Ġbeg ins
Ġadv anced
Ġrele vant
Ġpolit ics
ĠF am
ĠÃ§ ok
ĠN ever
ill ing
Ġfoot ball
Ð¸ Ð¸
ĠI D
ĠAfric a
Ġfing ers
ĠÐ± Ð¾Ð»ÑĮ
ĠÃ ¡
Ġcl ip
ĠL at
ãĤ Ħ
Ġì§Ģ ê¸Ī
es se
Ġvo or
Ġas ide
æ ŀ
Ġto ward
Ġb at
Ġval id
ĠM ens
Ġcomplet ed
Ä± ÄŁ
Ġpod cast
ĠB on
Û Ĵ
ĠJ uly
il a
Ġpack age
Ġpull ed
ch ar
ĠM el
o is
Ġs outh
Ġë Ķ
Ġimport ance
Ġp ushing
Ġis ol
Ġstand s
c ill
ä ¼
Ġ ðŁ
or i
ê° ģ
Ġhom es
Ġconcern s
Ġb iz
å ½
b ie
Ġb is
Ġge ar
ĠM S
Ġh un
ĠM att
áº £
se y
ĠSec ret
Ġod d
ĠM ax
oll y
f ord
ĠS H
Ġrepl ace
Ġnav ig
Ġin i
Ð¸ Ñı
Ġgi ant
Ġma nd
ĠH app
TI ON
g un
iam o
ìŀħ ëĭĪëĭ¤
Ġg ap
ĠÃª tre
Ġclass room
Ġhy p
ak i
è ®
is ters
ack s
ĠÑģ Ð¾
Ġb ug
Ġgra v
am in
Ġevery day
Ġì ¡°
Ġgard en
ce mber
Ġest o
åĹ İ
Ø ¬
Ł °
å ģ
Ġr om
Ġìłľ ê°Ģ
Ġfall ing
Ġfa ult
ell y
Ġch est
ĠÐ» Ð¸
Ġpot ato
Ġbuild ings
Ġoper ating
Ġp are
w r
D on
ĠF our
Ġv ul
Ġl Ã¡
Ġfr ust
ĠD ann
ol es
ny a
Ġì ¶
ĠÑĢ Ð°Ñģ
× Ľ
Ġa ÃŃ
w ord
Ġweap on
Ġob t
ĠF all
ĠSte ve
Ġmix ed
Ġp ode
ĠA S
ĠL eg
Ġdes c
Ġspl it
Ġemer gency
ĠS ing
Ġprof it
Ġtyp ical
ĠDon c
Ġannoun ce
ĠTe x
Ġsac r
tern al
Ġcomm ittee
ig o
Ġdi am
ph as
Ġdef e
ĠProf ess
Ġdec l
Ñĥ ÑĢ
2 2
ol f
ĠM ond
u y
Ġa y
Ġl em
Ġlove ly
ĠC ould
Ġgu ar
H H
Ġcare fully
ĠL isten
ĠÐº ÑĢ
Ġyou th
ĠThere fore
Ġdream s
ĠJe ff
? ]
Ġë Ī
D A
Ġb odies
au x
Ġtechn iques
Ġmechan ism
× ĵ
ĠÐ¾ Ð½Ð¸
Ġdes ire
Ã ®
ĠV o
qu es
ĠÑĥ Ð¶Ðµ
ĠWho a
ĠG ame
Ġh al
an ish
Ġpract ices
5 00
Ġsort s
up s
ate ful
Ġhers elf
Ġgu itar
Ġprop os
Ġsit es
Ġbe ach
Ġ× ¢
ç¬ ¬
Ð½ Ñĥ
Ġdr am
ĠNo ve
V E
r ant
Ġpl ot
ĠìĹ¬ ê¸°
ĠC a
Ġestab lished
Ġ201 5
Ġinsp ired
Ġannoun ced
ä¸ ª
ĠÑĤ ÑĢ
Ġ2 6
Ġv oy
Ġte ch
ìł ģ
Ġprocess es
ont o
ĠP an
Ġrap id
ist an
Ġ19 7
Ġrelig ion
Ġ2 8
Ġsm ile
Ġb ab
Ġ Ú©
ĠV ir
Ġsched ule
Ġexec ut
Ġpr on
Ñ į
ĠÐĿ Ñĥ
m usic
ìĽ Ĳ
Ġg an
ìĭ ł
Ġdef ault
Ġbe m
Ù ī
Ġfor ced
ĠOb viously
Ġst one
Ġt ie
Ġdrink ing
Ġser ved
C ause
Ġcon ference
ĠExact ly
ãĥ Ī
ł ľ
ìĻ Ģ
ĠR a
Ġf ake
Ġdif f
ãģ ©
Ġchalleng ing
Ġì¤ ĳ
Ï ĩ
ä»Ģ éº¼
Ġintellig ence
re te
Ġstud ying
Ġapp oint
Ġt an
ĠÐ¸ Ð¼
Ġcur ve
ĠTe am
ĠA z
ĠÐ· Ð´
ĠMus ic
f ield
ir ation
Ġfail ed
Ġno vel
Ġdifferent ly
Ġes cape
ĠY o
ĠOct ober
Ä± yor
Ġdescri bed
Ġcon vert
ac ement
Ġhot el
is ation
Ġsu is
ãģ ĳ
å ŃĲ
æĢ İ
Ġwalk ed
2 00
Ġneighbor hood
is p
ĠL os
Ġh idden
Ġ2 7
Ð» Ðµ
Ġph r
ĠIs land
ĠSt reet
end a
hip s
os ure
Ġdefin ed
à¸ §
Ġv ida
Ġlab el
ĠEvery body
Ġjo ke
ia o
Ø§ ÙĨ
Ġa thlet
... "
ĠF ire
D o
Ġdef ense
Ġent ertain
Ã¡ t
Ġpolic ies
Ġal cohol
ĠEng ine
Ġg al
ĠJ ud
Ġvol unte
ick s
et a
ag t
Ġ× ķ
Ġm Ã¶
1 3
Ġenc oun
Ġe h
Ġor ange
Ġabs or
Ġsp aces
ĠNove mber
êµ ¬
i at
Ġt am
ck now
Ġst orm
ĠDire ctor
Ġpre gn
ĠìĿ ¼
ĠÐ¾ Ð¿
Ġres ource
Ġb ard
ne w
ĠDe cember
u its
Ġwe il
Ġconst ruct
s i
n ic
Ġfl our
Ġrest rict
Ã¼ t
Ġentire ly
Ġbreak ing
ent lich
Ġtw enty
Ġcaus es
Ġele v
ĠS pr
ĠIntern et
Ġk iss
Ġoper ations
s zy
Ġë Ĭ
Ġscient ists
Ġgr own
Ġown ers
out s
Ġcour ses
Ġus ual
Ġin n
Ġtrans m
Ã± o
Ġnu est
Ðº Ð¾Ð²
Ġcateg ory
ĠL ife
ĠPl us
Ġat mos
wh ile
Ġrecord s
Ġde ÄŁ
ëĭ¤ ê³ł
ĠìĤ¬ë ŀ
Ġrequire ments
in n
Ġimm ig
Ġdeep er
ç ´
Ġapp s
Ġcolle agues
Å¼ y
Ġoff ers
Ġt Ã¡
Ġcolum n
la ud
I R
ĠM s
Ġexch ange
l as
ĠL aw
ĠJ on
is se
ro gen
Ġmo i
× Ĺ
Ġs ending
Ġhe llo
Ðµ Ðµ
ÅĽ Äĩ
Ġsuc ceed
Ġsuff ering
Ġad vert
Ġì£ ¼
çŁ¥ éģĵ
Ġrec o
Ä±n Ä±
ĠÐº Ð¾Ð¼
all ey
Ġfail ure
ie j
Ġëķ Į
Ġdrug s
Ġcu ando
Ġìĸ´ë ĸ
ĠAb out
Ġqu ando
9 0
ĠF ed
1 7
S h
in ho
ĠSund ay
ĠPh il
Ġacad emic
ĠIn c
Ġmaint en
åĩ º
Ġre ward
er d
Ġcomm itted
ìĬ ¤
Ð³ ÑĢ
Ġstand ards
Ġk al
Ġint ention
ĠZ h
Ġa cknow
ä ¿
Ġ== =
og y
å §
Ġfilm s
is k
Ġte eth
Ġstrugg le
r d
u en
Ġdis s
ĠD ar
am y
Ġenem ies
Ġve loc
ĠC all
um bs
Ð¸ÑĤ ÐµÐ»ÑĮ
Ġo cean
Ã© d
ìļ °
Ġtre m
ient o
ÐµÑĪ ÑĮ
ffic ient
Ġbott le
Ġinstit ution
est y
ĠH an
h ab
ëĬ ĺ
Ġar rest
éĤ Ħ
Ġlet ters
oun ce
í Į
A n
Ġcreat es
Ġcl ock
Ġdeb t
Ġan cient
ific ations
g i
B ut
ĠT u
k l
Ġb order
Ġo ok
ĠB ay
est a
Ġë³ ´ì
Ġw ra
pre ne
Ġê² Į
ang le
Ġbelie ved
ien cy
ak a
Ġcrit ic
Ġb omb
Ġha m
ĠÐ Ľ
êµ Ń
ĠGu ys
ros oft
Ġcr im
et ch
AR R
Ġs ight
Ð¸ Ð½Ð°
Ġa in
á» ĳ
is che
Ġau x
Ġnum er
Ġsurv ive
A ll
B C
Ġs z
Ł ¬ë
Ġj am
ĠCour t
Ġall es
Ġtr igger
Ð ŀ
Ġform at
Ġdec ades
Ġc es
Ġsign s
Ġrob ot
ĠCh urch
Ġa z
Ġs oup
ĠTex as
ut en
ĠÑĩ ÑĤÐ¾Ð±Ñĭ
Ġneigh b
ĸ ×Ķ
Ġcommunic ate
Å ¡
Ġel imin
Ġfrequ ency
her n
id os
Ġem phas
Ġmess ages
Ġg ender
ĠW enn
ĠÐ² Ð¾
Ġpr ices
ol o
ĠÐ¿ Ð¾Ð½
w ing
ĠF il
Ð° ÐµÐ¼
ĠC ur
Ġfal se
Ġfield s
Ġs Ã©
2 4
Ġm ac
u ÅŁ
Ġlay ers
Ġadv oc
w an
Ġk ar
ĠÅ ŀ
Ġdec or
Ġwall s
o e
iss ions
Ġres ol
× ¢
ĠCar ol
ĠV ide
le ep
ĠY OU
Ġfl ip
Ġsur gery
Ġch op
U R
. ,
Ġag ency
Ġwant ing
Ġsol ar
Ġhor iz
ĠAd am
Ġstay ing
ol ic
Ġgr ateful
Ġrem ark
Ġtechn ologies
Ġprote in
å¿ ĥ
Ð´ ÐµÐ»
ĠM ont
Ġshould er
Ġz a
re y
ĠO oh
Ġst y
ic ar
Ð¾ÑĤ ÑĢ
Ġrout e
ĠT urn
Ġb om
Ġdeb ate
Ġposs ibility
Ġíķ ´ì
ap a
Ġinv ent
Ã¼r lich
Ġprof ile
Ġsen ior
pp y
v as
Ġm undo
ate ver
Ġapp arently
en er
× Ĳ
ç Ń
Ġprec is
Ġal ign
Ġkn ife
ĠRo bert
å ĭ
Ġfo ol
Ġinv ite
us ing
Ġcircum st
Ġcapt ure
Ġd ough
ĠS and
Ġse u
ĠNew s
Ġb ite
Ġne ut
w ide
Ġlect ure
Ġëĺ Ĳ
Ġorigin ally
Ġcho ices
ĠG ar
Ġver se
Ġl it
Ġ19 6
íķ ł
Ġmeas ures
Ã§ Ãµes
w ater
ri ve
Ġz ijn
í ģ
ĠB us
Ġhe b
Ðµ Ñħ
ĠK ar
ĠN Ã£o
Ġkill ing
à® ª
Ġmir ror
m od
Ġm ol
Ġcre ation
Ġest im
Ġatmos phere
Ġg am
Ġt ables
is i
ĠL ittle
Ġt as
ĠE le
Ã© l
Ġscen es
Ġt one
Ġaffect ed
ĠAU DI
ĠBr own
I f
ĠÙ ĩ
ĠDan iel
çľŁ çļĦ
qu er
ch i
íķ ĺë
Ġmist akes
Ġs la
ãĤ ¤
Ġent r
ĠÐµ ÑģÐ»Ð¸
Ġsh out
Ġport ion
Ñ Ĺ
Ġpre viously
á» Ļ
ĠÐ¿ÑĢ ÐµÐ´
Ð¾Ñģ ÑĮ
Ġhead s
ç İ
å Ń
åľ ĭ
Ġgr ass
à¸ °
cri be
Ġqu Ã©
ĠSp anish
Ġoffer ed
ĠÐ±Ñĭ Ð»Ð¾
ĠCl oud
Ġve ctor
ĠH uh
Ġk ad
if ts
ĠÎ ½
Ġhung ry
Ð ¡
Ġpar all
AN D
ĠvÃŃde o
iz z
Ġocc up
Ġí Ķ
Ġsee k
h es
Ġdo ors
Ġhous es
Ġconsider ing
Ġgradu ate
Ġf ulf
è ¡Į
è £
Ġext reme
Ġflow ers
it ate
ĠP ri
Ġfundament al
Ñĩ Ð°Ñģ
è¯ ´
Ġtext ure
į ĺ
ĠAN D
à® ±
ĠT em
Ġn ada
ì§ Ħ
Ġcelebr ate
um s
Ġp ill
ĠÐ¸ Ð»Ð¸
go ing
Ġh ip
Ġsupport ed
Ġper man
Ġagre ement
Ġty m
Ġë ĳ
ĵ¤ ìĿ´
Ġpurch ase
í Ķ
ĠPl an
eg en
Ġrec over
P U
ĠMic rosoft
du c
Ġhol es
Ġdro pped
Ġp ig
Ġend ing
Ġattack s
be c
Ġre n
Ġr app
Ġìļ °ë¦¬
Ġter ror
Ġ× Ļ
Ġed it
Ġa o
. </
Ġ2 000
ĠUn ion
Ġscient ific
Ġp unch
ort ion
Ġput s
ĠMond ay
ĠJ er
E C
Ġmat rix
Ġinstit utions
Ġm ont
Ġex hib
Ġspeak er
Ġmet ers
. ]
Ġser ving
Ġdatab ase
ĠL AU
Ġdam n
Ġpod er
!! !!
Ġí ĸĪ
ĠAUDI ENCE
Ġj un
ĠA C
ĠIt al
se c
ĠYou ng
ru ck
ou ve
à¸ Ħ
ç Ī
Ġë§ Įë
ad ing
ur ation
ĠP S
Ð ļ
ĠUn f
è ģ
or ia
Ġman if
Ġsent ence
Ġsign ed
B S
Ġpro of
ĠMus lim
Ġnuc lear
ĠÐ³ Ð¾Ð²Ð¾ÑĢ
Ġw oll
Ġf avour
ĠW H
Ġvul ner
Ġclos ely
Ġind ex
ÑĤ ÐµÑĢ
ach el
Ġcap able
ĠB es
Ġcro ch
ek t
Ġshe et
Ġse es
Ġnat urally
ĠEng land
Ġparticip ate
Ġex ists
Ġsh arp
p y
Ġbreak fast
b ow
Ġtw ist
ç §
in ating
ot i
ĠF ound
Ġde ux
Ġselect ed
ìł Ħ
os is
Ġpresent ed
Ġline ar
Ġê ´
Ġk un
é» ŀ
Ã´ ng
Ġb ÄĻd
Ġtem por
Ġc able
ĠÐ¿ÑĢ Ð¾ÑģÑĤÐ¾
Ðº Ðµ
ĠÑĤ Ð°Ð¼
Ġwin ning
è ĥ½
ĺë ıĦ
Ġ201 4
ĠìĹ ¬ë
ĠU N
ĠCl ick
Ġpre par
ĠT O
Ġsu a
ĠH am
Ġl Ã¤
Ġabsol ute
Ġeng aged
å¦ Ĥ
ĠH mm
Ġd ash
T A
Ã± os
Ġsp o
çĶ Ł
) ]
Ġtest ed
Ġbl ank
Ġre ject
Ġass im
Ġre ar
ĠSt r
Ġcr ash
ĠÐ½Ð° ÑĪ
Ð¸ÑĤ ÑģÑı
Ġcol on
ĠU nt
ĠC e
Ġac id
é Ĺ
Ġk it
ib ilities
ut o
Ġvalu able
l ist
Ġpart ies
ĠM m
Ġcol our
Ġch am
Ġste el
ĠI mp
Ġfund s
ĠD NA
ĠK en
ind e
íķ ´ìĦľ
ãĥ ĥ
ĠHapp y
ĠU se
ĠL ight
Ġli p
Ġauthor ity
ĠL ong
ĠI ran
Ġe ll
Ġco ordin
Ġsub m
Ġrecord ed
Ñĥ ÑĪ
Ġdel ta
Ġre form
ĠSt ill
Ġopp on
Ġallow ing
Ġpatter ns
Ġlet ting
Ġsleep ing
O kay
Ġp izza
Ġ ÅĽ
ĠÐ´ Ð¾Ð»
Ġtal ent
ens ions
Ġenvironment al
Ġprofess or
Ġsh ots
Ġcont ains
ug ar
y o
ı Ļ
Ġsequ ence
Î¹ Î±
ad er
é ł
Ð° Ñĩ
ÙĨ Ø§
ĠI k
Ġt ous
ur ies
Ġp ounds
Ġex ternal
im ents
Ġvra iment
ìĭ ¤
Ġhapp iness
Ġpr ze
est ic
Ġestab lish
ĠFl or
Ġr ig
Ġh oney
Ġp ul
Ġsympt oms
Ġbr ows
ÐµÐ» Ð¸
ĠÏĦ Î¿
Ġsh irt
ĠTe chn
ĠPro gram
ÐµÐ¼ Ñĥ
Ġup set
Ġgu est
b urg
Ġun like
Ġsome what
Ġhang ing
a e
Ġr um
Ġphot ograph
ĠL i
åĽ ŀ
Ġst able
Ġvolt age
ĠE ll
Ġentre prene
us es
ass en
¬ ¸
Ġë§İ ìĿ´
Ġg host
Ġs agen
Ġcomb at
Ġg Ã¶r
ĠC ap
Ġs Ã£o
ĠK at
Ġform a
Ġsum m
Ġm arch
Ġv ast
Ã¼ k
Ġcommit ment
im os
L et
Ġded icated
ist e
l ay
éĢĻ æ¨£
Ġtop ics
Ġmach ines
ĠPar is
ĠìĿ´ë Ł°
Ġmin i
Ġmark ets
Ġk o
Î ´
v ille
Ġgood ness
Ġframe work
ult ure
Ġbas ket
ess a
Ð° ÑĨÐ¸
ust er
Ġê ¹
ä½ Ĩ
Ġext ent
ĠMens chen
Ġconsist ent
Ġaut o
ri p
Ġm ere
à¯ Ī
Ñ Ķ
Ġe lle
Į Ģë
ok en
Ġpull ing
Ġc ow
out hern
Ġmeet ings
Ġc ada
Ð½Ñĭ Ð¼
ient e
Ġb ast
an ing
Ġfocus ing
ro ad
Ġro of
ĠProfess or
ĠS P
ÑĢ Ð°Ð·
Ġno od
Ġ4 00
ĠìĿ´ì łľ
ìŀ Ī
ĠM ount
ÐµÐ¹ ÑĩÐ°Ñģ
Ġ× Ĳ
Wh y
× ŀ
Ä±nd a
Ġpos itions
Ã¨ me
ç ı
ĠÐ´ ÑĢÑĥÐ³
i yor
Ġpass ing
Ġasse mb
Ġsm oke
Ġt il
Ġm useum
Ð Ķ
ĠP erson
Ð½Ð¸ Ð¼
le ich
Ġint ent
Ġs que
Ġcra ft
ìĪ ĺ
ors un
Ġ15 0
Ġbr others
v or
ĠSpe aker
ic ians
Ġoffic er
ĠiÃ§ in
ĠÑĤ ÐµÐ±
Ġscr atch
Ġgener ate
y i
Ġemot ions
a us
ì¹ ĺ
4 5
ĠL ink
ĠRe al
Ġat e
ĠÐ½ Ð°Ð´
Ġn ative
á» ĩ
Ä± y
Ġen orm
Ġblo cks
Ġfac es
ac c
iven ess
Ġin ches
u is
he it
Ġstre ets
Ġprob ability
as i
Ġim pl
Ġ à¤
ur day
Ġf aut
om y
Ġp ip
Ġill ust
à® ¯
ĠJ un
Ġl ying
9 9
Ġmem ories
Ġpract ical
ian a
on ces
Ġview ers
ĠTh omas
æ Į
ĠG irl
ĠWh ether
Ġinnov ation
Ġdisapp oint
M y
Ġwin ner
Ġ ig
Ġrat io
ĠBl ue
ĠS ub
Ġdoc uments
Ġform ula
Ġë ©
Ñ Ĭ
Ġappe ared
v ar
and on
Ġsp ray
m ak
ĠQU ES
K E
Ġwed ding
R e
Ð°ÑĤÑĮ ÑģÑı
Ġun o
Ġg all
íĦ °
ci o
c ers
ĠÐ¼ Ð½Ðµ
Ġpe pper
ãģĹ ãģŁ
ĠFe bru
Ġaltern ative
Ġf u
ĠBas ically
ĠSm ith
Ġg ate
ĠT am
ĠWh atever
Ġappro xim
Ġconc ert
Ġju ice
ĠEs pecially
Ġdynam ic
Q u
ond er
i very
Ġb ang
Ġr ul
ĠPart y
Ġschol ars
Ġcry ing
j Äħ
Ð ¢
ĠQUES TION
r id
Ġaccur ate
Ã§ o
ĠC ool
co in
Ġìĥ ģ
ĠF o
Ġpr Ã³
ĠR oman
ĠÐŁ ÑĢ
Ġcheck ing
? '
Ġattach ed
ĠIs lam
Ġexper ts
× §
ĠCon st
ÑĢ Ð°Ð½
Ġshad ow
Ġdel ay
Ð Ĵ
Ġor ient
ë Ĥ
ell en
Ġas ÃŃ
ÐºÐ¸ Ð¹
Ġhistor ical
Ġun com
om p
h m
Ġb il
Ġpl anned
ĠUnf ortunately
ĠWind ows
Ø ´
Ġencoun ter
ĠìĥĿ ê°ģ
Ġregard ing
arr ass
Ġreco very
ĠH ur
ĠE mp
Ġs ÃŃ
íķĺ ê²Į
Ġdef end
Ġc et
as se
ëĭ ¨
ok es
Ġrem ote
ĠØ ³
Ġar ts
is co
auc oup
ĠMex ico
ĠÐ¿ Ð¾Ð¼
Ġch osen
em at
od ing
Ġfl ower
stand ing
ĠAs soci
um my
IL L
Ġcam eras
åĨ į
Ġ æĪĳ
ĠA rab
ĠS um
Ġte go
Ġcrim inal
if orm
Ġst ack
ìĦ ±
ĠDon ald
ĠO ld
Ġd ust
ĠJ ose
Ġhe m
Ġincre ases
ost a
Ġd ying
ĠR iver
Ġmo ist
ÑĤ Ð¾Ð²
a res
Ġdisci pl
ra it
ĠH as
y gen
ĠT re
Ġë ´
Ġlangu ages
ĠH en
Ġ3 6
ĠDis ney
int s
Ġal go
Ġfood s
Ġset up
l an
Ġeffect ively
Ġwhere ver
æľ Ģ
Ġun ter
form ation
Ġh its
Ġprinci ple
Ġtast es
§ Ī
Ġtreat ed
Ġres olution
Ġpriv ile
ĠI P
ë °
Ġter rit
Ġpow ers
Ġí ĥ
ĠV ict
Ġb other
ĠCh air
Ġmus cle
Ġs ale
Ġdec ent
Ġc oup
ĠS qu
Ġco ast
Ġro d
ĠFr anc
Ġbath room
Ġshop ping
ĠÐ¼Ð¾Ð¶ ÐµÑĤ
Ġi ÅŁ
ĠSt ay
gr ade
Ġform ed
Ġba ÅŁ
Ġbr ill
j our
í ĸ
åĽ ł
w ie
ic ate
ĠâĢĭ âĢĭ
ĠN orm
à ¥
Ġmain ly
ĠSp ace
Ġtrem end
it i
à® µ
U T
M usic
ĠFebru ary
Ġcont rast
å¯ ¹
est ing
ĠÎ ´
ing ing
ĠÙ Ĩ
ss en
ĠH ome
Ġshe ll
ĠH ay
Ġall er
ĠA p
ĠWest ern
ĠW ord
ĠPL AY
Ġë ħ
ĠA qu
Ġent ry
Ġlaunch ed
ĠM em
ĠP our
Ġz we
ĠSome one
ing e
ĠPro b
m ble
ĠR el
ur u
Ġr hy
Ġg ig
Ġengage ment
Ã¼ ÅŁ
ãĤ ĩ
Ġoffer ing
wh el
Ġact or
Ġ å°į
AP P
w est
ĠR oy
Ġreturn ed
Ġsil ver
r ating
Ġest ar
Ġs ke
Ġt i
ic ation
Ġann oy
Ġdeep ly
ìļ ©
Ġnat Ã¼rlich
EL L
ĠC ath
Ġr ail
Ð½ Ð¾Ð²
Ġpray er
c ol
G B
ĠÐ¢ Ð°Ðº
Ġg la
ĠW ater
Ñı ÑĤÑĮ
ĠN on
Ã´ t
ag ers
Ġh ug
Ġdo ctors
an cing
ĠT alk
z ing
Ġhad n
Ġl ui
Ġat Ã©
Ġê·¸ë ¦¬ê³ł
ê¹Į ì§Ģ
ic i
Ġincor por
ĠD i
z il
any a
ª ħ
ĠÂ »
3 5
Ġbe er
Ġbe aucoup
ĠM C
Ġe ars
og en
ĠQu est
ed a
æľ ¬
ĠSat urday
Ġfall s
st on
b les
Ġth us
ĠëĦ ¤
à¹ Ħ
Ġth erm
Ġdivers ity
Ġso y
az u
im p
Ġtele vision
éģ İ
Ġ×© ×ľ
Ġw ur
Ġed ges
Ġless ons
ĠA ud
ãģĹ ãģ¦
vo ir
ament o
Ġexplain ed
ĠÐ¾ Ð½Ð°
Ġtem ps
Ï İ
The y
Ġsurpr ising
Ð°Ð½Ð¸ Ñı
ĠD rag
éĿ ¢
ĠC le
Ġn am
ĠÐ»Ñİ Ð´
Ġhard ware
Ġth umbs
ĠÎº Î±Î¹
ĠT op
ĠÃ ¥
é Ļ
×ķ× ¨
Ġê·¸ëŀĺ ìĦľ
ĠBud d
ther n
Ġinterest s
Ø °
Ġdevelop ers
Ġh itting
Ġopp osed
Ġheart s
ĠAnd roid
ĠH and
Ġrepres ents
g lich
íĬ ¸
Ġ3 2
Ġdom in
ĠAn n
ä¸Ģ ä¸ĭ
ĠÃ©t Ã©
Ġzo om
ĠktÃ³ re
Ġadult s
Ġorder ed
Ġpick ing
ĠH ong
Ġfilm ing
æĢ Ŀ
Ġse ed
ĠA T
Ġcalcul ate
ĠÐº Ð¾Ð³Ð´Ð°
ĠO s
ic it
Ġrem aining
Ġse gu
Ã »
Ġìĺ¤ ëĬĺ
Ġarri ve
Ġcon gr
Ġgrand e
Ġhealth care
ĠÐ¼Ð¾Ð¶ Ð½Ð¾
S A
est e
Ġaware ness
Ġsqu ared
xt ure
ĠBe ing
Ġsold iers
Ñĥ Ð±
Ġrev olution
Ġtra ined
end en
è °
Ġdan cing
Ġinstall ed
pr ise
Ġv eter
Ġmen os
ne ll
ĠBr other
Ġn un
Ġimportant ly
all ed
ia ÅĤ
ab led
ĠSy stem
ĠV ol
Ġe ld
Ġemot ion
ic an
ĠB ank
ik es
Ġv log
ĠÐ² Ð¾Ð·
Ġpu ede
ìĺ ¤
Ġte en
Ġse vere
% ,
Ġclean ing
z Äħ
Ĺ Ĳ
ĠTh rough
ĠS et
E P
" ?
ĠM other
Ġfigure d
Ġm ud
ĠÑ ĸ
ĠOff ice
Ġr aw
Ġdestroy ed
ent a
Ġag gress
ĠÐ¾ Ñģ
Ġëª ¨ë
Ã¤ Ã¤
ĠA R
Ġcorrect ly
åī į
Ġst ir
Ġext ract
Ġveh icles
éĸ ĭ
ĠR un
ĠÐ² ÑĢÐµÐ¼
Ġparall el
Ġl ag
j u
Ġd are
ĠM ot
on o
Ġbeing s
Ġst ro
Ġexc use
Ġal pha
Ġask s
Ġpo cket
... ?
Ġk ita
Ã¼ m
Ġappear ance
ord an
Ġins ert
ĠÐ½Ð° Ñĩ
Ľ i
Ġtem po
Ġfac ility
Ġvis ible
å Ĵ
ĠS cience
ur os
ĠÙģ ÙĬ
ĠV an
Ġt ension
Ġíķ ł
Ġdel ivery
Ġst im
Ġsur vey
ĠG ra
Ġb ol
æ ł
Ġwe iter
ÃŁ en
ä¸Ģ åĢĭ
Ġpro ceed
Ġimpress ive
ĠV oc
ious ly
ĠÐ´ Ð°
h ale
o ch
Ġgl ue
ph et
c ont
Ġf its
Ġbox es
Ġcontrol s
ĠCh ild
Ġscen ario
Ġt rop
Ġprocess ing
ĠÑĤ Ð¾Ð»ÑĮÐºÐ¾
Ġbird s
ĠCh ic
ĠÐ½ Ð°Ð¿
Ġ201 3
ĠmÃ¼ ssen
ĠJ ag
Ġs Äħ
Ġper ce
re h
ĠF ore
Ġconf used
a ire
Ġaccompl ish
Ġcas a
c lock
Ġinflu en
ĠR O
Ġb one
ic ian
ĠS C
Ġstrateg ies
g h
Ð´ Ñĥ
Ġit u
Ġperson ality
Ġbard zo
Ġaccept ed
Ġst om
ie v
ĠH ist
ĠA us
Ġë° Ķë
AT OR
æĦ ı
o ir
Ġmag az
Ġexpl an
Ġcor n
Ġil s
Ġcirc uit
Ġg ay
h op
ãĤ ĥ
Ġequ ival
Ġdies er
er ves
com es
k lich
Ġëķ Įë
ab et
Ġex ha
Ġman ner
ĠâĻª âĻª
Ã© c
Ã¤ l
Ġconf irm
Ġenter ed
empl o
ĠF ar
Ġo Ã¹
ess ions
Ġn urs
Ġent Ã£o
Ġab andon
l ife
Ġw is
N arrator
Ġìĸ ´
Th ere
ĠR am
ast e
Ġatt rib
ĠA y
Ġmes mo
ĠÎ½ Î±
é «
ens es
Ġc rop
ĠÐ·Ð´ ÐµÑģÑĮ
ĠUnt il
ste in
Ġo ven
Ġsus pect
h et
Ġpu is
Ġcar ried
Ã© g
ĠDe v
em s
re ens
ber ry
Ġtem pl
ĠB it
Ġvari ables
Ġover whel
Î¼ Îµ
Ġinit ially
ìķ ĺ
ot hing
ÐµÑĤ ÑĮ
ĠH ill
Ġdep art
Ġmy st
az z
Ġflu id
ĠD C
Ġclin ical
ĠR yan
ĠFlor ida
ĠT ak
Ġanx iety
b ro
Ġcircumst ances
ĠÙ ĥ
Ġexist ence
Ġt ong
Ġ201 2
ĠSecret ary
Ġsp icy
Ġ[ (
ĠWith out
Ġfact s
Ġt ons
A pp
ĠSt and
Ġli es
ĠA D
w in
ÏĦ Îµ
app lause
I P
st a
ĠS up
ph ones
ŀ ĳ
p ie
ĠP ot
ĠN O
èµ ·
Ġ× ŀ
ĠÐĶ Ð°
ic as
ĠI r
Ġpush ed
Ġun cle
ĠÙħ ÙĨ
Ġl on
Ġprinci ples
ĠIntern ational
ĠÃ ĸ
Å ¾
Ġsay a
Ġê³ ł
Ġr ib
Ġpast e
Ġwar ning
Ġmus ical
Ġagre ed
Ð¾ÑĢ Ð¼
Ġgar lic
Ġox ygen
ìĺ Ī
A l
Ġë§ ŀ
el ines
LAU SE
ç¾ İ
gy pt
G E
ck er
t u
Ġsh el
Ġstay ed
ĠÐ³ Ð¾Ð´
Ġl apt
ĠMart in
Ġinv ited
Ġconf ir
Ġemb arrass
ac iones
ĠC amp
Ġhold s
ax y
Ġd ive
uck les
Ġbo ost
Ġw Ã¼r
st al
ĠÑĢ Ð°Ð±Ð¾ÑĤ
ĠdÃ© c
Ġoffic ers
ĠìķĦ ë
olog ist
× ŀ×
Ġse eds
Ġbu ff
Ġupd ates
ãĤ ı
d ed
Ġfriend ly
Ġcoun cil
ĠProb ably
Ġp iano
Ġredu ced
ÏĦ Î±
Ġauth ent
Ġexpl os
p ass
ĠH it
j ud
ĠN av
om i
Ġcomm ission
Ġg ym
Ð Ł
Ġp on
ÑĢ Ð¾Ñģ
Ġinter face
Ġstruct ures
ĠJ en
Ġy ok
Ġme u
ì§Ģ ë§Į
n ed
ĠW ie
Ġident ified
Ġchann els
Ä± na
Ġphilos op
ke it
Ġbit s
ent es
Ġf rag
ĠK ind
Ġdo ch
Ġs ne
ind ing
ĠJew ish
Ð¾ÑĢ Ð¾ÑĪ
Ġf ue
æĸ ¹
Ġí ı
Ġm Ä±
Ġke ine
Ġloc ations
çĶ ¨
Ġmet er
Ġbe ef
ãģ ĺ
Ġman ip
Ġson o
zz le
ç ¶
Ġp es
Ġhor rible
ĠS n
Ġfact ory
Ġfif th
Ġcook ed
Ġmo od
Ġveloc ity
Ġob lig
Ġconnect ions
ÄŁ im
Ġê³ µ
Ġdom ain
Ġapply ing
Ġrid ic
Ġc el
Ġchild hood
ĠT est
rat ulations
ĠVir gin
ĠC EO
ĠÐ¿ Ð»
Ġalgorith m
Ġinter action
ag a
Ġkid ding
Ġtom ato
Ġcontinu ing
l ad
st ream
Ð¾Ð¶ Ðµ
Ġìĺ ģ
ÐµÐ» Ð¾Ð²
B A
Ġn ap
ĠNo body
Ġth umb
ĠO N
Ġr ush
D R
Ġstri ke
Ġev olution
ich e
Ġì »
Ġê·¸ëŁ °
Ø§ Øª
Ġa k
Ġwind ows
Ġex cess
ãģª ãģĦ
Ġconc lud
Ġepis odes
Ġstrugg ling
ĠD at
Ŀ ¼ë
Ġke ys
Ġk le
æŀ ľ
Ġveget ables
y stem
Ãªn cia
r ick
Ġreven ue
ĠH aw
Ġl an
ant es
in iz
ãģĵ ãĤĮ
Ð¸ ÑģÑĤ
Ġsu p
© ´ìĦľ
Ġmoment o
ist o
ãģ ¤
ĠE ric
i ors
b aj
Ġintrodu ction
ir ty
Ġde ck
re al
ĠMar io
Ġlo ving
à¸ Ķ
Ġsupport s
Ð¸Ñĩ ÐµÑģ
Ġinc ident
ut ch
u v
Ġbo om
ÐµÑĢ ÑĮ
ĠÐ½ ÑĥÐ¶
Ġcomb ined
ĠL in
2 3
or ation
nt e
Ġs or
Ġdir ty
if er
ĠAP I
Ġcollabor ation
i able
Ġprior ity
ĠA le
ĠPr in
ĠEx c
Ġv ais
Ġgr an
Ġst ood
Ġrec ru
ĠM ur
es is
as p
Ġlock ed
ĠP ero
ĠHar ry
Ġt udo
ĠT en
Ø µ
force ment
) )
ol i
ĠìĿ ¸
Ġsupp l
Ġcroch et
Ġphen omen
l os
ath an
ĠSu pp
Ġem br
Ġbe k
ĠZe it
g end
Ġroom s
ª ½
V ER
ny ch
Ġdon t
Ġcab in
Ġaccount s
ĠE aster
×ķ× ľ
ãĥ «
Ġfac ilities
be it
Ġlink ed
ĠG er
Ġprogram ming
ot ic
Ġdr ama
Ġ2 9
Ġí ģ
Ġinstruct ions
Ġimportant e
Ġw aves
Ġa id
C K
ê²ł ìĬµëĭĪëĭ¤
ĠM ir
Ġt id
ĠH ot
Ġarr ange
ĠB aby
Ġt ack
ĠÑ ī
í Ŀ
Ġvert ical
Ġhe el
ĠC ut
Ġnar row
ĠA ri
Ġkn ee
ĠBra zil
ĠF ive
Ġpost ed
U D
Ġro lling
Î ¸
Ġclaim s
ĠIn s
O K
ãģĦ ãģĨ
u in
ĠInst itute
Ġint ense
i ar
ĠN ick
Ġse lection
Ġleg end
Ġun iform
Ãº n
Ġstud ied
å¤ ª
ĠÐ ¥
Ġìķ Į
g ers
Ġd ow
ĠC S
Ġag ent
ĠA uf
è¦ º
Ġj og
Ġair craft
ëĭ ĺ
Ġv it
ul s
Ġseg ment
Ġord ers
ĠCl ass
Ġap olog
Ġplatform s
Ġmy th
Ð°Ð¶ Ðµ
ĠB ook
Ġsens itive
ĠÐ¿Ð¾Ð» ÑĥÑĩ
Ġdam it
ĠC apt
so le
Ġarchitect ure
ĠW il
Ġin her
ca p
ĠB oy
æ¬ ¡
Ġbur ning
ĠP ublic
Ġbeh alf
Ġìľ Ħ
Ġtherap y
ubs cribe
Ġinvol ve
Ġexp osed
i ÅŁ
ä» ¬
Ãª tre
Ġto il
Ġs ink
p ir
å ĥ
I I
Ġag encies
Ġ q
ĠD own
au f
Ġë§ Ľ
ãĥ» ãĥ»
Ġpro c
ok ed
Ġst ores
p ower
ĠTh ings
Ġaccess ible
Ġte Å¼
ĠE duc
Ġspeak ers
ĠSar ah
Ķ Ķ
Ġdi verse
ìŀ ĸ
ĠU lt
Ãł y
ĠChic ago
S he
ath y
Ġen able
Ġtrad ing
Ġmus cles
æ Ľ
ĠC are
ĠU r
ĠSc ot
Ġphr ase
EN T
Ġê² ½
ĠJ ac
p ack
Ġdeterm ined
Ã¼ nd
Ġneg oti
Ġvid Ã©
Ġro z
ĠS us
Ġr iding
h men
ĠDe f
ĠC re
ãĤ ¹
ĠW all
ig an
Ġse mpre
Ñĸ Ð´
Ġdri ven
Ġfoot age
Ġf ond
ĠW ay
Ã¤ m
ĠOb ama
ĠServ ice
Ġ7 5
ĠD ark
Ġê· ¼ë
ĠC at
Ø ·
é Į
Ġj ug
Ġet was
Ġbreat hing
á» ĥ
åħ ¶
ĠWe b
ä¹ ĭ
èµ °
Ġfo is
Ġlight ing
ĠD A
Ġob st
Ġle ur
çı ¾
ĠE gypt
ĠAr my
ic ide
Ð°ÑĤ Ð¸
Ġëĭ ¤ë
Ġap artment
Ġch ief
ĠW ed
Ġnetwork s
Ġb att
æ ¸
ĠL uc
Ġnic ely
Ġver b
à¸ ´
ì ¶
os it
Ġreve aled
Ġt at
Ġt ied
á» ģ
Ġanim ation
Ġro les
ìĬ ¤í
Ġvers ions
Ñĩ Ð¸ÑĤ
Ġtas ks
¯ ¼
Ġres c
s he
Ġlo ose
Ġc á»
Ġco isa
Ġal ert
Ġn in
ĠS AM
Ġtra baj
ir us
T H
Æ ¡
og ether
ĠT ai
Ġfig ures
Ġ×Ĳ× ª
Ġcre ep
Ġinvestig ation
Ġrecommend ed
ĠA k
Ġres idents
ÑģÑĤÐ² Ð¾
se ct
Ð°Ð½Ð¸ Ðµ
Ġmind s
u ing
å ±
ow ing
Ġno g
Ġr az
Ø§ Ø±
Ġqu ot
ĠÐ¸ Ñħ
Ġs ed
Ġapp laud
Ġcover age
v ol
ĠRe c
Ä Ľ
ĠÐ²Ñģ Ñĳ
Ġexpect ing
Ġoper ate
Ġcon ver
ĠS uch
ĠR ad
ĠPr ime
Ġpur ple
Ġ201 0
Ġìķ Īë
Ġex em
Ġcompar ison
Ġlands cape
Ġne ither
ĠE h
ë ħ
Ġstom ach
Ġcas o
Ã¢ n
Ġpercent age
w ich
it an
Ġk l
Ġexp ans
ĠØ§ÙĦ Ùħ
Ġocc asion
re ts
ig ning
Ġkil omet
è· Ł
Ġg ust
c ze
Ġur ban
Ġag ric
Ġassist ance
Ġsur f
im eter
Ġpet it
Ġassess ment
Ġman ual
Ġimpro ved
b st
Ġpil ot
ĠM ars
Ġvie le
ĠCong ratulations
Ġarg ue
Ġwir klich
Ġclick ing
R IS
Ġlo go
Ġout come
ĠCent ral
ĠJ i
Ġg aming
Ġcons erv
Ġult imate
ĠV e
ĠW al
ar o
æĦ Ł
st ar
Ġconsum er
Ġtravel ing
im er
Ġ1 000
Ð½Ð¸ Ðº
Ġprincip al
Ġsa ke
Ñĸ Ð²
Ġm ouse
ar ios
Ġrel ation
èĩ ª
Ġmor al
åķ ¦
Ġthe ta
w y
Ġk am
Ġe ig
Ġgold en
× ¤
Ġam pl
Ġv u
st r
r ors
Ġwhere as
iz ar
Ġadminist r
ĠnÃ³ s
ĠP ret
ĠAc ad
ang ing
b age
Ã©t ait
ur i
Ġhe aling
Ġtip o
Ġmar ry
Ñĥ Ð²
Ġest ate
u u
ì Ķ
ĠB est
Ġsuff er
Ġ19 4
Ġbac ter
ĠÐĴ Ð¾ÑĤ
ĠO m
Ġd z
è ¶
ì ¦
Ġold u
Ġphys ically
ĠLou is
et ime
c ase
Ġp ier
ìł ľ
v an
Ġass ets
Ġë ģ
v et
Ð¸ Ð±
Ġprom ote
Ġcongr at
ues day
Ġd uty
ĠVide o
Ø ®
ĠJohn son
kt ion
ĠVoc Ãª
ãĢ ĭ
Ġa i
Ġann ual
ĠJ osh
itt e
ĠJ O
Ġsl ides
Ġan c
¹ Ħ
te en
Ġcarry ing
ly mp
ed ing
Ġf ro
Ġad mit
r er
Ġofficial s
pt ions
g al
Ġhe ute
Ġvo ices
Ġball s
Ġgu ests
ann er
ãĢ Ĭ
is her
ĠM R
ĠRich ard
Ġrough ly
l Ä±
Ġvict ory
Ġalg un
ĠMr s
ÅĽ cie
ĠU k
Ġe y
ĠW ars
Ġbr anch
ast y
ĠPr ince
ÐµÐº ÑĤ
Ġrecogn ized
Ġmuch o
ĠLe ave
con nect
Ġspe ll
Ġtouch ed
Ġag enda
è ¾
ar ia
ĠK ong
og a
Ġparam eters
ëĭ¤ ë
Ġinst ant
Ġreg ul
C on
Ġed itor
ĠD ist
Ġun known
Ġpun ish
Ġexpect ations
Ġcry pt
Ġdiv ide
ak en
ĠM ess
Ġhy per
ĠPro ject
ik i
Ġag ora
Ġab use
Ġcaus ing
Ġconv in
ĠL A
Ġconcent ration
Ġbreak s
ur er
Ġconc rete
Ġform al
Ġbet a
it ors
ĠCh amp
Ġhead ing
ĠB lo
Ġpre nd
ĠSen ate
Ġadvent ure
os o
Ġop ens
ĠPLAY ING
ĠS U
ure n
ik t
ĠÐ»Ñİ Ð±
ĠFo llow
ĠB iden
el n
ĠS ky
et ing
ĠE xt
Ð½ ÑĥÑİ
ĠìĻ ľ
Ġsh r
ell a
ĠD iv
Ġtransform ation
Ġhouse hold
et ry
è ¡
ĠDes p
Ġcour age
Ġpark ing
Ġett Ã¤
c al
ly n
Ġla id
Ġtri es
ir ts
ig a
Ġrec all
if ier
Ïģ Î±
Ġa an
Ġbutt ons
Ġre aching
Ġê·¼ë į°
Ġsp ark
ĠSo cial
ĠÐµ ÑīÐµ
Ġcan al
Ġcr iter
ĠktÃ³ ry
Ġten emos
Ĥ ¬
ĠÐ½ ÐµÑĤ
Ġt ube
ac les
Ð¸ ÑĪ
ĠdeÄŁ il
Ġst amp
Ġinf l
Ġa hora
Ġtra il
Ġmi xture
ĠR oll
Ġrout ine
Ġcount y
Ġenjoy ing
Ð½Ð¾ ÑģÑĤÑĮ
er es
Ġpurp oses
ĠS anta
Ġbre ast
Ã¤ ng
Ġwr iter
å Į
ÑĢ Ð¾
Ġne m
ic os
Ð° ÑģÑĤ
Ġdetail ed
Ġre verse
ĠRe ady
Ġdist ract
ĠAl ors
ut ter
Ġdes erve
ĠR on
Ð½ Ð¾Ð¼
Ġobs erv
Ġlog ic
ĠP y
ĠKe vin
ãģĿ ãģĨ
¥ ´
ÙĬ ÙĨ
Ġsk a
Ġt act
Ġhol iday
Ġb ump
ĠÐ¼ Ð¾Ð³
Ġde ix
í ħ
Ġwor ship
C l
Ġsu ck
ĠÑģ ÐµÐ±
Ġapp lause
ĠE p
ĠÐ¼ Ð¾
Ġp atch
áº Ń
Ġlad ies
Ġbroad cast
Ġill eg
Ġnarr ative
oss a
ARR ATOR
Ġs ang
Ġmove ments
Ġpartners hip
Ġorgan ized
Ġn ode
est yle
ĠM eg
Ġindust rial
Ġgo l
Ġb oring
åĬ ł
ãģ Ķ
Ġcut s
Ġrec on
as a
Ġimp ression
ìļ ´
g ie
M A
Ĩ µ
Ġed iting
r ont
Ġfollow s
ĠItal ian
ÑĢ Ð¾Ð´
Ġê°Ļ ìĿĢ
Ġë° ©
Ġpartic les
ĠBo ard
×Ļ× ª
j un
ron ic
Ġe j
ĠÏĦ Î·
×ķ× ĵ
c ion
itt y
ĠT uesday
um es
ĠPr ot
ed er
Ġpesso as
ĠÐ½ Ð¾Ð²
Ġsk ip
Ġobject ive
ÃŃ as
Ġdes k
ĠLook s
und en
Ġprim arily
iment o
Ġreport ing
Ġha ce
Ġcheck ed
é ĺ
Ġë³ ´ë
Ġsmell s
Ġact ors
ĠAs ia
il Ãł
Ġrece iving
Ġtax es
Ġgr ace
Ġcompet itive
Ġdiv ision
Ġes per
Ġwhe els
Ġkomm t
Ġtremend ous
Ġes pe
... )
Ġìŀ ħ
Ġlist ed
Ã¤ ll
Ġun us
ĠH olly
Ġguid ance
Ġc ub
Ġintell ect
ĠÐ±Ñĭ Ð»
Ġregard less
ĠSt an
æ² ¡
Ġconc lusion
aca ÄŁ
Ġl ol
ĠB at
Ġmanif est
ĠCh ief
Ġsh ame
Ġout comes
Ġma il
Ġk ur
Î¹ Îº
et z
Ġprep aring
2 7
ĠQue en
à® ³
Ġë¹ Ħ
Ġt iss
Ġconscious ness
Ġp ants
Ġm elt
uch t
in h
ìĽ Į
Ġvot re
Ġmod ule
ow y
Ġmon ster
Ġë Ĩ
Ġelectron ic
Ġcent re
Ġstop s
Ġt ou
Ġë Ń
Ġl amb
Ġconsequ ences
Ġstra w
Ġim per
Ġext end
ãģ£ ãģŁ
Ġanswer ed
ĠM ah
ĠLAU RA
if ting
u ate
åħ Ī
ĠUS B
ĠAnd rew
ãĤ «
ĠF red
ĠD E
ĠGe org
ç »
Ã¬ nh
Ġdra wn
Ġli ps
b ir
Ġmay or
im i
Ġenc ore
åĲ ĥ
fort able
urs day
ĠF orm
Ġbl ame
Ġshow er
Ġcontain er
st ers
ud es
ĠT ay
à¸ ¥
Ġìĺ Ī
Ġv om
Ġb ass
ĠL ab
iss a
Ġdim ension
Ġexecut ive
ĠR om
ê²Į ìļĶ
ĠDo ctor
Ġdeliver ed
Ġg ang
Ġc er
Ġp it
el i
Ġextra ord
j ar
Ġder iv
Ġill ness
Ġgun s
Ġ201 1
Ġair port
Ð ķ
Ġatt itude
Ġgr at
ĠW r
ĠN ARRATOR
Ġì ļĶ
Ġre new
Ġcos a
Ġcontro lled
omm y
ond s
Ġes e
Ã¤ ch
Ġv end
d am
Ġar gu
Ġacc eler
Ġn ail
ien e
ìĥ Ŀ
Ġenc ont
ese arch
é ¡
Ġgood s
Ġf ishing
APP LAUSE
ĠN AS
ect ion
Ġtem ple
lich e
Ġkey board
çŃ ī
Ġdes de
Ġeduc ational
ĠN ight
3 3
Ġbreat he
lich en
th m
i Ã¨re
à¸ ļ
lar Ä±
Ġal i
Ġcomp os
Ġsens or
Ġë¶ Ģë
Ġnews p
ĠB und
ĠM i
Ġperform ing
Ġdr um
B E
Ġp ork
Ġco al
en ger
Ġr am
Ġë ²Ī
çĦ¶ å¾Į
Ð¸ÑĢ Ð¾Ð²
ĠP op
Ġph ones
Ġfac il
Ġtrack s
ont e
Ġorgan ic
Ġdial ogue
ĠH aving
ĠP ost
Ġpay ment
Ġar ray
Ġint ended
Ãº s
Ġb ars
Ġreview s
land s
Ġking dom
Ġst ages
Ġmount ains
Ġd un
Ġdec ir
Ä į
Ġbank s
Ġthrow ing
Ġëª »
Ġan ger
ĠÑģ ÐµÐ¹ÑĩÐ°Ñģ
Ġdist ur
Ġhuman ity
Ġel es
Ġshould ers
ĠPer fect
Ġfan cy
Ġbrill iant
Ġinsp iration
h mm
å¿ «
Ġl id
U L
Ġm Ã¥
ind i
è Ī
Ġsh ield
Ġìĺ ¤ë
C T
ag ine
u ber
ĠB R
Ġquest o
ĠÐ· Ð°Ðº
ĠK now
Ġt ang
íķ ©ëĭĪëĭ¤
Ġbare ly
ĠS E
Ġmar gin
re i
Ð°ÑĤ ÐµÐ»ÑĮ
Ġcont r
Ġv Ãł
Ġleg it
Ð ĺ
k ins
ÑĢ ÐµÐ´
ĠAs h
Ġadv is
ĠGree k
Ñĥ Ðº
Ġsh ake
id ades
Ð°Ñģ ÑĮ
Ġconv ention
Ġcont est
M S
ĠYe ar
Ġrepresent ation
ind en
end ar
Ġpr ost
ĠH uman
ĠC y
ang ed
P A
Ġax is
Ġthe ore
at z
Ġíķĺ ê³ł
Ġel s
ĠR esearch
Ġbene fic
Ġd ensity
ind o
ìľ ¼
im di
Ġresearch ers
ê±°ë ĵł
igh s
d an
Ġd ice
Ġma ar
Ġsub mit
Ġd umb
Ġb ij
a way
ĠP ass
Ġext ension
Ġcr ush
Ġcover ing
ed i
b orn
in ations
ĠÑģ Ð´ÐµÐ»
Ð² ÐµÑĢ
ĠOther wise
ist ant
Ð°Ð¹ ÑĤÐµ
Ġt anto
Ġperform ed
ĠÐ· Ð°Ð¿
al o
ĠFound ation
Ġprot ocol
ĠZ o
m ay
Ġha ck
Ġbud dy
m ade
Ġad s
Ġfasc inating
Ġequival ent
g el
Ġar c
ĠÑĩ ÐµÐ»Ð¾Ð²
Ġprop osed
Ġnot re
ang es
Ġcoun sel
all a
Ġ3 1
we et
È Ļ
Ġelectric ity
Ġto x
ÅĤ ad
Ġì ´
Ġdifficult y
ł ×Ļ
nes day
Ð¸Ñģ ÑĮ
Ġall eg
ĠG O
Ġqu it
ĠHer r
ĠestÃ¡ n
Ġgirl friend
Ġt eng
ific ial
ĠJ am
Ġcan cel
Ġfrequ ently
I V
å¯ ¦
Ġclos ing
Ġdec ade
Ġrepresent ed
ĠCan ad
ĠÐºÐ¾ÑĤÐ¾ÑĢ ÑĭÐµ
Ġest amos
ĠTh ursday
ĠG a
ĠL ive
le m
b ble
S ON
Ġ200 8
Ġd ich
ĠAw esome
Ġconcept s
PE AK
Ġliter ature
ĠO lymp
Ð» Ð°Ð´
Ġn ost
v it
ĠEn ter
ord ers
ick ing
nie j
Ġe uch
ĠTh ough
Ġbag s
Ġlim its
Ġst ake
ĥ ¥
Ġo c
ĠV is
Ġ1 20
Ġn ue
Ġcon ce
Ġdis ag
ç ¨
Ġant icip
ł Ī
s l
Ġvot ing
Ġexp osure
ĠCommun ity
ĠJust ice
or ney
szy st
Ġfr ied
ìĭ ľë
ĠW in
Ġ @
ĠHope fully
es z
Ġm onde
Ġcomb ine
g ment
Ġrecommend ations
Ġpregn ant
ìĭ Ŀ
ra f
Ġl u
èĢ ģ
ä»Ģ ä¹Ī
do or
Ð°Ð· ÑĭÐ²
ue go
Ġimprove ment
Ġtr im
Ġe igen
Ġapproxim ately
ĠÐ² Ð°Ð¼
aw a
ĠÑģ Ð¾Ð±
Ġcor on
Ġon going
Ġh es
Ġinj ury
Ġfr ank
Ġkad ar
ren cy
ĠCol or
ĠG ru
Ġd ip
ÑĢ Ñĭ
Ġte ars
g t
ĠP D
Ġpa use
os c
Ġ usted
ĠW oo
Ġw iÄĻ
è¦ ĭ
Ġden n
ĠP et
Ġover come
ĠëĤ´ ê°Ģ
ĠM ove
Ġlic ense
Ġrepe ated
à¯ ĩ
Ġcateg ories
Ġnood les
Ġflo od
ĠM ass
Ġn uts
ĠJ ess
ĠI h
Ġch ances
Ĳ ĺ
Ġdon de
I G
Ġand ere
Ġb ones
ìŀ ĳ
Ġeffic iency
Ġmod er
ro at
ĠìĿ´ ê²Į
ill er
Ġom ega
ĠÐ¿ Ð¾Ð²
ĠGr oup
Ġprodu cing
am o
Ġparticip ants
u pp
if ice
Ġfort un
iet nam
ac ak
ĠK o
mi ÅŁ
Ġj ail
ĠJ ones
ÅĽ my
ĠDe uts
Ġbrief ly
ĠT al
ĠPer haps
ĠR ub
ĠK n
ëĭ¤ ëĬĶ
r Ã©
ĠvocÃª s
ĠChar les
ÐµÑĤ Ðµ
ri ers
Ġhe al
ant ee
Ġdemocr acy
Ġlo an
Ġche f
Ñı Ð¼
Ġuncom fortable
Ġet ern
app ing
Ġrep air
r ot
ĠT ar
Ġco vers
om ing
ĠE th
ĠÎ Ń
Ñĩ Ð½Ð¾
Ġafter wards
ĠÐ² ÐµÑĢ
Ġd aha
Ġkn ees
Ġord inary
Ã¼ l
g as
Ġtick et
ĠìłĢ ëĬĶ
ĠìŀĪ ìĬµëĭĪëĭ¤
ch te
M r
Ġs ist
h ui
ê· ¸ë
ìĹ ¬
Ġv ary
Ġmem or
Ġcontro ller
ĠbÄĻd zie
Ġmin ister
× Ĵ
fl ow
A H
Ġto wer
ç Ĳ
Ġsc ar
æĥ ħ
ĠP en
Ġpa ÃŃs
× ĺ
ìĿ ¸ë
Ġener g
Ġsw ord
Ġpap ers
Ð¸Ð» Ð°
ĠWed nesday
ĠFor ce
Ġextraord inary
ĠL ake
Ġê° Ģë
ĠBe aut
Ġreason able
Ġcontrib ute
Ġple ased
Ġupd ated
Ġpi Ã¹
el o
Ġsignific antly
Ġb ot
Ġgener ations
Ġprotect ed
åĵ Ī
Ġh iding
ĠI ll
Ġneut ral
] ,
ÏĦ Î¿
Ġtong ue
Th ank
Ġê³ Ħ
Ġpay s
Î¯ Î½
Ġapp le
0 1
er k
ier a
Ġj eg
ĠS ubscribe
Ġthe ater
Ġstrong ly
ĠìĨ Į
ĠÐ¿ÑĢ Ð°Ð²
uck y
ĠJ in
k ward
ê± ´
Ġoppon ent
ĠS O
Ġho ly
Ġfill ing
: ]
Ġh ij
Ð ľ
Ġb iss
Ġbl end
Ġim plic
Ġì ½
lle icht
ÙĬ Ø©
as ant
ert e
ĠS ame
Ġinter ior
S e
Ġben ch
Ġpo co
Ġmark s
Ġw ins
åĸ Ķ
ĠÎ ³
Ġdist inct
ĠAs ian
Ġmole c
ĠJack son
Ġe ast
Ġphys ics
im al
Ġpe ak
ar ian
ep s
Ġne at
ĠÐ² Ð°Ñģ
ur ning
Ġsyn th
Ġreve al
Å º
g on
n is
at iv
ĠL as
Ġp y
ĠMaj esty
ĠV alley
Ġen f
Ġg ens
Ġro ots
e ze
b et
Ġact s
é ļ
è Ĳ
Ġphilosop hy
Ġmatch es
Ŀ i
Ġju Å¼
Ġdes per
ĠEduc ation
Ġsp ots
Ġreg ions
A r
ĠN am
e en
Ġdi agram
Ġre ly
Ġt ens
Ġd ating
Ġco at
ĠH or
Ġacknow ledge
ĠPret ty
ĠÐ¿ Ð¾Ð¿
Ġvo ir
Ġfavour ite
Ġmo Å¼
Ġk m
ĠD O
Ġf ert
Ġë ıĦ
ĠP ac
Ġf ont
Ġfind s
ĠIt aly
ĠÐº Ð¾Ð»
Ġcomp ass
ë ³
li ament
Ġnot ion
Ġin ject
Ġwis dom
ĠÃ ľ
ĠMo on
ĠBus iness
r ics
ĠY out
Ġforg ive
Ġfin ance
il o
Ø £
ah l
Ġdem o
Ġclim b
Ġexp ort
å ł
Ġsuccess fully
ĠF er
pect ed
d em
Ġret ire
Ġlapt op
Ġsp ir
ĠAssoci ation
ĠÐ³ Ð»
ĠS el
Ġíķ ľë
Ġemploy ee
Ġm olt
R L
Ð ¯
Ġcont ra
Ġu g
ĠB all
ĠJ ava
Ã©r ie
Ġproced ure
Ġgr id
ĠëĬ Ĳë
Ġbel t
ĠÑįÑĤ Ð¾Ð³Ð¾
ur d
Ġcomp reh
Ġdevelop er
ĠÑįÑĤ Ð¾Ð¼
å ĺ
c r
Ġë ĵ
Ġsp oken
ren ce
Ġterm in
Ġaggress ive
Ġbiss chen
Ġhast a
ĠB rian
ĠComm ission
ĠY u
Ġprom ised
Ġequ ity
ik o
ver ty
Ġrepl aced
ĠHel p
Ġp ose
ĠMid dle
Ġk im
Ġme in
ĠCoun cill
ĠÐĴ Ñģ
or o
ĠB ern
Ġbe z
Ġanal yt
ang en
Ġìĭ ¶
ĠG lo
Ġqu ad
ÑĤ Ð°
Ġspeak s
ìĺĪ ìļĶ
ĠìĹ¬ë Ł¬ë
f ree
Ð½ Ñĸ
r ich
Ġë ¯¸
ĠD ies
ab b
¥ ¸
Ġdep ression
Ġret ail
Ħë ĵ¤
ĠV ous
ĠLat in
á ¹
Ġì¢ĭ ìķĦ
Ġtor t
Ġcomput ers
Ġsearch ing
Ġt ub
ate ll
Ġm erc
Ġglass es
p erson
Ġdish es
Ġguar antee
Ġme g
s m
ĠW alk
ìľ¼ë ©´
Ġfold er
ĠM it
Ġtim ing
Ġab st
ĠL og
ãĤ ¯
Ġappro ved
ĠUS A
Ð² ÐµÑĤ
Ġw ise
ess ed
Ġdou b
Ġres ident
Ġgener ated
Ġstay s
Ġexplan ation
Ġpo ison
at re
Ġins ane
Ġrefer red
ai res
ĠT RA
Ġse i
Ġinn oc
A h
Ġm ant
h us
Ġout er
ge b
o ice
Ġdiscuss ing
Ġconven ient
_ _
Ġavo ir
Ġshap es
Ġgr ay
Ġdent ro
Ġm acht
Ġ19 5
Ù ı
Ġadd s
ut ing
Ġcap abilities
Ġse ctions
Ġt une
ĠC ause
ard e
ĠÑģÐº Ð°Ð·
av irus
ĠR E
Ġtun ed
Ġle af
ter ior
ĠCapt ain
ĠØ ¬
Ġcho osing
h in
gg ing
v iet
Ġreg ret
2 6
ond ern
Ġbon us
ĠR ay
A s
Ġtor n
ĠH ier
ĠE U
Ġris ks
Ġam a
ĠY et
Ġcharacter istics
Ġê° Ĳ
ĠSen ator
ĠV amos
Ġr ose
Ġcorpor ate
g han
Ġcent ers
st airs
Ġn it
Ġunus ual
ĠT ony
ĠG R
ĠW ild
ĠSim ilar
Ġtod as
åģ ļ
Ġhoriz ont
m el
Ġstr ict
Ġc ual
Ġwr it
Ġext ended
Ġíķĺ ëĬĶ
Ġrel ief
Ġon ion
Ġbab ies
Ġdif er
Ġintegr ated
Ã¼z ik
ep ing
-- --
Ġm ens
Ġstrateg ic
fin itely
Ġeig entlich
W ho
åľ °
Ġ {
Ġ ä½ł
ĠT ri
Ġpoint ed
ð Ŀ
n ament
Ðµ ÑĨ
Ġpr ide
ĠRepublic an
Ġsam ples
Ġdom estic
L Y
ve z
Ġweb inar
Ø§ Ùħ
Ġen h
Ġsuggest ed
Ġme ine
Ġpu ed
ore n
r ir
Ġheav ily
Ġinst ruction
Ġmicro phone
Ġig ual
ĠI ra
Ġvulner able
ĠVirgin ia
Ġcontinu ous
Ġpo verty
Ġbl ade
ä¸ ī
Ġrel ate
Ġcar a
ĠGo ing
Ġreg ional
ĠF uck
Ġto w
ĠM useum
r ants
ĠÐ± ÐµÐ·
la im
Ġchamp ion
t le
ÃŃ n
en cia
Ġdies em
ĠD ig
m ates
Ġinvest ing
ĠJ ordan
Ġintegr ation
Ġí İ
à¸ «
ens us
ĠAr ch
Ġpen cil
Ð°Ð»ÑĮ Ð½Ð¾
iss en
ĠK a
Ġro cks
Ġr ating
Ġref uge
Ġa pr
et ed
Ġassist ant
Ġmeaning ful
Ġperman ent
Ġh ill
Ġw szyst
Ġw ound
ĠAt l
Ġl ake
ĠF ort
è¬Ŀ è¬Ŀ
Ġredu ction
Ġv iv
Ġs our
Ġe cos
Ġha z
Ġste al
Ġmy ster
ĠÐļ Ð°Ðº
ĠÑį ÑĤÐ¸
ĠV ietnam
Ġant es
Ġconnect ing
éĸ ĵ
ĠD ave
Ġb Ã¶yle
ĠC ast
L e
Ġc ul
Ġgen re
ë§ Ĳ
Ġcompl ain
Ġhur ry
art e
g reg
Ġmonitor ing
Ġdes ert
ĠÑģ Ð¾Ð²
el ing
ĠSup reme
Ġgib i
Ġlar g
Ġn ations
ĠT ok
Ġneed le
æ µ
Ġas leep
Ġcom un
ĠJew s
Ġachie ved
Ġex it
Ġdise ases
l ines
ãģĭ ãĤī
ri ends
Ġre ct
Ġsc an
ãģ¯ ãģĦ
Ġhur ts
z ÄĻ
ĠLook ing
ãĤ ·
í Ĵ
ult ural
á» ĵ
in ent
Ġp ues
Ġche ering
§ Ģ
ag ger
Ġad a
La ughter
ĠW omen
è£ ¡
è «
Ġoccur red
Ġse ats
èĢ Į
Ġemp ower
un u
ell ing
B ER
ens ional
Ġcon sole
as hing
Ġein mal
f are
Ġëı ¼
Ġs essions
Ù Ĳ
Ġridic ulous
ÃŃ an
ĠHen ry
ĠH ol
Ġcollect ed
Ġdiscuss ions
D e
Ġdis ability
Ġí Ľ
Ġsubscri bers
Ġir gend
Ġf el
Ġdirect ions
Ġmanufact uring
ĠR od
Ġìĸ ĺ
à¸ Ĺ
æĺ İ
Ġcriter ia
Ġmo ld
è© ±
Ġent ering
ri j
is en
ĠP ara
ie ve
Ġchar ged
Ġj ou
Ġc ats
Ð» ÐµÐ´
ad ays
Ð°Ð½ Ð¾Ð²
j ÄĻ
v ation
Ġast ron
it als
ĠB rand
ĠK an
Ġpl ain
Ġand eren
and e
Ñı Ð·
Ġto ler
ÅĤ em
Ġpr Ã©
Ð¼ Ð¾ÑĤÑĢ
age ment
u ct
ch Ã©
ĠE ner
aj Äħ
Ġíķ ´ë
Ġst a
Ġr ings
Ġtoil et
ĠC ra
Ġexperien cing
Ġsl ip
Ġsand wich
ĠUs ing
Ġspect rum
ĠR os
ap se
ĠJ ay
Ð¼ Ñĥ
æ³ ķ
E x
Ġrecogn ition
ĠDid n
ud a
aj e
est ly
Ġfem in
it ure
ÑĢ Ð°ÑĤ
Ġh ire
Ġnow here
ä½ į
áº §
Ġw ing
Ġsa v
ĠSec urity
Ġr ural
ĠF un
ay er
Ġac cus
Ġm m
ĠJose ph
Ġsc reens
Ġb orrow
Ġsw ing
Ġ4 8
Ġtouch ing
th is
int endo
é ĥ
Ð ł
ĠScot land
ĠJ ason
ĠV en
Ġexcept ion
Ġnear by
Ġbrows er
ang ers
ĠS in
ÏĢ Î¿
ä½Ĩ æĺ¯
osp el
Ġwur de
Ġdr unk
í ļ
ìĨ į
ãĥ ī
ĠìĬ ¤í
ĠL ie
oc o
ĠLe ague
Ġign ore
Ġ: )
Ġland ing
ĠØ¹ ÙĦ
ĠT ag
2 8
Ġdra ft
Ġa er
Ġê·¸ë ĥ¥
Ġp ense
ĠÐ´ Ð°Ð¶Ðµ
Ġbed room
Ġna j
ì§Ģ ê³ł
igen ous
Ġde als
ell o
äº Į
Ġpos it
ê »
Ġvis ited
if ies
Ġpre mi
Ġcan t
ĠR ick
Ġrais ing
Ġperm ission
Ġpub l
un ci
Ġb end
Ġchamp ions
d ie
Ġaw ful
Ġjump ing
Ġll eg
Ġsustain able
ĠT ot
Ġcand y
åĢ Ļ
Ġsatisf ied
Ġpi pe
Ġco ck
Ø ¶
st one
Ġmoment um
ĠÐĿ Ð°
Ġal ors
Ġreturn s
am men
ç ®
Ñĭ Ð¼
a wn
ott ed
Ġwoll en
ict ed
Ġcandid ates
ĠL ady
Ġy ield
Ġmainten ance
ff ect
Ġexpans ion
ĠL ED
Ġdark ness
Ġout fit
ìķ Ī
ĠÐ¸ ÑģÐ¿
ru ption
ãģĦ ãģ¾ãģĻ
Ġeng aging
Ġins ight
ĠAl ways
Ġge f
ra k
Ġp ix
è¦º å¾Ĺ
Ġquant ity
Ġin k
ĠKing dom
Ġc ort
å¸ ¸
Ġgovern ments
Ġprot est
po on
ĠÑĤ Ð¾Ð³Ð¾
å® ĥ
uch en
qu ality
ĠPor que
ĠCl ub
Ġr it
Ġart icles
B I
ig ible
Ġdis aster
Ð¸ Ð³
ĠÐ½ Ð¸Ðº
Ùĩ Ø§
ë ¥¼
are t
Ġun able
ĠÃ ®
Ġer st
Ġ× ł
v ard
Ġannoy ing
ĠK ir
ÐµÑĢ Ð¶
enn is
Ġunc ertain
3 6
Ã¶ s
Ġecos ystem
z ed
j Ãł
s un
ìĸ´ì Ħľ
ĠÅ¼e by
Ġma ps
ë Ĥĺ
åħ ¨
ĠJust in
Ġtr ash
Ġenorm ous
Ġst ated
Ġbrand s
Ġyou t
ĠÑĩÐµÐ»Ð¾Ð² ÐµÐº
ĠMat th
Ġtransport ation
Ġlegisl ation
Ġprov iders
ĠØ Ń
Ġmagaz ine
Ġse hen
ĠDesp ite
Ġpass es
æĪ Ĳ
Ġal ter
ad an
Ġfarm ers
è° ¢
Ġconfir med
Ġes a
it os
Ġroad s
V IS
Ġwork er
Ġdesign s
ĠSo viet
br id
Ġpract icing
Ġë¶ Ģ
ĠSe a
ãĥ ©
ĠÐ¿ÑĢ Ð¾Ð´
Ġch ill
Ġlem on
ìĹĲ ëĬĶ
Ġflex ible
ĠExc use
Ġterrit ory
åķ ı
ãģ ¿
Ġl ux
Ġlif etime
Ġdist ingu
ĠT imes
Ġgr oss
en z
Ġsc roll
m Ä±ÅŁ
ci p
£ ¼
D P
Ġpub lish
Ġe ben
Ġreg ist
Ġed ition
ĠL E
Ġchar ging
ut ation
yr ics
id as
ĠÎ ¿
ĠÐº Ð¾ÑĢ
ĠT on
çĽ ®
Ġwho ever
ĠF ox
æī ĭ
ê±°ëĵł ìļĶ
Ġf ought
Ġdr ill
ĠAf ghan
~ !
ĠTo o
Ġsecond ary
r Ã¤
ĠHe ad
in nen
Ġy arn
ĠÐ½ Ð°Ð¼
Ġwid th
Ġengine er
i Äħ
Ġw ings
ĠëķĮë ¬¸
Ġtra uma
Ġrep rodu
Ġch ip
Ġpassion ate
Ġaw kward
Ġí Ĭ
Ð°Ð¶ Ð´
ĠBit coin
Ġkh Ã´ng
Ġr Ã³
re ction
ĠÐ³ Ð´Ðµ
ĠUs ually
Ġimplement ation
Ġgame play
Ġmyst ery
ĠÐ¾ Ðº
Ġa Ã±os
and y
Ð¸Ð¼ Ð¸
Ġpriv acy
ac o
ãĤ ģ
Ġd ump
ĠP ay
Ġdi pl
Ġf urn
Ġsh ips
L A
ĠÑħ Ð¾ÑĢÐ¾ÑĪ
Ġe c
Ġdrop s
ch l
3 2
Ġobs erve
ĠDe velop
M Ã¼zik
ann el
owa Äĩ
Ġfac ed
Ã¡ l
Ġvictim s
Ġg ifts
Ġbo ot
ÃŁ e
ro d
Ġ200 9
Ã¶r t
Ġunivers al
Ġn ouve
Ġboy friend
Ġcet era
ÑģÑĤ Ð°
' S
Ġn ive
Ġcru cial
Ġsur ve
Ġco in
Ġs ondern
Ġsh ade
Ġl ugar
Ġsure ly
Ġma x
Ġimpro ving
åĽł çĤº
Ġw en
Ġ× ĳ
Ġìĸ ´ì
Ġen forcement
ib l
Ġli v
ler i
Ġme jor
ĠCarol ina
Ġv as
Ġcomp rom
Ġd irt
Ġup grade
ĠBe ll
Ġrestaur ants
Ġtra p
Ġte as
b lic
ĠG reg
s an
Ġo w
u est
Ġpropos al
ĠR et
fr ont
Ġpass age
Ġsurround ing
ĠÃº lt
Ġup coming
Ġhor ror
Ġcl othing
Ġìķ ½
Ġd il
r ome
ĠI d
ĠRo ad
ĠÑįÑĤÐ¾ ÑĤ
ch ain
ĠÐ±Ñĭ ÑĤÑĮ
ĠO ffic
ĠÐĿ Ðµ
Ġins an
Ġdecre ase
ĠÑħ Ð¾ÑĤ
bu ild
ĠDrag on
å Ĥ
Ġinvest ors
ant i
Ġsacr ifice
Ġtro ops
ĠB ad
Ġpass word
Ġconst ra
à¸ ķ
ĠÃĩ a
ad ow
th rough
ÑĨ Ð°
C an
Ġcandid ate
Ġant ib
ìĹ ħ
Ġtast y
ÙĪ ÙĨ
ĠIn f
ĠB ang
iÃŁ t
in ity
f ather
Ġcontro vers
ĠP ak
il ty
êµ ¬ë
Ġlight er
Ġfall en
Ġz us
ĠGu ard
Ġc ott
ĠF ree
Ġiniti ative
al ous
Ġnot ification
ĠMed ic
ĠComm ittee
ìĹ °
ĠW ood
Ġmus h
ul um
è ²
ah ah
Ġsu fficient
Ġsing er
Ðº Ð¾Ð¹
AL I
Ã¤t t
ĠP R
ĠL ar
cul es
iem po
Ġune x
Ġintegr al
Ġtransm ission
Ġic i
Ñĥ Ñħ
g ic
ĠN intendo
ĠC op
ĠTr ust
en as
Ġab ilities
Ġch ips
p at
Ġan che
Ð» ÐµÐ½
Ġapproach es
Ġth or
Ġs isters
Ġdri vers
Ġall a
0 3
Ġrub ber
Ġn Ã¥
AC K
Ġdisappe ar
ê° ľ
Ġcomp ens
Ġv ibr
ç¬ ĳ
G O
Ġs izes
Ġtrack ing
íĻ Ķ
ĠìĦ ¸
Ġimpact s
ib il
f ish
B R
Ġar row
Ġlarg ely
ann y
Ġlaw yer
æĢİ éº¼
j ours
Ú º
v ia
Ġde lla
Ġmath emat
ĠM ine
ĠK oll
Ø ²
ĠC ross
Ġ6 5
Ġgr ac
Ġinvol ves
Ġdel ight
ĠHolly wood
Ġimmedi ate
on ic
Ġl ado
Ġbull et
ĠN ote
Ġun lock
Ġdisc ount
Ġris ing
p ress
Ġp ace
Ġsh orter
Ġten er
ge on
Ġman aging
Ġc ere
C hr
Wh en
ach en
Ġì ĵ
ĠH un
Ġof t
Ġ2 50
ier ung
Ġst abil
ĠCon nect
Ġy ani
Ġdow nt
Î¼ Î±
Ġvoc al
Î½ Î±
Ġle an
ĠvidÃ© o
ĠFam ily
res ent
Ġamount s
ì§ ģ
cl ass
Ġv ib
ĠA v
ar se
Ġgentle men
Ġsee king
Ġun ion
Ġregular ly
æ ı
ĠJ ahr
ĠF ood
ĠPro blem
Ġart ificial
ĠS ix
Ġimp ressed
Ġto oth
ĠK h
Ġy ard
Ġíķ ´
Ġown ed
Ġëı Ļ
ì² Ń
Ġto da
Ġport fol
ĠëĤ ¨
orge ous
Ġd ates
Ð¾Ð»ÑĮ Ð·
ÐµÑĩ Ð½Ð¾
Ġconfig uration
Ġrequire ment
Ġbell y
Ġpain ful
Ġdemonst rate
Ġg leich
Ġvis iting
ĠCon f
Ġd al
Ù ĳ
Ġam end
ĠF ur
æ¯ Ķ
Ġv ital
á» ĭ
Ġm ate
ĠO u
Ġleg acy
ust ing
Ġaccom mod
Ġqu oi
au en
Ġlif estyle
C C
Ã¤ Ã¤n
art en
Ġmin ha
r Ã³
Ġëª ¨
Ġform ation
Ġtra iler
per or
ĠÐ³ ÑĢ
Ġu d
z u
Ġk ommen
Ġc ave
ĠCouncill or
Ġthr own
Ġtrick s
LAUGH TER
ĠAcad emy
row d
¡ Ŀ
ìł Ģ
ĠIm agine
Ġinform ed
ro ph
Ġl ig
Ġsk ull
ab eth
Ġfunction al
ere k
O n
é ¦
Ġanc est
Ġsaf ely
ĠH T
ëĭ ¹
Ġd av
Ġdri ves
A meric
Ġt ire
Ġsa is
Ã¡ ri
av ors
Ġcorrespond ing
Ġpr Ã©s
ch est
Ġbacter ia
Ġinfect ion
us al
Ġave z
Ġbasket ball
Ġsuppl ies
Ġexpert ise
ł ¥
f a
Ġt iempo
ĠW ant
Ġs illy
Ġu pp
Ġelect ed
Ġf ired
ĠØ ¯
Ġunivers ities
all e
Ġjack et
Â °
Ġtra v
l s
Ġdefe at
Ġco gn
Ġequ ations
uk i
ĠS her
Ġth irty
Ġstream ing
ot ros
ĠPro du
ne j
Ġdesign er
ĠëĬĲë Ĥ
Ġpaint ed
ra ine
m ail
Ġv ess
Ġrhy thm
les h
Ġ9 9
Ġa inda
ch ied
ĠÃ©t ait
Ġaffect s
é £
ĠF ind
ĠÃ© l
Ġpotato es
Ġp ag
ĠÐ¿ Ð°ÑĢ
art s
ĠN ach
Ġ3 3
ĠH ard
ĠIra q
Ġopin ions
w ith
erm an
Ã ½
è Ń
ĠS PEAK
¬ ¼
Ġst ability
ĠH E
Ġcapt ured
Ġbu cks
Ġmas ks
Ġcompet e
Ġforgot ten
Ð»Ñİ Ñĩ
se qu
ĠìĦ ł
ill ion
Ġgraph ics
Ġh ub
ĠìĹ °
em por
Ġcr own
Ġw ider
Ġocc urs
D S
æ ģ
ĠB attle
ãģª ãĤĵ
Ġd ual
Ġ6 00
ath ers
à¹ ģ
Ġsett le
Ġav ait
Ġdo is
ÐºÐ¸ Ñħ
ad ores
ĠÃ ³
ne go
ĠGeorg ia
ĠR og
Ġdiv or
ĠS ong
ĠSpe cial
Ġm un
Ġpret end
M AN
Ġviol ent
Ġbes ides
v y
ĠN az
2 9
Ġswe at
Ġz w
ĠH u
ĠBu ild
Ġh orm
ĠC ard
Ġìľ ł
Ġrecommend ation
c alled
st ick
ĠPol ice
Ġconsum ers
Ġgro cer
Ġst un
ĠÐĴ Ñĭ
Ð £
ĠD ata
Ġsubst ant
ire ct
à ²
ĠÐ² Ð·
ĠAr m
Ġsem ester
ĠBr ad
Ġour s
ĠÐºÐ¾ÑĤÐ¾ÑĢ ÑĭÐ¹
§ a
Ġgr ams
Ġexerc ises
7 5
Ġswe ar
Ġinc ent
Ïģ Î¿
Ġilleg al
ä½ ķ
ĠDam n
Ġn Ãº
Ġne ces
Ġcu z
ic on
Ġh ors
ĠCom o
ä½ ľ
Ġëĳ Ĳ
Ġover se
Ġhar vest
Ġth rew
ĠÐ¿Ð¾ÑĤ Ð¾Ð¼Ñĥ
×Ļ× Ķ
Ġot ro
ĠÐ¿ÐµÑĢ Ð²
Ġsc ope
Ġgl ory
ĠMich igan
Ġassum ing
ĠÑĥ Ð´
Ġbo ld
g ue
m other
Ġw aren
è¬ Ľ
ĠØ ¥
ĠK am
isp iel
Ġtou jours
Ġconst itution
Ġ ~
Ġfrank ly
ol en
ons cious
ĠwÃ¼r de
th on
ĠO F
ìŀ Ĳë
und a
Ġ æĺ¯
ĠÐ¿ Ð¾ÑĢ
Ġemploy ment
Ñĳ ÑĤ
ãģ ģ
Ġste am
ĠD I
Ġprofession als
Ġengine ers
ĠX ia
ç «
ìĺ ģ
ĠD un
Ġbit ch
ĠF ord
ä¸į è¦ģ
se ction
Ġv ice
ĠL ater
ost on
Ñį ÑĤ
× ¦
ĠAz ure
pl ing
Ġ18 0
ĠC reat
IS HA
Ġbu eno
íĿ ¬
ru p
l ers
ĠY ang
ĠH A
b at
ĠCath olic
Ġacc ent
Ġmix ing
ck ets
Ġenh ance
Ã¼ hr
Ãª s
Ġí ĸ
Ġswim ming
Ġcá» §a
ĠEl iz
Ġimm une
ĠÐ± Ð¾Ð»
Ġf are
ĠG ab
× ¡
Ġs atell
ĠAny thing
Ġass et
Ġsched ul
Ġrad ical
Ġzwe i
ĠM E
rel ated
Ġsepar ated
ĠL ibr
Ġg rip
Ġà® ª
è¨ Ģ
Ġbe ans
ĠO p
ìĨ Į
Ġp ound
Ġentr ance
Ï Ĩ
ĠN ie
ĠRepublic ans
Ġat om
Ġperson as
ĠAl i
Ã¤ hr
å¤ ĸ
Ġdram atic
ĠF ine
Ġremind s
è Ļ
ĠdÃ© jÃł
Ġafford able
Ġbr an
ier o
al ar
c u
Ġ \
Ġmo Å¼e
Ġbl ast
Ġrec y
f ire
Ġ lle
ĠÐ²ÑĢÐµÐ¼ Ñı
ĠW W
Ġv s
ĠD ude
ĠR ome
Ġg reet
ĠH et
ci as
Ġëĭ ¹
less ly
Ġprem ium
Ġexper iments
at ar
Ã© ri
Ġoffic ially
Ġfe e
à¹ ĩ
ĠÑĩ ÐµÐ¼
re a
Ġto y
O P
ĠTay lor
ĠMc C
ile y
ĠB ak
Ġal um
ĠUn ter
Ġmag ical
Ġtra bal
Ġvot es
it age
Ġmechan ical
h n
ãģ¾ ãģĹãģŁ
ĠÐ¸Ð½ ÑĤÐµÑĢ
ä»Ĭ å¤©
Ġh int
Ġauthor ities
ĠNAS A
ivers ary
ĠÐ¿Ð¾ Ñĩ
r ac
ĠSPEAK ER
Ã¶ t
Ġfr ames
Ġgood bye
Ġch er
h u
Ġne ur
å® ļ
ĠM ach
ĠHe ll
Ġfest ival
ëħ Ħ
ut a
Ġmush room
Ġt ant
Ġtat to
Ġdel ete
Ġd iz
Ġv Ã¤
Ġse vent
ĠQu ick
Ġb aking
Ġassemb ly
G o
ĠD ream
ĠL ad
éĿ ŀ
Ã¢ y
ag s
Ġgrav ity
Ġì§ ĳ
em ploy
Ġdies es
Ġdisco very
ÑģÑĤÐ² Ð°
Ġheb ben
Ġger ade
ĠD R
Ġ' '
Ġtechn ically
ĠÐŁ Ð¾
Ġprivile ge
ĠE ver
ĠServ ices
ur an
Ġconsum ption
ĠRe v
ĠSh all
ass er
¶Ģ íĦ°
Ġrac ial
ĠYout ube
ĠP ra
ÑģÑĤÐ² ÐµÐ½
ce k
æ ´
ash a
Ġ Ûģ
ĳ ľ
ah n
IC K
Ġdrink s
Ġcar b
ãĤ ¿
Ġ6 4
ĠM mm
Ġelectr ical
Ġfr uits
ĠH D
Ã± a
ĠDe finitely
Ġë° Ľ
Ġf ais
r ations
Ġco e
ah u
ĠF air
Ġeat en
Ġf ir
ĠA u
Ñĥ Ð½
ul ating
ing ly
Ġvacc ines
Ġdrag on
Ġpoint ing
Ġpel o
or ters
Ġwork out
Ð¸Ð¼ ÐµÑĢ
m ond
ĠN ope
Ġ× ĸ×Ķ
ĠÙ Ĥ
Ġadopt ed
b ul
Ġs ans
Ġposs ibilities
Ġp end
Ġz aman
h ou
Ġsha res
Ġcal endar
Ġperson a
Ġse al
Ġgen e
Ġst ored
ĠÐ¿ Ð¾Ð·
Ġl yrics
Ġinstr uments
ĠM A
Ģ ìĿ´
Ġcloud s
h ot
áº ¯
Ġê°Ļ ìķĦìļĶ
ĠEmp ire
Ġb io
w ind
ie go
ĠEu rop
Ġ å¥½
ed ge
Ġback wards
Ġì§ Ģë
Ġque en
Ġsh ine
ĠÃ§ Ä±k
Ġc ad
ĠO d
ĠìĤ¬ëŀ Į
Ġbu bble
Ã´ i
z es
Ġreact ions
Ġjud gment
ĠDemocr ats
Ġcos as
ash ed
ĠÐ´Ð¾Ð» Ð¶
ÅĽ nie
ê ´
Ġexem ple
M P
á» ¯
ĠV ers
Ġres il
Ġm Ã¡
ÅĦ st
bel iev
ĠV or
Ġsch eme
ond a
Ġpod emos
Ġchar ges
Ġdest ination
ĠK y
ĠS S
Ġsil ence
Ġem bed
n at
á» Ľi
AN T
gg ed
Ġredu cing
Ġug ly
Ġm im
ÑĥÐ´ Ð°
3 4
Ġc ord
ĠÑĤ Ð¾Ð¶Ðµ
ĠL isa
ĠÃ¶ n
ĠChrist ians
umb les
olog ists
az a
Ġt ends
ĠC ook
Ġges agt
Ġíķĺë Ĥĺ
ĠT es
erem ony
ĠÐ½ÑĥÐ¶ Ð½Ð¾
ĠMAR ISHA
Ġen roll
ĠC ry
ES S
ĠS ad
Ġimplement ed
Ġd ÃŃa
Ã ľ
Ġp ist
D r
Ġs abe
ĠSo ci
Ã¤ re
ĠÐº ÑĤÐ¾
ĠFranc isco
Ġìŀ ¥
Ġcreat ures
aw s
Ġearn ed
Ġche aper
Ġd la
Ġw arn
s che
Ġbl ah
Ġnut r
è ¼
Ġg orgeous
ĠAng eles
Ġgem acht
Ġhom eless
ograph ic
ĠTai wan
ĠS om
ĠH ad
act ions
Ġpost s
Ġout ra
ĠMe an
k ar
Ġc ous
Ġbr ack
Ð¸ÑĤÑĮ ÑģÑı
Ġbelie ves
Ġsu icide
Ġequ ally
Ġca res
Ð¾Ð¶ Ð½Ð¾
Ġst em
ĠM uch
Ġprodu cer
×ķ× Ĳ
Ġprotect ing
ĠTRA VIS
Ġinterview s
Ġal ien
ĠAs k
Ġso le
C O
ĠS ud
Ġsurv iv
Ġsk etch
Ġw ÅĤa
Ġcol oc
Ġapolog ize
we ight
Ġ5 5
Ġ >
Ġhero es
ĠB oston
Ġdepend ent
Ġmotiv ation
fl ix
Ġse am
ÐºÐ¸ Ðµ
Ġdra in
od ed
Ġgu ilty
ĠJ enn
ing en
Ġgrant ed
ĠK elly
ĠS av
ĠUn cle
ĠHon estly
EL I
Ġnavig ate
Ġbless ed
c ore
Ġear ning
Ġsign als
Ġdis k
ial s
Ġag es
æ ħ
Ġpartic le
ĠÑĩ ÐµÑĢ
Ġcan n
Ġt ier
Ġstat ements
ê³ł ìļĶ
ĠëķĮë¬¸ ìĹĲ
ĠCh o
Ġpol ar
an Ã§
ĠK enn
ĠN i
ĠF ight
or gan
é ķ
ĠCh a
ĠS ÃŃ
ãĥ ª
Ġs lic
Ġcert ific
Ġtempl ate
ĠFed eral
Ġconsider ation
Ġexpl o
ĠM ain
ĠN E
Ġalong side
Ġd ressed
ĠP oint
Ġenviron ments
ĠprÃ³ xim
Ġda ar
Ġprom pt
Ġpurs ue
Ġentertain ment
Ġth roat
Ġproblem a
Ġm art
ì ¼
Ġprov ider
Ø Į
Ġ× Ĺ
int e
m aking
Ġstro ke
Ġtiss ue
U n
Ġpre cious
ĠAr ts
ink ing
ĠÐŀ Ð½
ĠÐ¸ Ñģ
n ah
ĠÐķ ÑģÐ»Ð¸
Ġcor ners
Ġtrick y
in ch
l ijk
Ġpress ing
le vel
AN G
Ġrad iation
ìĦ ł
Ġconf ront
Ġv et
Ġrepresent ative
Ġprop ag
Ġcra p
ĠDe c
Ġr amp
ÐµÐ¿ ÐµÑĢÑĮ
u Ã©s
ess en
cri ption
Ġb ills
ĠMatth ew
Ġan ime
áº¥ t
Ġlow est
h as
sc reen
og rap
Ð°Ð» Ð¾
int on
ĠJ ah
èĢ ħ
it Ãł
Ġk ay
Ġrot ation
ĠW ere
abe i
Ġtri als
Ġle ver
ight y
Ġsp oon
Ġh unt
c ling
Ġdis m
ĠÐ±Ð¾Ð»ÑĮ ÑĪ
Ġass ault
Ġíĺ ķ
Ġweek ly
Ġm ismo
Ġgen etic
ul pt
ĠStud ent
Ġreal istic
Ġauthent ic
æī ĵ
ast a
Ġarrest ed
Ġguid elines
Ġ×ľ× Ĳ
ĠÐ´ Ð°Ð²
ĠCom ing
f Ã¼r
Ġrequ ests
ĥ Ĳ
Ġanaly ze
Ġinter ess
Ġh alt
ĠO per
on om
Ġd uck
Ġwith d
s er
ĠÏ Į
ĠHist ory
Ġyout ube
ãĤ į
Ġsab er
w alk
f ont
Ġover view
3 9
Ã¼ y
ett i
Ġfro zen
Ġf lesh
ÄŁ i
ĠP M
ĠìĻ Ģ
é ¢
ÑĨÐ¸ Ð¸
Ġê¸ °ë
íģ ¬
Ġpr ose
oo oo
r ates
W S
Ġautom atic
Ġcollect ing
Å ĳ
Ġneighb ors
Â» .
ĠEx pl
Ġcir cul
co ver
we g
Ġstick s
Ġe ller
Ġw ww
Ġd orm
ĠEx per
Ġstat istics
Ġemail s
Ġgra ve
im iz
H S
Ġu it
, '
Ġlas er
è ī
ĠÑĤ ÐµÐ¼
Ñĭ ÑĪ
Ñī Ñĳ
Ġgen au
Ġtien en
Ġmed itation
ĠOr gan
Ġest imate
Ġë¬ ´ì
l ets
Ġn Ãły
Ġmind set
Ġres on
Ġm Ã©s
Ġnumer ous
Ġvie lleicht
ĠTh ird
u ous
ĠDe ad
Ð°Ð½ Ð´
H N
Ġrac ing
Ġag ents
ĠU t
Ġte ar
ĠH P
Ġchem istry
Ġsurv ival
æĸ °
Ġconvin ced
Ġ ;
Ġreg ulations
ĠE S
åĴ Į
3 00
Ġen se
Ġì µ
Ġd ict
G A
Ġah ÃŃ
åĭ ķ
Ġte j
ĠÐ¾ ÑģÑĤ
ĠE lect
Ġintellect ual
Ġbi as
Ġbur den
çĤ ¹
Ġìĸ´ëĸ »
Ġche er
Ġso ph
Ġportfol io
ub a
Ġest os
T V
F or
Ġas h
Ġkom mer
Ġcollect ive
Ġw rest
ĠJ etzt
ĠW at
re ich
Ġprim er
act ive
Ġm ie
ick ed
Ġhun ting
Ġtest im
Ġcompass ion
ĠØ ±
Ġbr ut
Ġsal ad
Ð¾Ð± ÑīÐµ
Ġsol ving
Ġflo ating
ç ·
Ġattract ive
ÙĪ ÙĦ
Ġper d
if fer
Ġsc ulpt
hh h
ĠWe ek
Ġent hus
Ġn ad
Ġmer ch
ĠíĻ ķ
Ġm ile
å¥½ äºĨ
ĠÎ ¸
ĠëĤ ĺë
éĩ į
3 8
Ġch ains
ĠAl most
Ġtick ets
r in
ĠC C
Ġdistrib uted
abet es
Ġtemper atures
Ġg ained
Ġflex ibility
Ġscream ing
Ġab road
un o
Ġentreprene urs
ĠNet work
ĠCanad ian
Ġpre v
Ġs Ã¶
ĠÑĤÐµÐ± Ñı
ĠP oke
ĠP od
ĠTur key
çı¾ åľ¨
Ġabst ract
Ġsn ake
ĠAm y
ĠëĬĲëĤ Į
Ġbra ve
ĠìŀĪ ìĸ´ìļĶ
ĠK al
Ġ200 7
Ã¡ rio
Ġmark ed
gin es
Ġall oc
ON G
Ġscient ist
Ġes ca
Ġrac ism
× ĳ×
ĠS ams
ĠP enn
Ġload s
Ġà® ¨
Ã¼ ber
M e
ix Ã²
Ġper Ã²
an ne
Ġexp ressed
Ð¼ ÐµÑĢ
Ġmo et
Ġret urning
n ia
Ġexp on
P ro
Ġlo yal
M L
Ġl amp
Ġsh y
Ġcomp osition
ĠL y
Ġmagn etic
Ġprem ier
Ġmeasure d
Ġsumm ary
Ġattack ed
Ġfin ishing
Ð Ĺ
ç ¥
Ġs its
Ġhyd rogen
Ġma i
ĠDeuts ch
as Ä±
Ġobt ain
v ie
Ġso it
Ġë° Ķ
Ġl ane
Ġconse gu
Ð² Ð¾
Ġe ase
ak in
ĠF a
Ġunt uk
Ġbur st
Ġc um
al Ä±m
Ãº blic
id i
ĠRoy al
ĠK on
Ġcommon ly
Ġremo ving
Ġj ur
il ib
Ġan ch
íĸ ī
Æ°á» £
ĠÐľ Ñĭ
ĠAn th
ĠS Ã¥
Ġinter rupt
Ġst ere
ĠO S
ony m
ter y
ĠMar ia
ê² ĥ
Ġexpl oring
Ġtransp arent
Ġf ate
ĠJ ung
Ġgr up
Ġdark er
ĠD oug
Ġman e
æĶ ¾
áº¡ i
d ri
lo ok
ĠDes ign
Ġtut aj
Ġhorizont al
re on
ort e
ĠCor rect
ĠSte ven
Ġv ine
0 2
i Äĩ
Ġsie mpre
ĠK ey
åĥ ı
ĠG ames
Ġna ar
Ġshock ed
el ve
ĠR ose
ìĭ ¬
Ġstop ping
oh l
ĠM ix
Ġsuff ered
Ġsig ma
Ġweak ness
ĠO w
à¸µ à¹Ī
I F
Ġà® ħ
ad ed
ĠNet flix
an es
Ġrem ained
ir y
Ġr ip
ell t
Ġsil ent
Ġpro ven
Ġtox ic
Ġal umin
Ġmulti pl
al and
Ġ3 4
0 6
ĠB ru
Ġìłķ ë§Ĳ
J ust
b oy
Ġsho e
Ġcreat ure
Ġhead ed
ĠÐ¾ÑĤ Ðº
æ ±
Ġess ence
Ġremark able
ĠnÃº mer
Ġd rew
Ġpu zzle
ĠLibr ary
ĠF u
ash es
k k
ĠI st
¦ °
ĠB ry
Ġc eremony
Ġà® İ
Ġc ri
e qu
ãĤ ¢
Ġpri ze
Ġdim ensions
og ram
Ġle ather
Ġpop ulations
u um
Ġve gan
Ñı Ð´
ĠcÃ³ mo
å Ħ
Ġstri p
å £
Ġvac ation
ħ ķ
Ġme als
ili pp
Ġ ents
ar am
ric ht
Ġgra in
ĠSp ain
Ġche ek
ĠA ff
I ON
ĠBr ing
Ġ3 8
iel en
ul u
ĠÐ±Ð¾Ð»ÑĮ ÑĪÐµ
Ġannounce ment
ĠÑĤ ÑĥÑĤ
ĠPro phet
ard o
3 7
Ġw oke
Ġtransl ation
ĠN OT
ĠC L
Ġd Ã¼ÅŁ
ÑĨ Ñĸ
ac er
ĠL oc
Ġper ception
N O
Ġdies en
L ook
he art
av ed
Ġbound ary
Ġfl ows
Ñĳ Ð¼
Ġarg uments
Ġelect ions
Ä± s
Ġhe ck
Ġsuit able
Ġf iber
ĠSt ra
x y
ĠH um
Ġmonth ly
u per
Ġgol f
Ġl ately
ĠG ard
ĠR en
ĠA st
ĠF ant
Ð°Ñģ Ñģ
Ġobs er
ë ¡ľ
Ġeas iest
į Ķë
Ġwebs ites
p ol
Ġco con
Ġà® ĩ
ĠV eg
Ġwalk s
Ġint ro
Ġdirect ed
ĠAn na
Ġëĵ¤ ìĸ´
ĠEaster n
ĠS aint
ĠB ow
Ġro ast
ĠU RL
Ġjed en
ur as
aj a
Ġse mi
Ġrapid ly
Ġtarget s
ĠCont rol
Ġb ah
Ġref lection
Ġcreat ivity
hold ers
Ġìĺ ¬ë
Ġamong st
Ġfeed ing
ÑįÑĤ Ð¾Ð¼Ñĥ
ĠÐ²Ð¸Ð´ Ðµ
Ġë§Įë ĵ¤
ĠSm art
Ġrel iable
Ġvez es
Ġ× ¨
ch uckles
az ione
ĠWilliam s
Ġa Ã§
Ġsle e
Ðµ Ñī
Ġtim eline
Ġthor ough
á» į
ĠO t
áº¡ n
Ġimag ination
Ġmechan ics
r ist
Ġclaim ed
ÏĦ Î·
Ãª te
ĠHur ry
ĠiP ad
Ġconst ru
ĠC la
ĠAl s
ä¼ ļ
ut z
Ġcult ures
Ġìĸ´ëĸ» ê²Į
Ġbelong s
Ġy er
ĠDoes n
Ġge omet
Ġb id
Ġfo am
Ġh ob
ĠBrit ain
Ġsubst ance
Ġann iversary
ĠëĦ Ī
Ġnot ed
Ġgovern or
Ġstock s
3 1
Ġdi ye
ìĬ ¤ë
Ġre b
z el
Ġmultip ly
Ġoper ator
Ħ¤ ìļĶ
Ġwat ers
Ġd Ã¤r
Ġuns er
ĠEliz abeth
é« ĺ
Ġincreasing ly
ĠG ro
Ġen gines
ir s
Ø «
Ġtre asure
P C
in ction
ir i
Ġacc um
Ġvari ation
Ġp om
Ġtit les
ĠF est
Ã³ s
Ġeld er
ny m
r un
Ñı Ð²
Ġinnov ative
Ġnom bre
Ġco inc
Ġfr anch
Ġent onces
Ġnicht s
Ġexc lusive
ĠChe ers
ĠB i
u je
æŃ ¡
Ġp ok
ĠP rem
Ġrock et
ELI PE
Ġhosp itals
ri um
Ġjust e
Ġham mer
Ġquant um
Ġrespons es
ll y
end i
Ġact ively
Ġfr idge
i ate
l ong
Ġqu em
Ġdeath s
Ġsuper ior
ck en
ìĿ´ì ĹĲ
kt op
Ġgather ed
£ ¨
Ġd azu
Ġreci pes
Ġbu zz
c en
Ġany time
ons ense
Ġcirc les
Ġsol ved
Ġìĭ ł
Ġcoron avirus
ĠLu ke
Ġbu bb
Ġcont empor
r zy
ĠJ ane
ĠÐ´ Ð¾Ð¼
Ġscrew s
Ġhy brid
Ġcas ual
Ġsel bst
be ing
ĠÄ Ĳ
ĠCol umb
ĠÑħ Ð¾Ñĩ
Ġbu cket
Ġevalu ate
Ġid ol
Ġrep utation
ĠìĨ Įë
ÙĪ Ø±
Ġhe cho
Ġpo em
Ġsubject s
pl ant
ĠBe h
ĠSpe aking
Ġbatter ies
Ġfollow ers
Ã¶ l
Ġg ently
Ġsi xt
Ġparam eter
Ġik ke
ĠT our
ĠD J
ot te
ĠJ ahren
Ġprepar ation
ĠÐ´ ÑĥÐ¼
Ġ8 00
c op
ik ing
Ġë¬ ¸
ĠÐ½ Ñĥ
ĠÐ» ÐµÑĤ
åĲ Į
ĠI de
Ġì¡° ê¸Ī
Ġla ughter
Ġmole cules
ĠR est
Ġobs erved
d zie
Ġadvert ising
ert o
Ġmo ins
ĠM IT
Ġexc it
Ġt um
Ġty l
Ġinvest ed
Ġph arm
Ġunex pected
Ġph i
oty pe
we ise
Ġge Ã§
jour d
Ġhors es
n Äħ
= "
ĠS M
Ġf ib
Ġcl ips
çķ ¶
å¦Ĥ æŀľ
Ġreg ime
Ġrot ate
r ou
n ik
Ġarm or
ðŁ ĺ
ÐµÑĢ Ð°
åº ¦
ĠO ch
Ġr ichtig
Ã¼z el
ane ously
m ek
éĮ ¯
ĠX iao
Ġexist ed
w orth
ãģ£ ãģ¨
Ġna ught
Ġhe iÃŁt
ĠB al
Ġres id
iv ot
om atic
Ġh ired
Ġgrad ually
Ġon ions
Ġcomp at
Ġint im
Ġj ew
Ġcontrib ution
ĠI re
ac ji
Ġsl ice
Ġimm un
ĠR us
Ġgr ows
ĠSimilar ly
Ġhard est
Ġst ruck
Ġmeasure ment
... ]
th ey
Ġìł Ģë
Ġsne ak
Ġappl ies
ĠÐ½ ÐµÐ¼
æ ĵ
×ĳ ×¨
ĠÐ§ ÑĤÐ¾
Ġout ro
Ġinnoc ent
Ġm og
ĠSams ung
Ġmer cy
Ġhand ling
Ġinter vention
id ays
g ot
Ġcur ric
Ġbound aries
Ġconf using
Ŀ¼ ëĬĶ
æ ĩ
Ġstitch es
ÃŃ vel
Ġtun nel
it Ã¤
Ġg ost
im y
Ġcz as
Ġm Ã©
Ġcat al
ĠSim on
ĠLI AM
m ic
ĠÐ ¤
Ġey el
is as
ĠC PU
ĠD ou
ĠnÃ¤ ch
Ġinfin ity
Ġr if
ĠPe ace
ĠC u
Ġminim al
Ġlisten ed
Ġpo le
hal b
Ġload ed
Ġste ady
ĠBes ides
Ãª m
Ġl ap
Ġco op
Ġfriends hip
w orld
Ġge h
Ġtyl ko
ĠLa ura
Ġsurround ed
ĠE vent
Ġch ap
ĠW onder
bre ak
Ġdro ve
Ġbroad er
Ġch i
F i
Ġge hen
Ġwest ern
Ġintellig ent
Ġpers ist
Ġfound ed
ãģĵ ãģ¨
Ġhistor ic
Ġfr Ã¥
cks Ã¥
Ġhand y
Ġsy mp
Ġr ows
Ġnut ri
b ur
ĠLe on
Ġsist ema
Ġext ensive
ĠÑĥ Ð²
í ı
Ġnight s
ĠcÃ¡ c
Ġcount ing
ĠM ust
all ow
ÐµÑģ Ñģ
M om
ĠÐ½Ð°Ð´ Ð¾
Ġbar rel
ãĥ ŀ
AR D
Ġinstall ation
Ġin sect
Ġëħ ¸ë
uj Äħ
ĠÄĳ i
Ġpack ed
Ġf iction
N ow
ĠY ay
Ġper t
r ons
und e
ach es
Ġsty les
Ġapr Ã¨s
ok u
ĠV ice
Ä±n Ä±z
com m
Ġassign ed
Ġinteract ions
Ġac ab
F ELIPE
Ġresc ue
Ġindust ries
ĠAnd y
Ġpra ise
Ġfl ame
Ġsn ack
í Ĥ
ç ģ
Ġsw o
rend er
Ġbo ards
ĠÑĤ Ð¾Ð¼
en ne
Ġpast a
Ġdev il
ĠF el
Ġhat te
Ġcoll eg
e h
ì »
ãģĵ ãģ®
Ġproduct ive
for ward
Ð¸ Ð¿
Ġsmart phone
Ġinv is
Ġb um
Ġwho a
ìŀ Ħ
Ġo cksÃ¥
ĠL ang
ĠSy ria
Ġses i
Î¯ Î±
Ġappro val
4 8
ĠÐ¾Ð´ Ð¸Ð½
Ġë ĸ
ĠH arr
ĠAd minist
Ġ× ¤
ĠDe an
f i
Ġcitiz en
Ġsh ark
0 5
Ġbo il
Ġindic ate
å ¡
A re
Ġlay out
Ġref r
ĠPac ific
AA AA
ĠAustral ian
g ression
V oice
Ð°Ð» ÑģÑı
Ġshel ter
T o
au pt
Ġevalu ation
ap or
Ġcur rency
ĠÐ¼ Ð½Ð¾Ð³Ð¾
ig os
ãģ °
Ġo ct
Ġro yal
è ³
as il
ĠChild ren
Ġr ien
Ġë ĵľë
Ġbar rier
Ġej emplo
Ġe k
N D
es p
ÐµÐ½ Ð°
Ġp ic
Ġkill er
Ġintegr ate
Ġfew er
Ġdis abilities
Ġ ....
Ġtri angle
Ġfe es
Ġwid ely
em i
Ġoverwhel ming
Ġz omb
Ġb ere
Ġho od
ĠA ye
ĠHar vard
e v
ĠÏĦ Î¿Ïħ
Ġcup s
ĠA uch
z ona
Ġ199 0
Ġwe iÃŁ
Ġcr unch
æ ¥
ĠÐ· Ð°Ð²
Ġmeas uring
Ġst ations
ĠStep hen
Ġshort ly
Ġsig ning
Ġcom edy
om o
Ġsuggest ions
Ġsign ature
ĠÐ¿ÑĢ Ð¸Ð²
Ġdis order
as ka
Ġworld s
Ġprecis ely
n orm
ra v
ĠC ivil
In ter
ĠC ertain
Ġinj ured
Ġsuggest s
ĠGold en
Ġcy ber
ĠØ ´
Ġtempor ary
Ġco oper
Ġvot ed
Ġ ought
áº¥ y
x ual
Ġpan els
Ġ9 5
Ġhands ome
ĠÐ¿ÑĢ Ð¾Ð²
Ġper mit
Ġke in
Ġbad ly
Ġnot ifications
iz a
ĠNot ice
Ġinc lusive
Ġanswer ing
Ġí Ĺ
u ld
íħ Į
Ġnow adays
Ġ3 7
Ġb olt
Ġstat ic
ĠH op
Ġav ant
aj o
Ġë§Ľ ìŀĪ
Ġfif ty
ĠF inal
Ġsc ores
ĠT ap
Ġcy l
Ġconv ince
Ġany ways
od a
Ġìķ ¼
Ġser ves
ĠÑĤÐ°Ðº Ð¾Ð¹
ĠZo om
Ġsaving s
ul o
Ġs outhern
view er
Ġho je
Ġse ja
Ġrepresent ing
Īë įĺ
l ik
ĠSome body
Ġbe ast
Ġstick ing
Ġins ist
Ġtal ented
Ġexplain ing
Ġatt orney
éĥ ¨
Ġst airs
ĠD og
í ĭ
Ġc ig
Ġshap ed
Ġs ons
Ïģ Î¹
ut t
Ġì Ķ
Ġpar ad
ìĿ¸ë į°
Ġh orn
ĠJ our
ann o
Ġworld wide
åĬ Ľ
Ġparticip ation
¦ Ħ
Ġm Ã³w
Ġburn ed
Ġwrit ers
all ah
ĠF und
Ġcle ver
ĠLe ute
b in
Ġbe ating
f oot
ĠìĽ Ĳ
ĠStud io
Ġv ag
be y
r ze
Ġoppos ition
ĠÐ¶ Ð¸Ð·
w ho
Ġê± ´
Ġtr ace
ĠÐ´ ÐµÐ½ÑĮ
Ġep id
Ġges ch
ĠN ar
ĠB E
Ñĥ Ð¹
ĠS ign
ed ly
Ġcl ay
Ġinst antly
Ġgather ing
ĠGal axy
Ġb ored
ĠBudd h
c Ã©
Ġm am
Ġsl ope
Ġëĭ¤ ìĿĮ
Ġsch Ã¶n
Ġp ir
ge f
am er
Ġh Ã¶
Ġcolle ague
Ġpres ents
ad ium
Ġà® µ
Ġfal ar
be ep
Ġdri ed
ism s
Ġro pe
Ġworks hop
Ġest ud
Ġb ands
Ġthem es
åħ ¬
ÙĬ Ø±
åĲ İ
Ġremind er
ÑĤ Ñĥ
ĠB h
Ġcocon ut
ĠÑģ ÑĤÐ¾
ĠCh annel
Ġimmig ration
Ã¤ s
.. ...
ä¸ »
çĻ ½
st op
ĠÐº Ð°ÑĢ
Ġco ins
ĠÑĩ Ð°Ñģ
Ġdest ruction
l ined
Ġbar riers
ant ine
Ġprint ed
Ġcongrat ulations
ĠHe art
Ġin qu
th a
Ġhard ly
ĠA ven
Ġt inha
ĠS ony
ĠN F
Ġgradu ates
Ġsque eze
ere my
ÏĦ Î¹
Ġep ic
ĠJ u
Ġol m
ĠLa ughter
Ġbelief s
ĠC ru
ĠTr ue
ĠS oul
owe en
Ġrom antic
ĠÐ· Ð²
Ġan os
ĠY up
éĺ ¿
d im
Ġin fer
ĠÐ· Ð°Ð¼
Ġso c
uk a
Ġprec ise
Ġdro pping
Ġcl ue
Ġer rors
char ge
ĠP u
omet er
Ġlamb da
ac ional
ĠD ong
Ġcham ber
Ġthank ful
ĠN u
ĠHaw ai
Ġinf o
Ġactiv ate
ĠQ ual
Ġqu ed
Ñĥ Ð»ÑĮ
Ġcl oth
åĸ ľ
Ġw ichtig
5 5
Ġot ra
ograp her
Ġcur ios
Ġ19 80
Ġemp res
d ess
e ur
Ġcl uster
ar ter
ob ile
ĠY an
ĠAd v
Ġdiscipl ine
Ġìłķ ëıĦ
ĠPl ace
ĠSe lect
T E
ĠÐ±Ñĭ Ð»Ð°
Ġwh is
Ġb ay
ĠD or
en cing
Ġrep et
Ġf icar
p ad
Ġf og
u yor
Ġsn ap
ib t
Ġso bie
Ġappoint ment
ĠR y
Ġce iling
our se
Ġwr ites
ĠAfghan istan
Ġm os
az e
Ġpen al
Ġcry stal
IC E
ê° Ĳ
é Ł
ĠTes la
Ġthe ories
Ġappe al
Ġnewsp aper
Ġcook ies
æ ©
ĠØ§ÙĦ ÙĦ
Ġma j
ĠGet ting
k ommen
ĠHe aven
ell s
Ġdiv ine
Ä «
Ġa kt
Ġhop es
ĠCh en
we gen
** *
ĠFra ge
ĠÐ½ Ð¸
à¸ ¹
min ister
nes ota
wh ich
Ġexpl icit
Ġverd ad
Ġgradu ated
ĠPh ilipp
Q L
ĠM I
Ġdev ot
Ġc ure
Ġclos est
ĠÃ Ħ
Ġsex y
ãģ Ľ
ĠDe ath
ok o
ug u
ĠAn ne
itar ian
es a
ÐµÐ³ Ð¾Ð´
ĠD ur
Ġ 000
ze it
Ġtour nament
Ġmel hor
à¸ ª
Ġin du
Ġf law
Ġw ars
ĠM ind
ĠI ron
ÑĤ Ð°Ðº
ĠV R
Ġs iz
ĠS outhern
Ġê·¸ëŁ ¬ë
Ġaw ak
Ġìķ ŀ
Ġc ube
believ able
if all
d is
Ġabandon ed
m ind
Ġpar l
Ġclass ical
è ĭ
á»Ļ t
ĠAut o
ĠB or
ç ©
4 00
ĠSoci ety
Ġsubt le
Ġmiss ions
Ġremember ed
ĠE ither
Ġda fÃ¼r
OR D
Ġint ensity
ES IN
ĠC up
Ġrare ly
Ġto ys
ĠChar lie
á» Ł
Ġgla ube
Ġround s
T IN
Ġcap ability
Ġderiv ative
Ġrefer ring
Ġd Ã¥
ĠT ALI
Ġcott on
Ġcon fer
Ġcolum ns
Ġliber al
Ġnun ca
ĠÎ¼ Îµ
Ġind o
ib en
ĠBe ispiel
Ġê·¸ë łĩ
ĠÑĥ Ñĩ
Ġh oy
Ġfr y
ĠScott ish
è Ĭ
Ġc iv
Ġconserv ative
Ġair pl
Ġs ar
r us
Ġinvest ments
Ġinfin ite
Ġà® ķ
ĠTALI ESIN
ĠG ary
ue ll
ĠÐ° Ðº
ĠC ir
Ġrit ual
Ġ>> >
Ġtem pt
ĠTe ch
ĠPoke mon
Ġimprove ments
Ġsp are
Ġtransl ate
Ġson ra
ĠFil m
w ort
ĠÐ¼ Ð¸
Ġperiod s
Ġje alous
ãģĦ ãģĦ
Ġt ir
M I
Ġconduct ed
ĠìķĪë ħķ
0 9
ĠPol it
ĠWhere as
Ġmoist ure
Ġs ins
Ġk ap
ĠÑį Ðº
Ġben im
Ġelimin ate
Ġathlet es
ĠMan ager
Ġfeature d
ap ore
äº Ľ
Ġë° ľ
Ġper f
ĠTh us
Ġdeb ut
Ð¾Ð± ÑĢ
Ġse Ã±
Ġmyster ious
w ords
Ķ ê°Ģ
Ġcheck s
Ġvolunte er
Ġwas hing
ĠMar vel
ĠA B
iss ors
! '
ĠF ull
ye on
Ġwe igh
ĠJO HN
Ġv os
Ġproced ures
Ġaddress ed
ĠBer lin
put er
ĠB an
Ġmedic ation
Ġdr one
ĠÑĥ Ð±
ĠJe an
Ġcap s
Ġdisappoint ed
Ġw ore
Ġêµ Ń
Ġorgan ize
ĠHall oween
Ġfant asy
y ard
Ġnos otros
Ġjump ed
Ġphot ography
ĠN ame
re c
A B
Ġbless ing
ĠSh ut
Ġbit ter
p op
ãģĿ ãĤĮ
Ġde i
Ġfulf ill
çĲ Ĩ
Ġden gan
Ġbe lo
ĠMean while
Ġdep ois
Ġdi abetes
Ġbu nd
ĠZe aland
Ġdig est
Ġt ires
Ġdo d
ag ne
áº¿ t
Ġpe el
ĠÐ· Ð°Ð±
Ġn odes
Ġtrend s
ĠSw itch
ĠA ward
ĠOr ig
ĠH al
Ġest as
Ġ3 60
Ġsim ult
Ġcom ic
Ġm Ãł
Ġbal anced
ĠPrin cess
Ġkilomet ers
á» ©
Ġpart ir
ì¤ ĳ
so ft
ĠV iew
Ġbi ological
in st
4 4
Ġman era
Ġcompreh ensive
ĠS ab
Ġcr imes
y ers
ĠComp any
ĠPh ot
Ġpou co
i ac
Ġbe im
in ate
Ġsub sequ
ĠMay or
Ġcent uries
Ã¨ res
ìŀĸ ìķĦìļĶ
Ġê·¸ëŁ ¼
ĠFra u
ĠO H
Ġëģ Ŀ
ĠN ah
ĠSer ies
Ġover night
íĴ Ī
ĠâĢ ¢
Ġtra ve
atter ed
Ġwar ri
ĠGru nd
ĠInd ones
Ġsc ra
ob y
ĠBro ok
Ġcur s
Ġë ¸
Ġexpl ains
ram atic
Ġparticip ating
Ġmin ut
Ġcontract s
Ġg egen
Ġdisappe ared
ĠS N
Ġrob ust
ap h
Ġsh rim
Ġdev ast
c ope
Ġme ets
Ġpeace ful
m ate
Ġwe ld
Ġ× ª
d on
Ñĥ ÑĤÑĮ
Ġregister ed
ĠN ik
j in
Ġc av
Ġe cht
io x
Ġflow ing
Ð½Ð¾ ÑģÑĤÐ¸
Ġto e
Ġent ity
Ð¾Ð² Ð°
f its
ĠPat rick
ÑĤ ÑĢ
Ġle verage
Ġcor rel
i ah
Ġstr ings
ist inct
Ġg ue
arch y
Ġteng o
Ä±m Ä±z
Ġor bit
ä¸ º
ĠÐµ ÑīÑĳ
ca ke
Ġ×ľ ×Ķ
ĠMin nesota
Ġbra ke
ow ie
Ġcra w
ê¸°ë ¥¼
Ġprogram me
ĠÑģÐ» ÑĥÑĩ
åı ª
ien ces
ĠO ui
ĠP ers
im iento
ĠIn vest
Ġsl ower
æĻĤ åĢĻ
ĠB eth
Ġnur se
ĠSpr ing
S p
Ġun employ
Ð´ Ð¸
Ġgen ius
ĠA aron
Ġê·¸ëŁ ¬
Ġe i
ãģĹ ãĤĩ
Ġtank s
Ġau jourd
Ġcomplex ity
ĠÑĢ ÐµÑĪ
Ġold est
Ġlet z
åħ ¥
Ġphenomen on
pr int
ĠBund es
it at
ê» ĺ
Ġ4 2
ĠW i
Ġinc om
Ġg ek
Ġembr ace
Ġt ies
out e
Ġd ose
ĠF riends
Ñĭ ÑĤ
ÐµÐ³Ð¾Ð´ Ð½Ñı
Ġor g
Ħë ¡ľ
Ã³ g
Ġex ceed
Ġgod s
Ġê±° ìĺĪìļĶ
Ġsoci et
ĠUn ivers
it Ã¤t
Ġword en
Ġsm oking
Ġint ens
ab ul
em ia
è ĳ
4 7
f ly
Ġ200 6
ĠSer iously
Ġprze z
æ ¼
c re
Ġn an
Ġmod es
Ð¾Ð² Ð°ÑĤÑĮ
ĠH ang
em en
Ġbenefic ial
Ġvot ers
ĠBro ad
Ġb ent
W ow
Ġm ul
åĵ ¥
ĠU C
Ġdam aged
ĠUk raine
Ġw ipe
Ġst ones
Ġman agers
Ġr ab
ÑģÑĤÑĢ Ð¾
l at
Ġde ce
Ġgraph ic
Ġf oss
Ġdisag ree
ĠAm en
Ġsec rets
ho le
ink le
Ġfortun ate
Ġì ±
ìľ Ħ
èĲ ¬
Ġhab its
Ġbur ied
Ġh in
Ġvirt ually
ol as
ĠR P
ĠT ab
l ow
Ġsacr ific
Ġestim ated
ol n
Ù ĭ
c ur
ĠFe el
Ġcast le
Ġus eless
Ġdis g
ĠJac ob
Ġga an
Ġup side
Ġpare ce
ãĥ³ ãĥ
Ġsh ipping
ĠC R
Ġdis rupt
ac ter
UN D
f u
å® Į
ĠP ick
ĠChar l
ĠB ull
Ġenter prise
Ġpunish ment
ack ing
Ġfr action
Ġtab let
Ġch ord
Ġsimilar ly
åħ¶ å¯¦
ĠTor onto
Ġcour ts
ÄŁ l
esz cze
Ġpron oun
ĠS ister
ĠM P
Ġgreat ly
ĠD ank
ic op
Ġgar bage
Ġresol ve
ĠS af
ĠG un
Ġcomp ound
Ġë° °
ĠMus ik
âĻ «
Ġcha os
ĠWhen ever
Ġe uros
Ġor chest
Ġrefr iger
al an
à¸ ·
ĠAm azing
Ġp ud
ag an
Ġj eszcze
is y
Ġaccur acy
ĠA ma
is ode
ë ĮĢ
Ġinterpret ation
ĠL iber
æ ·
c am
Ġevol ved
ĠK ay
ÑĨ Ñĭ
Ġcreat or
it as
Ġal arm
Ġcelebr ation
z ent
Ġfun cion
Ġo v
umb ling
Ġ %
à¸ Ī
Ġrestrict ions
ĠÐ½ Ð°Ð²
ĠK inder
Ġban ana
ÑĮ Ñı
Ġdiam eter
Ġnor thern
ur ers
ĠP as
æĪĳ çļĦ
Ġwork force
Ġj ung
Ġguar ante
Ġequ ilib
Ġsu ite
Ġeu ro
Ġdel iber
S te
Ġdownt own
Ġch in
Ġc odes
ed ia
Ġshe ep
res hold
wn ie
Ã³ b
Ġunder lying
l ia
j er
ÏĢ ÏĮ
ç Ŀ
th rop
Ġz ap
Ġvac uum
ĠH ab
Ġwra pped
ì ¢
Ġinvent ory
Ð¼ Ð°
Ġco ord
Ġpl ates
Ġsy mm
T e
ĠwÅĤa ÅĽnie
Ġreach es
Ġlon ely
S cript
le e
ess er
Ġê± ¸
ĠGes ch
ĠMo ving
ĠrÃ© p
ĠV ill
åĲ Ī
ĠR achel
Ġtem os
ON E
Ġstra in
Ġang el
Ġf Ã¥
T r
Ġach o
Ġhighlight s
ĠW er
ĠCar l
Ġbl ur
Ġreg ards
Â ·
Ð¸Ð» ÑģÑı
Ġrec re
ĠY ani
U CK
ł ¸
Ġelectr ons
ĠSp iel
Ġv ed
Ú ¾
Ġbe am
Ġid iot
ë ĵ¤
Ð½Ð° Ñĩ
id d
Ġsk i
it ative
Ġhyp othes
ãģ§ãģĻ ãģŃ
ent er
ĠìķĦëĭĪ ë
Ġih re
Ġpre view
ang el
Ġdem on
Ġd us
Ġd ic
ĠK om
LE Y
... !
Ġsie ht
ĠSon ic
Ġten ho
an as
Ġdig it
ĠMa ar
Ġunder grad
oun cer
uff y
Ġconvers ion
Ġdis connect
Ġe cho
om er
Ġcurric ulum
Ġper chÃ©
Ġw and
.. ?
Ġroll ed
Ġentreprene ur
Ġtheore t
ĠÑī Ð¾
Ġins ights
Ġzus ammen
o in
ret t
p rodu
Ġvisit ors
e ous
Ġgrand mother
Ġhum or
ĠÐ½ Ð¸Ñħ
zen ia
ins on
Ġres et
Ġbase ball
Ġmatch ing
ëĭ¤ ê°Ģ
Ġpun to
ì ¡
Ġre de
Ġaddress ing
Ġfore cast
ĠB ol
Ġcol ored
Ġdocument ation
Ġexpect ation
ĠNor thern
Ġcre o
Ġà® ļ
f on
Ġuns ere
U M
Ġcop ies
Ġexpand ed
Ġveter ans
ĠAl m
ĠÐ²Ð¾ Ð¾Ð±ÑīÐµ
Ġpsych ological
Ġnos so
Ġpay ments
im eters
Ġ-- >
ĠJenn ifer
Ġvolunte ers
os se
or ious
ĠÐ±Ñĭ Ð»Ð¸
è Ĥ
ĠEs s
w s
ĠB C
ĠI C
W oman
Ġv ont
Ġeth nic
EN N
Ð¸Ð¼ Ð¾
Ġlo b
Ġou i
c s
Ġre he
Ġìł ģ
Ġch ick
Ãºs ica
Ġk ont
ĠDist rict
Ġp ile
ĠÐ° Ð²
ÐµÐ¹ ÑģÑĤÐ²
ĠÂ £
Ġiss ued
ĠÐºÐ¾Ð¼ Ð¿
Ġpros per
Ġprof ound
ĠDe ar
Ġãģ ĵ
Ġfund ed
Ġb isa
ŀ ĺë
× Ł
ĠìĿ ĺ
Ġtw elve
ĠChamp ions
éĿŀ å¸¸
Ñģ Ð»
Ġ200 5
p m
Ġon de
Ġdiff Ã©
ĠCh all
Ġdifficult ies
Ġgar age
Ġd Ã¡
Ã¼n k
Ġë¬ ¼
Ġtr an
Ġsubm itted
z w
ÙĪ Ø§
Ġar k
ĠìĦ ±
Ġgrocer y
Ð¾Ð½ Ð°
i ere
Ġa est
Ġexhib ition
Ġr Ã©s
Ġconsist ency
Ġcook ie
Ð½ ÐµÐ¹
Ġrepl acement
æ² ¹
ĠS em
ĠìĤ¬ ìļ©
8 00
Ġgen es
Ġtrans action
ĠE L
Ġdur ante
ib les
ĠE at
t ail
iss ance
Ġto ss
Ġsurv ived
Ġoff ices
Ġsupport ive
Wh ere
Ġtout es
Ġë§ ī
Ġj okes
ier on
ap ers
Ġm ature
ĠM arsh
Ġs ido
k ind
Ġreal mente
ĠChe f
Ġquel que
Ġjud ges
e ft
ER S
Ġj et
Ġpers ons
è »
iz ations
ri k
Ġsh ops
ĠW y
Ġele g
qu Ã¨
qu oi
Ġjug a
Ġíķľë ²Ī
ĠQuest ion
ĠGlo bal
Ġìķ½ ê°Ħ
ĠSt ation
æİ ¥
ĠOh io
Ġstick y
Ġst ressed
Ġg Ã¼n
Ġí Ŀ
ÑģÑĤ ÑĥÐ¿
é ¡Į
ĠPh D
im mer
Ġment or
Ġinv ented
Ġre un
Ġine vit
Ġpol ÃŃt
Ġexec ute
ĠSt ory
Ġout standing
Ġgu er
ĠR ain
Ġch oses
ĠT it
ĠÑģ ÐµÑĢ
ĠSing apore
ĠN one
Ġch ronic
°ë į°
Ġe go
æł ·
ES T
ãģĤ ãĤĬ
ĠW ang
ĠN AT
Ġa ug
Ġdes ktop
Ġetern al
ĠìĤ¬ ìĭ¤
ĠConst itution
ìĤ ¬ë
×Ļ× ľ
p res
ĠÐ¢ Ñĭ
Ġinter f
Ġlist s
Ġfight s
ft en
ĠI owa
Ġmotiv ated
ĠH osp
Ġelse where
Ġpath s
Ġinst ances
B l
r ange
á» ±
ĠS it
man a
Ġìĭľ ìŀĳ
Ġm Ã¬nh
ans as
Ġs na
Ġphilos oph
Ġpas se
Æ°á» Ŀi
ak h
ent al
Ġih n
ru ctor
ĠÐ² Ð°ÑĪ
Ġgener ous
Ġp ivot
Ð¿ Ð¾Ð»
Ġjam ais
Ġcom ent
ĠL ew
od zi
ĠX box
ĠÐ² Ð¾Ð´
Ġcons ent
ī ìŀ¥
Ġdis par
l ass
ĠGovern or
Be ifall
Ġê° ľ
Ġbelo ved
×ł ×ķ
se ll
Ġhon ored
le h
Ġw Ã¤re
un ting
Ġfra ud
ĠR AM
ê± ¸
Ġkill s
Ġeconom ics
0 4
Ð¿ ÐµÑĢ
Ġco isas
ĠÐ¸ Ð³ÑĢ
ÃŃ m
ĠmÃ¶ chte
Ġìµ ľ
Ġstim ul
Ġfast est
l v
Ġg Ã©n
ĠS ounds
Ġ19 70
Ġhome work
spe aking
Ġencour aging
Ġqu ery
Ġre vers
pro fit
Ġd y
Ġìŀ ĳ
ëĬĶëį° ìļĶ
Ġso ap
ĠG all
ĠC N
ĠAn s
Ġf ic
ank s
Ġdess ert
ĠìłĢ íĿ¬
ĠM aking
Ġcome Ã§
ê³ Ħ
Ġassoci ation
D ad
he e
Ġh ogy
Ġap ro
Ġinvis ible
Americ an
í İ
Ġvi be
Ġem issions
Ġadvoc ate
Ġkick ed
Ġ vel
Ġsum mar
Ġfre aking
ch ron
Ġpin ch
Ġwszyst k
isc al
Ġpro ved
Ġmind ful
Ġt Ã¤
Ġno ises
Ġisol ated
Ġcross ed
Ġê° ķ
Ġvo ilÃł
Ġch ore
ĠR A
C om
Ġrelax ed
at ro
Ġpre vention
Voice over
O D
ĠCo vid
Ġsepar ation
Ġ- [
Ð¸Ñĩ ÐµÐ³Ð¾
çĻ ¼
ĠS D
ble ep
Ġindepend ence
Ġpart ial
Ġalgorith ms
ĠAny one
Ġassoci ate
h um
ic ular
Ġb áº¡n
Ġbatt les
G ood
App lause
Ġbast ante
Ġadv ant
ĠS weet
Ġref used
ãĤ ¸
ĠÑĤÐµÐ± Ðµ
pl et
Ġencour aged
åĵ ¦
Ġmir acle
ĠB un
ĠV ar
rim ination
e lect
ĠM ult
Ġdeliver ing
e ing
Ġc m
ne hmen
ĠL ine
Ġë§ Į
en ced
ĠS ound
ĠCont in
ij d
UN G
k le
Ġth reshold
Ġcomp act
ad t
Ġto es
ĠP ur
own ed
ment ed
Ġdes igning
Ġvacc inated
Ġexha ust
Ġbas ics
Ġcons ists
ĠGu y
ac zy
Ġm ÃŃ
w on
å® ³
Ġ8 5
æ Ĥ
Ġm um
Ġign or
Ġprint ing
ac ular
p ow
Ġexpand ing
Ġg ir
ĠC ab
íĺ ¸
ÑĤÑĮ ÑģÑı
ĠìĹ¬ëŁ¬ë ¶Ħ
Ġang les
Ġterm inal
ĠW on
ĠInter esting
Ġcross ing
Ġbond s
Ġpu eden
Ġor b
lar Ä±n
Ġcreep y
Ġnutr ition
Ġall ies
Ġwire less
Ġdes ired
Ġcomp ute
ĠAri zona
ĠBeaut iful
Ġprodu ces
Ġnuest ro
t ed
Ġel igible
ĠÑģ Ð¾Ð·
ic ial
ĠH ero
Ġcons ume
Ġrob ots
Ġpurch ased
c ciÃ³n
Ġ iz
Æ°á»£ c
Î¯Î½ Î±Î¹
ĠØ£ ÙĨ
Ġshad ows
ĠMed ia
Ġprin cess
Ġk lar
Ġwood en
Ġus ar
Ġg Ã¼zel
Ġsl ot
r ade
Ġë Ĵ
Ġhar mon
Ġingred ient
ors hip
ek i
Ġgrand father
Ġexcit ement
Ġpolit icians
.. !
Ġout s
Ġsepar ately
ĠÑı Ðº
ĠW elt
ĠP ow
j an
Ġorient ation
åı ĭ
L C
age m
ÛĮ Úº
åĲ Ĺ
Ġbran ches
ad en
rent e
ĠI hr
as m
Ġest Ã£o
ĠN ic
Ġsla ve
Ġcomp ress
c rowd
Ġclim bing
ĠMan agement
ĠB ah
Ġpan ic
Ġk or
Ġcool ing
Ġb ind
ĠÐ· Ð°Ð´
Ġr ack
Ġent it
Ġs ends
Ġyour selves
d es
ĠMuslim s
Ġí ļ
ism a
cy cle
un kt
ĠC ore
Ġinj uries
Ġident ical
ÐºÐ° Ñı
ĠDeutsch land
ĠÐµ Ðµ
is an
Ġtr uc
let on
Ġback up
Ġult ra
Ġab und
ille urs
Ġby ÅĤo
åħ ĥ
ort ed
Ġearth qu
ĠÐº Ð»
Ġobs ervation
Ġmainten ant
el en
Ġsett led
Ġp ela
ĠE conom
Ġ Õ
Ġste ering
ĠAL L
ĠC her
Ġpat ience
ĠS now
Ġb or
Ġworth y
ĠcÃ¡ i
Ġ× §
ĠÎº Î±
d og
ĠK aren
ill es
Î ²
Ġagric ulture
×ķ× Ł
ĠSe an
Ġsens ors
íķ ´ë
ag h
Ġpublic ly
Ġpe ux
ĠAlex ander
Ġprior it
Ġla zy
ard on
atter ing
Ġcost ume
Ø³ Øª
è¿ ĺ
Ġun w
Ð Ľ
Ġthick ness
qu ito
g unt
ist as
ne ys
ĠëĲĺ ê²Į
ĠBr asil
Ġto ken
Ġaff ili
l on
Ġf Ã¥r
ĠBe ach
Ġw itch
ĠSe ven
Ġp ant
Î» Î»
Ġcapt ain
å Ŀ
Ġve ut
Ġpou voir
ac z
ĠBar b
Ġut ility
Ġcontempor ary
Ġobt ained
Ġpainting s
e ar
Ġpe an
ĠO g
Ġc ust
Ð» ÐµÐ¼
Ĥ ĺë
ĠIs so
Ġac onte
ĠTe le
ĠAss istant
Ã ī
íĸĪ ìĬµëĭĪëĭ¤
Ġcount s
Ġbu ck
ĠDe ep
Ġtack le
Ġh arsh
Ġdec ides
éĹ ľ
. âĢĭ
éĤ Ĭ
ĠAng el
Ġlay ing
Ġcal ories
Ġcontro lling
Ġadvant ages
ĠÑįÑĤ Ð¾Ð¹
Ġappro aching
Ġthreat s
ak an
em atic
m ann
ê³ µ
m umbles
ac iÃ³
Ġmaint aining
Ġfound er
l ah
f ight
Ġadm itted
âĢ¦ .
ķ Į
ab ol
Ġus age
Ġn onsense
ĠPal est
Ġcont re
ĠDemocr atic
ĠE R
j ekt
Ġar bit
ĠÐ³ Ð¾Ð»
ĠMich elle
ich er
es h
ĠP ho
Ðº Ð¾Ð¼
4 9
ĠEner gy
Î¿ Ïį
Ġc ents
Ġref ers
Ġg ospel
ĠSh a
ĠSh are
×Ļ× ł
Ġclin ic
ĠëĦ £
Ġequ ality
ug s
Ġsh ed
Ġplan es
Ġtout e
re ck
Ġstra nd
Ġbi ology
Ġle ague
ĠP ok
ĠnÃºmer o
ĠCo ast
Ġconsist ently
Ġnuc le
OO OO
Ġob jet
Ġch or
Ġg inger
Ġd abei
Ġcoop eration
à¯į .
nt en
ç ¤
l Ãł
ìĸ ĳ
r ado
Ġpass ive
Ġglo ves
Ġunder ground
Ġlog ical
Ġk et
Ġfunction ality
¸ë ¦¬
Ġport al
ell er
×Ļ× ¨
ĠT ed
ĠG re
Ĳ ľ
Ġperson nel
Ġemer ging
ĠF Ã¼r
Ġmeant ime
usal em
ĠC lear
Ġtra pped
Ġìļ °
Ġdis pl
Ġmet tre
Ġmun icip
Ġwithd raw
Ġsp at
un es
Ġaccess ibility
æĪĳ ä»¬
Ġap are
Ġpros pect
ĠÐ½ Ð°Ð·
Ġcop per
ĠP RO
Ïħ ÏĦ
Ġattack ing
ĠV in
ĠSt one
Ġinvestig ate
st yle
ĠÎ »
ë ¡Ŀ
ë§ Ī
Ġins pect
Ġli ver
Ð°Ð» Ð¸ÑģÑĮ
Ġser a
hal ten
em an
Ġmin istry
' '
Ġd ots
ãħĭãħĭ ãħĭãħĭ
Ñĥ ÑģÑĤ
ĠJ ak
AK E
Ġg aps
uck er
ĠÐ¸Ð½ÑĤÐµÑĢ ÐµÑģ
ĠEm ily
Ġinter val
Ġt ender
ĠTechn ology
g ame
Ġtri b
ÙĦ Ø§
ĠDevelop ment
Ùħ Ø§
Ġwr ist
Ġf ires
Ġtarget ed
ìł Ĳ
Ġso d
íļ Į
Ġoldu ÄŁ
Ġse asons
vent ions
ĠÐ½ ÐµÐ³Ð¾
Ġsomet ime
Ð»Ð¸ Ð²
n Ã©
Ġt Ãº
ĠDe us
Ġexec ution
Ã¡ p
ĠCh ange
ĠInd eed
Ġreg ulation
ĠH ung
Ã© is
Ġwish es
Ġj azz
Ġstruct ural
Ġblow ing
Ġby Äĩ
Ġtherm al
ph ant
ÑĢÑĥ Ð·
Ð°Ð½ ÑĤ
ĠP ull
Ġconf usion
Ð½Ñĭ Ð¼Ð¸
Ġscen arios
ìłģ ìľ¼ë¡ľ
ĠÐ´ ÐµÑĤ
Ġtatto o
Ġaut re
Ġhe ating
Ġtreat ing
ĠÐ¿Ð¾Ð½ Ð¸Ð¼
Ġexc lus
ĠL OL
we ar
ag le
Ġzur Ã¼ck
Ġr ational
s u
Ġdet er
ĠN ative
à®ķ à®³
ach ed
Ġ ãĥ
ĠEnt onces
Ġhor a
ìĿ´ìĹĲ ìļĶ
Ġl ite
Ã «
Ġsix th
ĠÐ±Ð¾Ð» ÐµÐµ
act or
Ġpsych ology
çĽ ¸
Ġdem ands
Ġpe er
Ġnew ly
ĠWW E
Don ald
ĠBo x
Ġp ine
Ġload ing
ĠN ico
Ġs ÅĤ
omm e
AR T
Ġrecru it
Ġbug s
arent s
ĠÐ¿ÑĢ Ð¾Ð±
ĠIn side
ipp er
d ramatic
Ġplan ets
ord e
Ġy oga
ch ild
ĠMar ie
Ġãģ Ĥ
ĠB L
Ġfil med
Ġref resh
Ġtomato es
Ġf et
Qu Ã©
Ġ !!
ĠëĤ ´ë
r ine
Ġinteract ive
s al
ann ah
pe z
ç¶ ĵ
Ġunderstand s
ĠTok yo
Ġlibr aries
Ġread er
ĳ Ĳ
o z
ĠEnd e
ĠF lo
Ġm ild
Ġpo etry
ĠÐ¶ Ð¸Ð²
æĦ Ľ
Ġbeh ave
Ġdo en
ĠSus an
p age
ra ham
Ġcommunic ations
Ġtun ing
Ġp ac
Ġanx ious
I O
M ark
Ġhi Ã§
book s
Ġp iss
Ġen abled
achel or
ĠF OR
ĠÃ© c
ĠT R
il st
h at
ĠìĿ Į
Ġty ch
Ġj ar
Ġbuild s
ĠAr gent
Ġinter medi
Ġl ou
Ġa ra
Ġassign ment
Ġcabin et
Ġretire ment
ãģ »
Ġdis abled
ric a
Ġa wards
Ġbo ots
Ġacknow led
Ġth y
Ġêµ ¬
Ġsy nd
Ð½Ð¸ Ð¹
il ton
Ġprob l
ĠF al
Ġverd ade
Ġ7 00
ĠLe arning
oc us
Ġpal ace
N ot
t ain
c m
Ġmagn et
inc oln
Ġfig uring
ĠL yn
ĠB oss
ĠV O
Ġdiagn osis
Ġequ ipped
w atch
in os
ad ers
Ġsh elf
Ġorgan is
Ġn od
Ġk Ä±z
pp ers
Ġrest ore
Ġart ic
ĠVo ice
Ä± yorum
ê² ©
Ġspread ing
Ġh ips
Ġw ard
ure au
Ġinter section
6 6
Ġ3 9
ç ³
Ġwait ed
ì ´
hh hh
Ġd ys
ĠE N
Ġb atch
Ġca f
Ġmark er
å¤§å®¶ å¥½
or able
Ã³ ria
Ġste pped
Ġcelebr ating
Ð°Ð½ Ð°
Ġwor n
ĠF ol
Ġpl a
Ġattempt s
Ġtwe et
Ġr ust
g ence
í Ĩµ
Ġre vel
Ġre cept
en ess
Ġ( (
ãĥ¼ ãĥ
! âĢĭ
ĠìĨ Ĳ
Ġinfluen ced
Ð¸ Ð¶
ĠÐºÐ¾Ð½ ÐµÑĩÐ½Ð¾
Ġcolleg es
ion i
Ġs ag
An n
ol ar
Ġexpress ions
Ġsu its
Ġowners hip
el and
pie ce
æĢİ ä¹Ī
Ġdesp uÃ©s
Ġt el
Ġins ult
Ġêµ īìŀ¥
ĠSm all
ĠF R
ok a
ber ries
ĠAnt on
ÐµÐ» Ñı
Ñı Ñģ
Ġval ve
act s
Ġwood s
à® £
Ġcult iv
Ġf Ã¡
ãģ¨ ãģĦãģĨ
Ġche ers
Ġassum ption
Ġfit ness
ÃŃ cul
Ġpod r
Ġwe it
ĠH ind
Ġd ign
ĠÐ· Ð½
Ġsqu ad
Ġdest ro
c ere
sh irt
imm t
eng ers
Ġs Ã¤
k ÅĤad
Ġ ÈĻ
Ġocc as
Ġì¤ Ħ
Ġprocess or
ĠD M
ĠDad dy
Ġsoon er
Ġstraight forward
Ġdepart ments
ĠChr ome
Ġwork place
ĠPy thon
Ġm eng
ĠD AN
ĠI ce
ĠëĪ Ī
ĠG i
Ġh iring
Ġland ed
Ġdemocr atic
ied z
ãģĺ ãĤĥ
Ġse v
ic ia
Ġespe cial
ĠN ous
Ġh Ã¤t
Ġb ou
per t
ies z
åĳ Ģ
Ġv il
ÅĽ li
ĠÃ® n
Ġloss es
éķ ·
Ġto ast
Ġreal m
ĠAust in
ĠIn formation
Ġres ume
Ġch ase
Ġsal ary
Ġë¶ Ħ
Ð»Ð¸ Ñĩ
ĠÑģÐ» ÐµÐ´
ĠFur ther
Ġcar ing
Ġv ig
Ġval or
è¿Ļ ä¸ª
ĠÑĩ Ð°
Ġanalyt ics
Ġglo be
ĠM AN
Ġn el
ìĿ´ì ķ¼
Ł ¼
Ġo y
íķĺ ìĦ¸ìļĶ
j en
Ġtrou bles
ah aha
Ġchurch es
u et
Ġmeasure ments
b il
ì ½
if ully
Ð¸Ð½ Ñĥ
ĠWil son
¦ ´
ĠíĮ Į
Ġì° ¨
Ġp Ãºblic
ĠJer usalem
Ġn ails
Ġsp ine
Ġhe mos
Ġz n
qu is
ĠLe ben
Ġrefer ences
IT H
i per
ĠÑģÐµÐ± Ñı
ì ģ
ĠW a
st ate
§ Ŀ
åħ ±
ĠGen er
Ġact ress
ĠEn joy
à¹ ĥ
Ġ× Ĵ
Ġinfect ed
Ġsh aking
Ġn ick
à¸ ¸
Ġf ot
Ġaccompl ished
u ke
Ġshe ets
Ġf ence
Ġnurs ing
Ġintrodu cing
Ġfe at
O ne
T O
Ġcl ubs
ĠBru ce
on ge
ch ange
ĠBat man
åı °
ĠOffic er
Ġhyd ro
Ġsupp lement
Ġc ela
Ġlong est
Ġcompet ing
Ġcon he
g iving
Ġbra ins
Ġlo ans
Ġw age
ĠCl inton
Ġs Äĥ
ane ous
Ġl ord
ÑĢÑĥ Ð¶
Ġqu iz
Ġst iff
ĠL GB
s z
M E
m are
th ere
Ġn Ã¤r
ĠM and
l ast
Ġd ag
Ġhalf way
ĠB and
Ġëĭ¤ ìĭľ
ĠA ren
Ġi le
P N
ent o
Ġalg um
Ġsoc cer
Ġblock ed
ĠJon athan
Ġse w
ĠTest ament
Ġv ale
Ġbehav i
å§ ĭ
Ġcon na
IC H
Ġaud iences
m l
amm ad
ĠìĤ ´ì
I GH
Ġr aces
em ed
Ġm á»Ļt
Ã ¯
Ġover s
Ġdecl ared
Ġs ana
ĠU na
ĠÑĢ Ðµ
uck s
Ġp airs
Ġan ge
N e
Ġup s
av y
Ã¸ r
ree k
Ġbehav iors
Ġreflect ed
Ġprior ities
Ġcon du
Ġret reat
Ġexp enses
Ġë´ Ĳ
Ġtri ple
Ġêµīìŀ¥ íŀĪ
Ã¤ lt
Ġind igenous
Ġmin ing
Ġaccept able
Ġru in
C A
u ine
Ġpip eline
ct ic
Ãª t
ĠÐ²Ñģ ÐµÐ³Ð¾
Ġb oun
ĠDig ital
ĠBo om
ÑĨ Ðµ
ĠÐ» ÑĥÑĩ
Ġas c
ĮĢë ¡ľ
ĠGood bye
Ġrend er
ene z
ar re
ĠTH AT
b our
ic iÃ³n
ãĤ Ń
E very
Ġw ires
ĠPar liament
n ung
ate ur
ĠS ave
ĠPh ys
Ġam or
ĠE ve
Ġfr ight
Ġgam ma
Ġmic ros
m itt
ĠC ode
ĠBe y
pl ed
ĠÐ¸ÑģÐ¿ Ð¾Ð»ÑĮÐ·
ç Ĺ
ìĥ ī
å¥ ¹
Ġmon et
ĠJah re
Ġlux ury
Ġde af
Ġbet ray
Ġê² °
Ð¸ ÐºÐ¸
Ġdefe ated
Ġunder t
Ġwe g
Ġcool er
ãģķ ãĤĵ
iam i
éĤĦ æľī
ĠJess ica
ĠJ oy
Ġsoph istic
ÐµÐ½Ð¸ Ð¸
ðĿ ĺ
Ġch ili
ĠTy pe
Ġprote ins
Ġpresent ing
al ia
ìļ ¸
ĠMaj or
Ġmolec ule
um er
Ġcoll apse
ĠAny ways
ĠMount ain
ant ed
ãĢ Ĳ
ĠÐ²Ð¸Ð´Ðµ Ð¾
æ° ´
A ud
Ġcon qu
Ġvo ll
Ġkn it
Ġmem br
ĠMark et
Ġd ari
Ġcalcul ated
Ð³ Ð¸
Ġshrim p
ĠM u
ĠÐ¿ÑĢ Ð¾ÑĤ
Ġìĺģ ìĥģ
Ġproduct ivity
Ġcogn itive
ĠHe b
ict ions
ê² ½
Ġcr Ã©
f Ã¶r
Ġpray ing
ash i
ĠT ik
Ã³ r
w en
ÑĮ Ñİ
ix o
Ġ( "
ĠÑĤ ÐµÐ»
Ġìĸ´ëĸ ¤
ĠÐ¿ÐµÑĢ ÐµÐ´
ĠD rive
ãĢ ĳ
ĠE qu
Ġequilib rium
Ġdescri bes
Ð½Ðµ Ðµ
4 2
ĠCur rent
y y
Ġabsor b
Ġsold ier
d ers
Ġtestim ony
Ġdec line
ľë ¡ľ
g age
Ġinsp ire
la pping
Ġspin ning
Ġsla very
Ġfac ial
Ġtrad itions
Ã¡ri os
ĠHosp ital
Ġn est
ĠëĪ Ħ
Ġto i
Ġfe ars
ìħ ¨
ĠM uh
Ġgradu ation
Ġimpact ed
Ġa unt
ĠLet s
Ġalumin um
Ġdomin ant
ĠDav is
ĠNav y
Ġcom pt
op les
Ġest ava
è ¥
Ġsc al
Ġpres erve
ĠO pp
Ġpract ically
Ġmagn itude
Ġf itting
Ġcoordin ate
Ġfurn iture
ĠFam il
Ġexplos ion
Ġdocument ary
ĠS cript
Ġport ray
m at
Ġschedul ed
Ġdynam ics
ph y
ak y
ĠU I
C he
Ġcontinu ously
ĠPro v
å° ĳ
Ñĥ Ð·
ra h
Ġger ne
pro of
Ġsecret ary
ĠPat reon
sc ream
ĠK ids
á»ĵ i
Ġk g
Ġuncertain ty
ĠÐº Ð°Ð¶Ð´
Ġmit ig
Ġread s
å· ²
ĠR u
Ġpri est
ĠÐ½ ÐµÐ´
Ġlimit ations
Ġflo at
6 00
ĠT oy
ĠJim my
Ġoff ensive
en i
ĠX i
Ġeye br
ĠTur k
Ġaccident ally
Ġoh ne
ĠS aud
9 5
ĠD utch
Ð°Ð½ Ñģ
ĠSe attle
Ġëĵ ±
che ck
k ÄĻ
Ġcontrib utions
Ġbes ide
Ġqu indi
Ġfle w
æĹ ¶
Ø° Ø§
ĠL O
Ġwa ist
ĠE V
Ġhol idays
j on
Ġmis under
Ñı Ð½
Ġb out
Ġd imin
áº ½
Ã³ l
ĠGr ace
Ġinput s
Ġden y
Ġform ing
ĠB ild
Ġad equ
Ġfol k
Ġreject ed
se mb
Ġfrust rated
op en
ĠBet ter
il on
Ġtow el
Ġdifferent ial
Ġsac red
Ġsa il
éĩ Į
ent imes
Ġgentle man
Ġicon ic
Ġcomp aring
Ġs agt
Ġtext s
Ġgrand ma
Ġroll s
Ġcont ents
ä¸į å¥½
Ð¾Ñģ Ñģ
Ġsusp ension
ro it
¦ ¼
Ġasse z
Ġd ort
ĠM ath
ĠVict or
ĠJava Script
ä¸į å°į
Ġen han
Å Ļ
ĠB ush
Ġpromot ion
Ġk in
Ġmon sters
ĠColor ado
ĠÎ ²
íķ´ì ļĶ
æŃ £
iffer ent
Ġn aked
Ġpro d
et ics
ĠW oman
Ġtreat ments
Ġest oy
v Ã©
Ġlif ting
Ġy apt
ĠRo ber
Ġì¹ ľ
Ġsubst itute
ak u
r idge
Ġê± °ë
Ġrespond ed
Ġb Ã©
ĠEngine er
Ġtransfer red
ë ²
Ġha ber
o op
ĠW E
Ġv est
Ġfor ty
ĠD S
Ġ200 4
Ġco aching
n om
ĠB ab
Ġn ossa
ĠJ ake
Ġg y
Ġde leg
Ġìŀ ł
ĠÐºÑĢ Ð°Ñģ
Ġstand point
Ġdis ad
Ġart work
A d
ill o
ĠÄĳ Æ°á»£c
ĠPr om
ĠL ib
Ġcritic ism
Ġcontact s
ÑĢ Ð°Ð¼
Ġachieve ment
ÐĶ Ð°
Ġdiss ol
ĠVeg as
Ġstream s
ĠK ent
ĠØ¹ÙĦ Ùī
Ġrad ius
Ġsu cks
ĠA ch
Ġf i
ou st
ĠÐ»ÑİÐ´ Ð¸
Ġpal ette
ĠH az
ĠAnth ony
Ġtem a
ĠC os
Ġsa fer
Î± ÏĤ
Ġcont rad
Ġma ior
Ġinfl ation
ĠSil ver
Ġatt ending
íķľ íħĮ
art o
Ġapplaud ing
Ġcomput ing
ĠH at
æ »
k now
mak ers
Ġcon oc
Ġeduc ated
Ġmod ified
Ġinc lusion
ment al
ŀ Ĳ
is ia
ĠÏĢ Î¿Ïħ
Ġa un
ĠIre land
Ġk Ã¶
Ġcompl iance
Ġinsp iring
Ð¸ÑĤÐµÐ»ÑĮ Ð½Ð¾
Ġdisp os
ì° ¨
Ġw ip
r ical
raw d
Ġt res
Ġmob il
olut ions
B O
Ġb ounce
Ġassum ed
ĠMed ical
Ġf iscal
Ġng Æ°á»Ŀi
ition ally
Ġst olen
ĠB M
Ġmechanism s
Îµ Î¯
Ġqual ified
Ġìŀ Ĳë
ught ers
ĠH IV
ĠL ots
Ġser vers
Ġcar r
ĠT ogether
Ġattract ed
Ġk r
æĪĳ æĺ¯
th ur
in in
ĠH alf
È Ľ
ĠP ap
Ġremind ed
AL L
Ġhel met
Ġbott les
Ġprofess ors
Ġse ine
ÅĤ Äħ
ãĥ ı
Ġê±° ìķ¼
Ġ×¢ ×ľ
f un
ĠB ird
Ġfight er
ĠëĶ °ë
ĠT ool
Ġt in
ino is
ë ¶Ħ
×Ļ× Ł
ĠC AR
åĲ į
irst y
Ġout door
ĠN S
ãħ İ
ff en
Ġl ud
H ello
Ġroll er
ie le
ĠPol and
Ġap a
ex p
Ġcertific ate
ĠT own
Ð°ÑİÑĤ ÑģÑı
ild e
Ġdeterm in
P R
Ġfree ze
Ġmain stream
Ġobject ives
b lo
Ġtak ie
åĵĪ åĵĪ
Ġë°Ķë ¡ľ
el et
ĠI V
ĠF ast
Ġd ere
em p
ĠD ra
ĠìŀĪ ìĹĪ
Ġdisc rimination
ĠÎµ Î¯Î½Î±Î¹
ne cess
æ ®
Ä±ÄŁ Ä±
Ġpost ing
wi ÅĽcie
Ġl ub
Ġol ive
Ġr im
Ġmodel ing
Ġa Ã±o
ĠPak istan
Ġover l
Ġinf lam
N E
ìĹĲ ê²Į
Ġatt ended
Ġdeal t
ĠAl t
ĠL incoln
Ġaw ake
Ġfil ters
ĠWith in
czy wiÅĽcie
Ġs Ã»
ĠJohn ny
Ġintegr ity
Ġisol ation
ĠE asy
ĠÐ¿ÑĢ Ð¸Ð½
ĠAl ice
Ġsm iling
en ix
, ...
Î ¶
Ġbeg un
Ġjew el
Ġconvention al
Ġstat ist
Ġhand ed
Ġir re
Ġpro hib
Ġsatell ite
é¦ Ļ
ĠInd ust
Ġtra ged
Ġtra va
Ġih m
Ġcru el
ĠAg ora
ĠD oc
Ġz ones
Ġm all
Ġtr ay
×ķ× ł
Ġir rit
Ġk ans
ĠBe at
ud ge
ie lle
Ġtrust ed
Ġb ikes
ĠÑĥ Ð¿
ĠM ember
w ick
Ġcreat ors
Ġher itage
ind istinct
Ġres ur
enn en
C ome
Ġf iring
ĠBu eno
ĠÐ¢ Ð¾
ik an
ett es
Ġk es
Ġtri ps
Ġdivor ce
ĠK l
Ġcons ol
ke ep
ê¸° ê°Ģ
ĠRep ort
Ġhost ing
Ġdiam ond
Ġcompl ic
Ġhel icop
Ġdep uis
d s
ĠCh an
Ñı Ð»
Ġsc issors
il ation
Ġprop ortion
ER E
ĠÙĪ Ø§ÙĦ
int a
Ġmuch as
u ation
it is
æĬ Ĭ
Ñı Ñī
Ġni in
Ġemphas ize
uel a
Ġprodu cers
Ġr ze
Ã¤nd er
ET H
æ º
Ġconst itu
åĽ ½
Ġperform ances
ist le
go v
ĠL iter
Ġincorpor ate
Ġeduc ate
ĠN in
ì ª½
Ùĩ Ùħ
el eration
×ķ× ĳ
Ġya ÅŁ
or ous
ĠC as
Ġgr ants
ëĬ ¥
am el
Ġê·¸ë łĩê²Į
ĠE ste
ÑħÐ¾Ð´ Ð¸ÑĤ
ĠÐ¿Ð¾Ñģ Ð»Ðµ
Ġg ent
Ġfocus es
al ities
ĠR h
ë ³´
æ° ĳ
ĠD ance
r r
Ġam er
Ġutil ize
Ġl ÃŃ
ĠAm ong
Ġpregn ancy
Ġlo ops
Ð°Ð» Ð¾ÑģÑĮ
ĠM oh
Ġcatch ing
Ġglo b
Ġa jud
Ġ[ ?
ĠAn al
lo oking
Ġsurf aces
Ġprogress ive
Ġvir al
0 8
Î ¾
K A
Ġ Å¼y
Ġpick s
ann on
Ġbul k
ĠR oss
Ġdescri bing
ĠG el
Ġloc ally
Ġend less
Ġmass age
Ġclean ed
Ġtravel ed
ÐµÐ½ Ñĭ
Ġsent iment
ig ma
ĠN as
Ġchemical s
Ġright eous
ĠMag ic
Ġrel ates
Ġtruck s
Ġ19 60
åĪ ¥
Ġapp et
Ġsn acks
ĠSum mer
Ġy Ã¼z
Ġpr is
ĠMex ican
Ġtransp aren
Ġminor ity
Ġver te
Ġl assen
4 6
Ð» ÐµÐº
Ã© p
ĠÑĦ Ð¸Ð»ÑĮ
Ġi yi
Ġsp an
íķĺ ì§Ģ
Ġind icated
qu ar
Ġscholars hip
ĠLGB T
Ġhistor ically
Ã³ ÅĤ
Ġmin ist
Ġpen et
ĠR ap
Ġcons ervation
çĽ ´
ĠH oney
ĠBe i
id el
Ġrespons ibilities
Ġmess y
ĠEx cept
OR E
Ġiniti atives
Ġjun ior
Ġdesign ers
Ġexpl oration
Ġspons or
Ġmob ility
Ġint eg
land o
Ġb ark
Ġindic ates
à ¶
Ġemploy er
å® ī
Ġcous in
Ġbo iling
Ġch rom
ĠÃ§ al
Ġper pet
Ġcont ained
Ġpark s
Ð «
ĠEngine ering
P lease
ĠStart ing
her o
Ġlaw yers
è¥ ¿
Ġz d
Ġfranch ise
ra ge
Ġint uit
ĠG L
re ach
ĠE lle
Ġnh Æ°
ĠN ord
Ġbe an
0 7
Ġple asant
å½ ĵ
v iron
Ġgrad ient
z us
ĠE M
Ġess ay
ìĹĲ ìļĶ
áº¿ n
n u
á» «
ĠÃī s
Ġden omin
ĠGirl s
Ġperson nes
ĠØ§ÙĦØ £
b ild
ĠSt at
Ġcompl iment
ĠK ate
Ġoptim al
Ġh id
Ø¯ ÙĬ
Ġquick er
w all
E n
IN E
?? ?
ì² ´
ĠA ction
å Ł
Ġpenal ty
ĠK az
' ?
Ġc ried
Ġcan vas
ft e
Ġexc lud
¸ë ¡ľ
Ġemphas is
Ġen zy
ĠH ou
Ġoverse as
ÃŃ amos
å¸ «
Ã¶ glich
Ġhead phones
c n
ĠA ge
Ġa kan
Ġcharacter istic
íķĺë ©´
get s
Ġë¶ Ī
Ġr ival
Ġb orders
em ente
em Ã¡s
Ġy ol
Ġcom pe
end ers
Ä±nd an
ĠmÃ¶ glich
Ġbubb les
nat ural
Ġar med
Ġel abor
ĠìĿ´ë ²Ī
Ġwash ed
Î¿Ïħ Î¼Îµ
è« ĭ
Ġfl avors
Ġexist e
Ġpre st
ĠThe ma
Ð¾Ð¿ ÑĢÐ¾Ñģ
er on
U E
er i
Ġconc er
Ġa ixÃ²
åħ ©
Ġprotect ive
ĠÐ·Ð½Ð° Ñİ
ĠëĤ ł
ĠII I
Ġme er
ĠSh op
ll i
ĠOr der
ĠM Y
ĠG host
ãĤĤ ãģĨ
ad el
Ġst ole
Ġrele asing
ĠCom ment
Ġtra ins
ë ªħ
Ġw issen
ens ed
Ġdesc end
Ġf ier
Ġrad i
Ġpers u
ç ¢
ĠÐ¼ Ð½
ĠD est
Ġwor ries
it et
b as
Ġst ab
n ame
or ic
ĠCl ose
Ġalum ni
ĠS elf
ff e
it ating
ather ine
ĠRight s
Ġell os
Ġwar rant
Ġn erve
Ġveget able
ĠTe il
Ġê°Ļ ìĿ´
R Y
Ġsustain ability
Ġste ht
Ġbr id
ada ÅŁ
Ġt v
Ġdur ation
Ġpesso a
Ġmet rics
Ġad am
c as
Ð°ÑĢ Ð¸
Ġev ident
Ġdisplay ed
Ø§Ø ¦
Ġre ck
ĠBudd ha
Ġde le
ĠDie go
os ph
Ġb la
ĠM ik
ul ator
Ġ200 1
Ġpromot ing
y ch
ĠE X
Ġlast ly
Ġout line
Ġspir its
Ġve ux
Ġsubt ract
ĠÅŁ imdi
Ġp ins
Ġbur ger
Ġmol to
Ġhab ÃŃa
Ġë° ĺ
ig u
er st
Ġn en
Ġbac on
it ious
Ġcar ries
Ġprom ises
nd e
ĠLe ft
ĠL im
æ £
Ġ4 4
Ġcare ers
Ġì£ ¼ë
Ġspeed s
qu Ã©
m ad
mark et
is me
Ġ200 3
Ġre cess
ĠJ UD
Ġrac ist
ĠSch l
Ġpar ler
Ġot ros
ish es
Ġconvert ed
aa aa
Ð°Ð½Ð¸ Ð¸
ĠAr k
ĠCh ance
Ġelement ary
Îµ Î½
ink s
Inter viewer
Ġfre ely
al ah
Ġëĭ¤ë ¥¸
Ġrequest ed
Ġtor que
no ÅĽci
ou red
ĠSt aff
Ġst ain
ĠAl an
Ġv ere
ĠW inter
Ġdef ect
ied y
Ġbe ats
Ġh Ã¡
um n
o ons
it udes
Ġse it
o ly
Ġres erv
Ġext r
Ġphys ician
vis or
Ġhand ful
ĠN ations
Ġì¢ĭ ìĿĢ
uc cess
Ġup stairs
ĠSqu are
Ġhe in
ĠSe ason
ol is
Ġpr ince
Ġdef ensive
ç ½
ĠÐ¼ ÐµÑģÑĤ
Ñĸ Ð¹
ĠØ§ ÙĨ
um ble
ê¹Į ìļĶ
Ġass ass
Ġcirc ular
Ġqual ities
Ġh mm
Ġbl own
ĠL iz
ĠK ur
ĠS A
Ġfind ings
Ġcol ours
Ġde lle
ĠI R
ĠA th
ĠD ub
ĠO x
ĠØ ®
Ġpo ckets
Ġgr ill
Ġswitch ing
Ġprefer red
ĠW ales
Ġex emplo
Ġchop ped
Ġvacc ination
Ġne uro
Ġspec ify
iv os
Ġser Ã¡
Ġz ie
Ġà® ®
Ġresult ing
ĠU gh
Ġmess ed
C D
Ġpa ar
Ġcom er
Ġcou ch
ĠFest ival
Ġ4 9
v ous
z ens
ç¨ ®
ĠKenn edy
ĠT s
Ġë³´ì Ĺ
Ġdemonst ration
Ġun to
Ġfrust rating
Ġlabor atory
Ġe gy
Ġbeaut ifully
Ġìŀ ¬ë
Ġal gu
ĠÃ¶ yle
ä½ł çľĭ
ĠP H
Ġfort une
Ġclean er
ĠRob in
Ġsa us
ĠG eld
Ġk at
o bs
Ġol ur
Ġm att
Ġquest a
Ġsuggest ion
en cer
Ð¾ ÑģÑĤ
Ġrad ar
Ġìŀ ¡
ish a
à® ¨
ãĤĵ ãģª
j es
Ġve el
ìĤ °
Ġauth ors
ãĢ İ
pl an
Ġcollabor ative
Ġinst inct
Ġfar ming
au ge
E du
Ġmembers hip
Ġsimult aneously
Ġb ake
Ġk Ã¤
Ġlect ures
Ñĩ ÐµÑģ
Ġprend re
Ġcoll aps
ĠS aya
ĠF ut
Ġy og
ĠR ather
Ø± ÙĬ
Ġcamp s
Ð¾Ð» Ð¾Ð´
Ġsim ulation
ĠM ak
La ughs
Ġgre y
Ġsent ences
y en
ĠUn less
J e
ĠSat an
ĠÑĤÐ°Ðº Ð¶Ðµ
ĠN A
Ġbr on
Ġ? ]
Ġsoul s
Ġlight ning
Ġimag ined
Ġczy li
ps ilon
et ta
Ġbelie ving
Ġstrong est
ĠC ON
Ġquel ques
Ġimmig rants
Ġwall et
éĢĻ æĺ¯
ĠJer sey
Ġimplic ations
Ġfor b
ãĢ ı
Ġun believable
Ø§Ø ¡
Ġoper ational
Ã¼ s
ĠG M
Ġê·¸ëŁ °ëį°
Ġgrac ias
Ġent end
ĠReg ard
ro b
ĠÑĤ ÐµÑħ
è ı
ĠRev olution
Ġwa ar
ĠB iz
th eless
Ġspons ored
qu ier
ĠìĿ ¼ë
Ġte k
ĠëĲ ł
ig keit
ĠL uck
ĠCertain ly
Ġto ll
ĠÐ½ Ð¸ÑĩÐµÐ³Ð¾
ĠM oney
ĠÑģ ÑĤÐ¾ÑĢ
ĠDou ble
ĠW olf
Ġch unk
Î¬ Î½
it Ã©s
on ing
M ar
Ġgrand es
Ġcollect ions
ĠEurop a
ĠÐ° ÑĢ
ĠâĢĭâĢĭ âĢĭ
Ġê·¸ëŁ¬ë ©´
ĠÐ¾Ð± ÑĬ
Ġãģ ª
Ġìĭľ ê°Ħ
ĠC ustom
Ġì² ĺ
Ñĸ Ð»ÑĮ
Ġindivid ually
í Ĺ
Ġdo zen
Ġo we
ĠVict oria
åı¯ èĥ½
Ġbe et
ur b
Ġanal og
i Ã§Ã£o
Ĥ ľ
so ever
Ġmod o
Ġsubscri bed
ìŀ ¬
Ġent ities
çī ĩ
Ġclos et
Ġrespond ing
Ġprin ter
ĠStep han
Ġby ÅĤ
ĠD om
ĠF ern
ĠP ier
ĠwiÄĻ c
Ġh ence
Ġmod ules
ãĥ ¬
ĠëĶ ±
ĠDann y
ĠÑģÐµÐ± Ðµ
Ġv ad
ĠìĹ Ħ
Ġs ous
Ġsp here
B Y
ĠP ed
ign ed
Ġwhe at
Ġund ers
Ġevol ve
Ġdec lar
Ġlight ly
Ġident ifying
æĦı æĢĿ
Ġlegend ary
Ġgen uine
Ġgr ind
ĠU ne
ge ben
Ġb icy
Ġjump s
Ġprov ince
zi ÄĻ
Ġ×Ĳ× ł×Ļ
Ġh oc
ĠÐ± Ð»
ĠGr ad
Ġreven ge
ĠØ§ÙĦ Øª
o oh
æĭ ľ
Ð°ÑĨÐ¸ Ð¸
å¹ ³
Ġelect ro
ĠëĲ Ĳ
ãģ§ ãģ¯
Ġf als
ri el
ok er
ĠEx cellent
ĠMor gan
Ġbr ick
Ġsubstant ial
Ġpoll ution
ĠT Ã¼r
ĠEv et
Ġl ung
ãģ ĸ
×Ļ× ©
omm es
Ġreal izing
Ġhum ble
ĠL ock
Ġb od
Ġìĸ ¸
Ġpe ers
uz z
Ġembed ded
Ġclar o
Ġag greg
Ġemploy ers
ĠR aj
Ġãģ ¨
ĠY i
Ġje u
at ers
Ġstri kes
n os
aut res
d r
op her
ĠApp arently
íĺ Ħ
Ġinf ant
Ø§ Ø¨
ÑĤ Ñĭ
í Ľ
Ú ¯
Ġred es
acaÄŁ Ä±m
ĠDA VID
ĠCh icken
Ġperspect ives
Ġview er
Ġsh ar
ĠÐ¿ÑĢÐ¾ Ð¸Ð·
lig t
er os
it able
Ð¸Ð» Ð¾ÑģÑĮ
Ġdif ÃŃ
´ë į°
Ġret ired
Ġthat s
zen ie
be iten
Ġmy cket
ĠR ab
Ġinflam m
ì° ®
Ġd um
Ġdad dy
æľ Ł
Ġimm ers
Ġplay list
à¯ Ĩ
Ġtra um
Ġref use
st ep
à® ļ
c up
Ġpop s
r imin
ay Ä±m
Ġa ld
Ġun necess
Ġd ah
ĠIr ish
Ġcomp r
la ÅŁ
T P
Ġtransl ated
S c
ce ÄŁim
´ Ĳ
Ġd rei
ĠÐ»ÑİÐ´ ÐµÐ¹
Ġqu iero
Ġhe le
z lich
Ġapp les
Ġdistrict s
Ġcred its
Ġas p
Ġëĭ ¨
or al
å½ ±
Ġste pping
ĠV a
Ġg ains
6 5
Ġnuest ra
ed ay
ass ador
ĠL ind
Ġcrop s
ci endo
ig ue
Ġb ana
A m
Ġp ent
Ġadd iction
Ġpack aging
Ã¤ d
ª ¨
Ġper quÃ¨
Ġcampaign s
Ġste ep
Ġne ue
Ġembarrass ed
Ġdist inction
it zer
åĳ Ĭ
Ġregist ration
Ġll am
ĠAlm ighty
li est
Ġu z
n ak
ç º
Ġter az
iam ente
Ġtrans actions
Ġc Ã´t
Ġswitch ed
Ġcom bo
Ġpray ers
Ġintern ship
Ġaddress es
Ġchar ity
ĠW OO
Ġb ait
è¿ ĩ
Ġ ï¿½
Ġf ica
ĠTy ler
ar u
Ġat oms
ĠLe vel
ĠÐ¿Ð¾ÑĤ Ð¾Ð¼
Ġf ame
ul k
Ġteach es
Ġre build
ÐµÐ´ ÑĮ
ĠIndones ia
ush i
ĠSh ort
Ġens uring
f s
e le
Ġmargin al
Ġconclud e
am t
Ġver ify
ĠMc Donald
Ġsk al
Ġrec onst
ĠM ann
Ġbas ement
Ġtransform ed
Ġoccasion ally
z one
ĠD ans
ĠÐºÐ°Ðº Ð¾Ð¹
Ġdiagn osed
ĠÏĦ Î±
Ġcomm ands
Ġpresident ial
Ġab b
Ġbrack et
ĠL em
Ã¥ ng
Ġfavor ites
Ġrev ol
ĠíĬ ¹
Ġhar ass
é ħ
Ġcle ans
st Ã¤nd
Ġknock ed
Ġpe oples
Ġmusic ians
Ġmut ual
ĠC old
8 8
ze j
at ie
ĠHon or
Ġobs essed
ĠM USIC
ĠBre ak
Ãº ng
Ġmod ify
Ġs Ã¶yle
Ġ×ŀ ×Ķ
ĠOn line
f o
ĠMill er
Ġlik ing
Ġin hab
Ġgrat itude
ĠJour nal
arn ess
J ohn
ĠG it
åī Ľ
Ġsin cere
ĠS ci
ĠE li
Ġsymbol s
Ġman ually
Îµ ÏĤ
ĠÐ² ÑĸÐ´
ĠF at
Ġlab els
Ġsophistic ated
ump s
Ġrele ases
Ġ4 7
ĠO M
ê°Ģ ë
ĠB ien
ĠRe f
è¨ ĺ
ĠSt a
ĠE gg
Ġindic ator
ps on
Ġnas Ä±l
R ight
Ġcon vey
Ġkn ot
Ġconnect s
ul as
Ġpre ced
Ġine quality
am iento
Ġrep ly
O Y
Ġdism iss
ĠëĲ ľ
çĦ ¡
ĠÑħÐ¾ÑĢÐ¾ÑĪ Ð¾
Ġm Ã©d
Ġrandom ly
ĠO nt
u ard
Ġpull s
ĠÑĤ ÐµÐ¿ÐµÑĢÑĮ
ĠNe ed
ĠSo ft
Ġstrength s
Ġgo ed
um en
æŃ »
Ġíİ ¸
ĠÐ´ Ð¾Ð±
Ġclar ity
ĠA i
Ġball oon
ĠP and
ĠìķĦ ëĭ
Ġsh iny
Ġsmall est
on ia
h ill
ot ing
Ġe ing
Ġmere ly
Ġse us
ĠÐ½ ÐµÐ¿
Ġí Ĩµ
Ġgu ides
Ġspecial ist
Ġste ak
ãĤĪ ãģĨ
Ġmig ration
que le
Ġru ined
Ġpu pp
å¥ ³
Ġk end
ang an
Ġpal m
Ġunf air
Ġz m
ĠD V
ch ester
Ð¸ Ñİ
Ġo oh
er g
AT H
° ©
åĵ ª
r ison
Ġinvol ving
Ġpart ly
anÃ§ ais
Ġv ow
Ġprom inent
Ġcry st
ib a
Ġdes erves
Ġover t
Ġsens it
ĠWh e
Ġtight en
Ġintim id
Ġal iment
w ill
Ġstrength en
ĠT an
åı Ī
ãģĹ ãģ¾ãģĻ
on i
ĠM un
Ġpro ph
Ġrehe ars
ĠK le
Ġve ces
Ġwonder ed
ok i
Ġsens es
´ì ĭ
Æ°á» Ľ
ĠÈĻ i
Ġmuch os
Ġwatch es
ortun ate
ĠJ uan
ìŀĸ ìķĦ
ÑĢ Ðµ
e i
ion en
Ġexperiment al
Ġda ughters
à¸ Ľ
Ġment ally
bec ca
aw are
ìĦ Ŀ
Ġwhat soever
Ġen ables
ĠL ow
o id
à¸ Ĭ
Ã³ d
Ø º
Ġconstruct ed
ĠLad ies
Ġaccus ed
ĠÐ° Ð½
D an
Ġsp awn
Ġcontain ers
Ġart istic
Ä± p
Ġdisc l
Ġaut res
in as
ĠN ation
Ġn ag
be an
w he
ľë ıĦ
ĠSe oul
Ġíı ¬
ĠN ich
Ġcomp lement
Ġinter ven
ĠMod el
ĠOr ange
nam on
Ġcalcul ation
se e
Ġusted es
Ġle b
Ġdo ct
Ñĸ Ð½
Ġf oster
Ġel astic
ĠAh h
Ġa ce
ĠP ink
ĠJ eg
Ġde er
ãģĹ ãģĦ
s is
Ġjak o
ĠEm ma
ÑģÑĤÐ² ÐµÐ½Ð½Ð¾
Ġport rait
Ġmak er
Ġa ument
ÑĢ Ð¾Ð±
Ġairpl ane
Ġtransparen cy
Ġadjust ment
ĠCD C
Ã§ on
Ġupload ed
ĠÐ´ ÐµÐ¹ÑģÑĤÐ²
ĠÐ³Ð¾ ÑĤÐ¾Ð²
Ġit er
Ġcur se
Ã´ n
mer ce
ar an
Ġle ak
çµ Ĳ
Ġabs ence
Ñģ ÐºÐ¸Ð¹
Ġread ers
al er
Ġbene ath
ang o
h etic
Ġfin ns
Ġpo op
Ġdu plic
H i
ig s
olog ically
op p
Ġd izer
ĠAll en
Ġgl i
Ġacc eleration
Ġvit amin
ãĥ Ń
v Ã¤
ĠAc cess
à® Ļ
r Ã¡s
Ġappreci ated
Ġn ah
Ġpos ter
Ġt ale
Ġhighlight ed
æĸ ĩ
Å¼ eli
Ġblock chain
Ġmic row
Ġcin ema
ĠCh ang
ĠSe arch
ust ers
ĠZ ero
ĠDiv ision
ÑĢ Ð°Ñģ
Ġsca re
Ġj elly
ĠAdminist ration
S O
Ġl ined
Ġê° Ħ
Ġge ben
Ġso da
Ġwin ners
³ ¼
Ù Ĵ
ĠAm b
åķı é¡Į
å Ķ
Ġpe g
å· ±
4 3
Ġra us
Ġre wards
Ġinc lus
Ġhigh way
Ġha h
Ġmultipl ied
Ġs áº½
Ġdisci ples
Ġn ing
Ġdress ing
Ġattrib utes
ĠM osc
ĠGree ce
Ġse k
ĠLe arn
Ġj us
rend re
Ġperson ne
pl ete
Ġpl acing
Ġl uego
ill ance
ĠÐ¾Ð± Ñī
Ġprov ision
Ġl ion
t ra
bo ards
Ġbehavi our
he y
Ġsubscri ption
Ġprot agon
ãĥ £
Ġvar a
ĠÅŁ u
Ġha ha
Ġteas poon
æ Ł
av oir
Ġcrypt o
ĠÑģÑĤ Ð°ÑĢ
ĠSt ore
ab s
ĠStud ents
Ġla und
int o
Ġapproach ed
° ľ
ÑĥÑİ Ñī
ĠL abor
ot es
iat ric
Ġgro ÃŁ
ut ive
ĠÐ¸ Ð´
ĠG ib
Ġpl acement
ĠdifÃŃ cil
Ġf rog
ĠÐ²ÑģÐµ Ñħ
ĠJ r
az ed
Ñĥ Ñī
Ġê ¼
fr ame
Ð° ÐµÑĪÑĮ
Ġlock down
åĳ ³
Ġmed i
Ġ×Ķ× ŀ×
ÐµÐ½Ð¸ Ð¹
em ale
ì¢ ħ
ater al
Ġdist ant
Ġbe ars
Ġjournal ist
è§ £
ĠMarsh all
ĠIh nen
uet ooth
b ag
ĠÄĳ Ã£
ĠHigh ness
Ġì° į
Ð¸ ÐºÐ°
ĠW u
ĠFr an
Ġp eng
Ġf on
Ġhypothes is
ĠÑĢ Ñĥ
Ġl y
× ļ
ìĽ Ķ
ĠRad io
à¸ ŀ
D av
Ġembarrass ing
ĠìŀĪ ìĸ´
Ġcast ing
Ġc age
ĠP sych
ĠìĿ¼ ëĭ¨
ĠÅ ¾
im b
Ġdirect ors
S H
ĠÏĦÎ· Î½
á»ģ u
Ġkon uÅŁ
Ġoption al
quar ters
ik er
ĠS ant
Ġvers es
ë ¶Ģ
Ġo lar
ĠÏ ĩ
ãĥ ķ
ĠÎ³ Î¹Î±
ĠI mm
Ġcontrovers ial
Ġer sten
Ġreci p
ĠChristian ity
Ġê´ ľ
ord on
×ķ× ©
Ġsl ash
ĠP f
ÑĥÐ´ ÑĮ
×ķ× Ŀ
ĠPer ry
Ġm amy
Ġbackground s
Ġà®İ à®©
Ġpend ant
ĠColumb ia
Ġin verse
ĠÑĩÐµÑĢ ÐµÐ·
Ġs v
Ġdig ging
4 1
ch em
Ġnavig ation
ĠSh in
ĠFr ont
P D
Ġbe aring
ĠW asser
Ġw ax
ĠCH RIS
ch ing
Ġpress ed
E l
ĠD al
ons in
Ġb inding
ÑģÐº Ð¾Ð¹
po ons
Ġmo ck
are st
Ðº ÑĢÐ°
M M
Ġcor rupt
st orm
Ġref res
ĠCo ach
ll Ã¤
ĠTH IS
Ġpar ag
Ġìĵ °
p ool
Ġbill ions
Ġê¹ Ģ
gr oup
Ġwel coming
cell ence
ĠDu ke
ê¸ ´
Ġprim era
ìł ¸
Ġp ond
Ġstat ue
Ġêµ ¬ë
Ġh atch
Ġinstrument al
Ġresident ial
ì» ¤
Ġaccept ing
osh i
d ate
ĠìĶ ¨
Ġplant ed
Ġj oking
Ġì Ħľ
Ġh ated
ĠÑĢÐ°Ñģ ÑģÐº
Ġsle pt
Ġpack ages
Ġisland s
es en
ÄŁ Ä±
Ġdi agon
ĠO sc
Ġmes h
Ġsc ales
ar ity
ĠDef ense
ãģ¡ ãĤĩ
ĠLew is
ĠÑģ ÐµÐ³Ð¾Ð´Ð½Ñı
Ġfl ies
uin ely
ĠCons ider
Ġst ark
he w
ĠAs ÃŃ
³ ´ë
Ġprop ose
Ġíķĺë ©´
od o
ĠNorm ally
Ġhe eft
ĠHarr is
g ro
ĠBlo od
b ase
Ġi OS
Ġtouch es
Ġinsp ir
Ġ× ĵ
Ġb inary
Ġì¶ Ķ
Ġser ial
Ġ ion
Ġunemploy ment
Ġodd s
ĠF ab
ĠF BI
BR UN
Ġweight s
Î½ Î¿
at ile
Ġnurs es
Ġinvolve ment
ĠíĶ ¼
Ġgovern ance
Ġâ Ĥ¬
ÑĢÑĥ Ð¿
ier ra
íĺ ķ
ĠJ erry
Ġbe ard
Ġsal vation
ĠAl ong
g entle
ĠK i
b ol
ĠPl at
Ġhas ht
è¿ ĳ
Ġw are
Ġpart ie
y cz
Ġint r
F ih
n ent
Ġche at
il en
Ġë ¯
or ie
ĠfÃ¡ cil
et ric
Ġaffect ing
unci ation
Ġaff airs
Ġbe e
Ġview ing
Ġor ang
ĠL an
ĠÐ¡ ÑĤ
ä¸ ĸ
ĠM es
ĥ ģ
er ie
Ġes pa
Ġinter pre
Ġposs ess
Ġpure ly
rit o
f ound
as ma
ìłģ ìĿ¸
Ġexam ine
ĠÑĥ Ð¼
Ġbes ch
ĠTom orrow
ĠB lock
Ġvari ant
Ġprefer ence
Ġcoach es
Ġmedic ations
Ġíĺ Ħ
Ġemp ire
ë Ħ¤
ĠIll inois
Ġcris py
Ġth Ã¬
Ġbe es
7 7
Ġgl ow
è º
ĠStud ies
åĲ Ħ
ĠChall enge
Ġunlike ly
Ð §
Ä±y orsun
DI E
Ġminim ize
iz ard
ĠÃº n
Ġencont rar
ĠK ill
å »
Ġvan illa
ĠGr ant
ĠG T
se a
Ġs ought
Ð² Ð¾Ð´
ĠnÃ¤ m
ĠA unt
OW N
Ġpump kin
st ellen
Ġr ag
ÐµÐ³ Ð´Ð°
Ġstory t
Ġfor um
æ© Ł
Ġestab a
uch e
Ġcon gress
ĠRe y
Ġdram atically
ĠSp ort
ĠYe llow
Ġê³Ħ ìĨį
Ġdisg usting
ĠRe cent
Ġacqu ired
Ġc ables
çĶ ļ
d in
Ġv isto
Ġcommunic ating
ÑģÑĤÐ°Ð² Ð»Ñı
ÐµÑģ ÑĤÐ¾
ãĥ»ãĥ» ãĥ»
ĠrÃ© g
Ġso cks
Ġpro ces
be cause
Ġut ter
Ġcoloc ar
Ġnew est
Ġgr amm
è¡ ¨
ä¸į çŁ¥éģĵ
Ġsh ifting
Ġcar rier
ĠÑģÐº Ð¾ÑĢ
ĠSch w
Ġexec uted
Ġmaint ained
ĠÏ Ĩ
ĠM oses
Ġdis se
Ġhor r
ãĢ ľ
Ġr ally
Ġall em
ĠEvent ually
Ġdi yor
lv ania
Ġsch nell
Ġê³ ¼
Ġë§ ¤
Ġstrugg les
l ate
Ġclar ify
Ã© ment
Ġmulti plic
Ð¸Ð± Ð¾
Ġjour n
Ġfra gr
Ġsurprising ly
Ġdesper ate
5 2
Ġs ul
ĠRe ad
ĠF ried
Ġm ond
w oo
Ġorgan izing
ãģĹãĤĩ ãģĨ
ĠSo on
ĠÐ² Ð¾Ð¿ÑĢÐ¾Ñģ
ĠN ur
ĠÐĹ Ð´
Ġsp ider
Ðµ ÑģÑı
Ġtutorial s
Ġnutri ents
or er
Ġcoe fficient
Ġarrange ment
Ġpr icing
n an
y u
B L
Ġtri be
ĠHow ard
un ks
Ġnew er
Ġprov in
Ġpred iction
h os
Ġol sun
ĠAr ound
Ġv ier
ĠÑģÑĤÐ¾ÑĢ Ð¾Ð½
Ġv alley
ĠE la
if i
Ġgal axy
Ġtran qu
Ġad vers
ĠTem ple
iff s
ig ence
èĩª å·±
ĠkÃ¶n nte
ĠÄĳ Ã³
D id
Ġphotograph s
ĠA WS
ÑĨÐ¸ Ñı
Ġgu ards
Ġappoint ed
ĠG il
ĠÐ¼ Ð¾Ð¼
Ġc od
ĠUn like
Ġeven ly
isc onsin
Ġest ou
Ġm nie
ĠEx ec
ĠM V
ĠE ine
ä¿ ¡
ĠRog er
ĠF ac
ĠL ist
Ġf uer
Ð°ÐµÑĤ Ðµ
om ed
Ġattract ion
èī ²
Ġter rain
ĠD rop
Ġcorpor ations
Ġsci ences
Ġthr one
ãģĦ ãģŁ
Ġa j
ĠR ot
çī ¹
Ġsupp orters
ĠB ere
H ere
Ġdifer entes
Ġsignific ance
Ïĥ Î·
æĪĳ è¦ºå¾Ĺ
Ġcl amp
Ġë ĮĢë
Ġfab ulous
re z
æĮ ģ
Ġassum ptions
ut her
w id
p ot
è¿ İ
Ġy an
ul in
ÑĢ ÑĭÐ²
ĠSl ow
ĠPenn sy
Ġíķ ´ìĦľ
Ġme io
Ġwealth y
ĠE ight
Ġpul se
Ġfr iction
id ity
ĠH oll
i yorum
Ġsound ed
ĠC arr
Ġfor k
â ĺ
ĠP A
Ġcons pir
Ġc oding
r t
ĠTy p
Ġìĸ ĳ
ĠÐ¿ Ð¾Ð³
Ġmis er
ĠÑģÐ¼ Ð¾ÑĤÑĢ
ĠSw eden
Ġolar ak
ĠZh ang
ĠCh i
ĠT itan
Ġscreen ing
ĠSp ider
ĠÅŀ imdi
Ġobst acles
lar a
Ġchalleng ed
p se
T ON
á» ¥
ĠP i
Ġlag i
ie urs
Ġhur ting
Ġneg lect
Ġgener ating
Ġyoung est
Ġaud it
ĠÑĢ ÐµÐ·
Ïģ Î¬
Ġdon ate
ĠPD F
Ġvis its
Ġcru ise
P P
as er
Ġw sp
back s
iv als
ãģĨ ãĤĵ
Ġde ve
Ġprop ort
Ġc ath
ĠE ffect
Ġwind s
ĠìĻ Ķ
Ġchart s
Ġs ama
Ġautom ation
ĠÐ¿Ð¾Ðº Ð°
Ġol an
Ġbo ats
Ġca fe
Ġden ied
ĠM ama
Ġblock ing
ĠTh or
Ġphenomen al
Ġstake holders
Ġun os
Ñĥ ÐµÑĤ
ĠAb raham
ãģ§ ãĤĤ
Ġdetect ion
Ġjur is
Ġpower ed
z ial
Ġwel fare
Ġup grad
ĠmoÅ¼ na
ĠC ase
c ular
Ķ ìĿ´
ãĥ ģ
ĠGu ess
Ġcy cles
ä¾ ĭ
çµ ¦
ro ck
um i
Ġel ite
Ġqu Ã¨
åł ±
ÑĤ Ð¾Ð¼
Ġsh ore
gun ta
Ġk u
Ġfaith ful
ĠJ eremy
a id
à ·
ug al
å°į åķĬ
ĠV el
Ġvra i
st ell
¨ ¸
Ġk ol
è ½
Ġquant o
ĠÐ· Ð°ÑĢ
Ġ200 2
es y
Ġres erve
ĠÐ¼Ð¾Ð¼ ÐµÐ½ÑĤ
Ġdeploy ed
Ġdefin ing
Ġsa u
Ġga at
" )
Ġtrans mit
Ġpubl ishing
Ġrank ing
Ġoff ense
Ġ4 6
p in
ĠT aking
Ġentit led
Ġgen uinely
Ġvari ations
Ġfind e
Ġt au
Ġunf ortunate
ĠR ah
port s
Ġc Å
Ġmon key
Ġbr ac
we i
l ung
Ġart if
Ġsy rup
ĠÐĶ Ð°Ð²
Ġlift ed
Ġche z
ĠAd vent
ĠSt ock
Ġdo l
Ð¼ ÐµÐ½
Ð¸ÑĪ ÑĮ
Ġy n
g io
d et
Ġdes se
Ġg ri
ĠChair man
ç ħ
Ġcu enta
an im
Ġcra b
Ġesc al
Ġpremi Ã¨re
ĠGe f
Ġd ining
Ġsevent h
Ġch asing
ĠT ower
Ġbrut al
Ġfundament ally
ãģ¨ ãģĨ
Ð» ÐµÐ½Ð¸Ñı
st age
Ġacqu is
Ġcyl inder
Ġcomm ander
m em
ĠU V
ha ppy
Ġe psilon
Ġinv itation
Ġfar mer
ch air
Ġdest iny
Ġso vere
ĠHeb rew
Ġserv ant
Ġbe w
Ġg ast
ut ies
Ġadministr ative
ĠComm and
Ã© ta
Ġnit rogen
ê· ¼
Ġab i
Ġvill ain
Ġblank et
ĠS end
Ġbeat en
² Ħ
Ġvol unt
Ġschol ar
ĠEm peror
Ġ4 3
v able
ĠD us
ĠG U
Ġtarget ing
ww w
Ġamend ment
ìĨ Įë
Ġt ing
Ġn asty
Ġg auge
ĠÑĢ Ð¾Ð´
ĠH ans
Y our
Î± Î½
Ġpro jet
ĠHawai i
Ġsusp icious
Ġsch w
Ġremo val
Ġint rig
ĠM U
Ġp onto
à¤ ¾
ĠÐ¾Ð± ÑĢÐ°Ð·
Ġguess ing
p ace
Ġm others
Ġmill imeter
Ð» ÐµÐ½Ð¸Ðµ
æ²¡ æľī
Ġavail ability
ic z
æŃ ¤
Ġfr act
Ġbas es
k m
ĠB TS
ĠF ield
Ġd zie
Ġseg undo
ĠëĤĺ ëĬĶ
Ġlegit imate
im as
ĠÐ² Ð½
Ġcor ruption
Ġsm ash
ĠVal ent
Ġalign ed
ĠPennsy lvania
Ġg ab
ĠE un
ent h
ĠMor ning
Ġcand le
Ġback pack
ĠIslam ic
a Ã§Ãµes
Ġenc ry
Ġmushroom s
íĮ Į
d it
Ġtrans it
ĠW isconsin
Ġparticip ated
ĠIl s
Ġunf old
¶ Ģë
Ġprof its
Ġwar ming
ĠG ang
Ġnetwork ing
Ġme ga
Ġthorough ly
le ments
ĠH m
Ġdec iding
Ġemotion ally
Ġexha usted
ĠÐŁ Ð¾ÑĤ
c ido
ĠHT ML
Ġcopy right
Ġmel ody
y im
Ġand ers
osh op
Ġë³ ¼
Ġathlet e
ĠG E
Ġfrequ ent
Ġdes ires
Ġneed ing
ĠY un
Ġrif le
Ġlo ver
' T
Ġd ense
Ġt Ã£o
Ġnot ified
Ġid i
ìĹ Ń
í Ĩ
Ġinteract ing
Ġrapp ort
ÐµÑĢ Ð¸
s ki
Ġb esser
Ġmanufact urer
ĠK yle
Ġaccount able
ĠS ak
ĠP il
ĠD omin
Ġpres um
ĠÐĴÑģ Ðµ
Ġvine gar
Ġguarante ed
çľĭ åĪ°
Ġhand led
éŁ ³
c at
Ġcivil ization
Ġaccom p
ĠV M
Ã© mon
Ġde ze
Ġgrad es
Ġsoll te
Ġst aring
×Ĳ× ª
ar nt
Ġhoriz on
Ġtrav ail
h our
ç¬¬ ä¸Ģ
ĠE D
ĠD ak
Ġn y
Ġcon ve
ĠCh am
Ġfir ms
ĠL iu
ĠÑģÑĤ ÑĢÐ°Ð½
Ġli bert
Ġlens es
Ġint ake
ĠÐ²Ñĭ Ð±
Ġmens en
h el
Ġpract ition
Ġ3 50
ãĤ ³
F O
Ġbed s
Ġancest ors
ĠìĹĦ ì²Ń
Ġdistur b
ĠLast ly
ĠSupp ort
à¸µ à¹ī
ĠCor ona
Ġenthus i
ĠÐ²Ð¾Ð· Ð¼
ĠìĤ¬ëŀ Įë
Ġ5 2
b ird
Ġredu ces
ĠìŀĪ ìĿĦ
ĠG ene
êµ Ĳ
ÄĻ p
ĠÃľ ber
Ġconcer ning
us er
Ġconcent rate
ĠWH AT
ish op
onym ous
no ld
Ġsuggest ing
© °
ĠF ish
.... ....
Ġvess el
Ġtrabaj o
ãģ µ
ĠO cean
å§ Ĳ
y g
Ġtown s
d el
Ġterr ifying
ĠÃ§al Ä±ÅŁ
Ġs ino
Ġe ats
Ġge z
Ġg eme
ĠìĻ Ħ
Ġcomp art
Ġimplement ing
ĠPot ter
ĠGerm ans
Ġg ÅĤ
Ġt ennis
Ġcar pet
au er
ĠSaud i
ye ong
Ġcur ry
ĠFore st
Ñĭ Ð»
Ġfif teen
Ġbol ts
Ġ{ \
¬ ´
Ġsett lement
Ġl ange
Ġb am
G et
íķ Ļ
Ġsw ap
ĠK han
Ġcomm ence
Ġquar antine
Ġsc ored
ç ĸ
Ġ19 50
Ġthick er
ĠsÃ» r
åı £
ĠLar ry
Ġall ez
ìĭľ ëĬĶ
Ġg Ã¼
Ġspect acular
/ /
b oth
Ġst ats
å¦ ³
ĠN ancy
Ġbun u
Ġcr ust
Ġactiv ated
Ġê·¸ë ŀ
out he
Ġport s
Ġne ural
Ġj aw
Ġobserv ations
Ġvo it
ab an
áº£ i
¦¬ë ¥¼
om es
à¯ ĭ
qu i
Ġkind ness
Ð ĳ
Ġ4 1
Ġmoder ate
Ġang els
ĠT amb
Ã¨ t
Ġch lor
ĠBill y
ì² ĺë
ac on
Ġselect ing
ĠDel ta
Ġn ull
den ly
Ġci ud
Ġtend ency
Ġbreak down
Ġm int
ÑĦ Ð¾ÑĢÐ¼
or ph
Ġda wn
s pr
ĠW ILL
Ã¤ch lich
Ġpu ppy
7 00
Ġà® ¤
Ġfail s
ĠCon c
Ġrel atives
Ġinv iting
Ġaut onom
Ġcomp osed
Ġun ity
Ġdec is
Ġaccess ories
ĠC ass
Ġb ist
ĠT ip
ì§ ¸
Ġp unt
Ġr Ã¡p
éĢ ²
AN K
ãģ ļ
ex ist
Ġcompat ible
Ġn er
ĠÐµ Ð¼Ñĥ
Ġa plic
Ġb apt
Ġfail ing
ĠTam am
Ġos cill
Ġletz ten
Ġrepeated ly
Ġjung le
ĠP ush
h ai
ĠÎ ·
Ġdead ly
Ñı Ð¶
wi Äħ
ĠComm on
ĠÎ ķ
Ġsk ate
T C
ĠMin i
Ġhob by
áº§ n
Ġrout es
Ġam igos
Ġcon jun
Ġpartners hips
Ġno vo
Ġa ver
Ġpou vez
br idge
Ġpre oc
h im
Ġtur b
Ġso b
ĠSn ap
Ġì° ¸
min ute
Ġtra ject
uj ÄĻ
Ġe ager
Ġregul atory
Ġbank ing
b ling
ÑĪ ÑĮ
a Å¼
Ġbiz arre
it ated
d ire
Ġthreat ened
Ġsh ining
Ġn esse
Ġcor ps
ĠÑģ Ñĥ
Ġt eles
Ġtem p
t em
ĠÐº Ð°Ð½
Ġfe ver
N ew
Ġheav ier
ĠS ah
b ud
Ġout ros
Ġì° ¾
Ġëª ħ
arr ing
Ġê´ľ ì°®
ĠN ap
Ġse min
ĠTh an
if s
Ġdes en
ĠÑĤÐ°Ðº Ð¾Ðµ
Ġlos es
ĠB alt
k on
ĠÐ½Ð°Ð¿ ÑĢ
Ġvo is
ĠMosc ow
Ġch airs
h is
Ġrefuge es
k g
Ġk ole
į ¨
Ð°Ñģ Ð¸Ð±Ð¾
¦ ½
ĠUn iverse
ĠDire ct
Ġche ating
ĠC in
Ġpat ri
Ġadv ise
ĠN ether
Ġprime iro
Ġmention ing
n ut
5 6
ar Ä±
Ġpet ite
b led
Ġpens ar
ic io
IN D
Ġveter an
Ġlad der
Ġconsequ ence
Ð¾Ð¶ Ð°Ð»
ĠB urn
Ġr ug
ĠM ade
Ġg it
" ...
Ġcompet itors
Ġprz ed
Ġapp arent
ĠArgent ina
ĠWork ing
Ġcollabor ate
w oman
Ġret ain
Ġle urs
Ġdash board
×Ļ× ĵ
ĠEar ly
B M
ĠÐµ Ñĳ
Ð¾Ð» Ð¾Ð³
Ġsatisf ying
Ġoft entimes
Ġma pping
Ã¼nk Ã¼
ar th
f old
Ġlaunch ing
Ġa ura
Ġprec ision
work s
G od
Ġstra p
ĠIm per
Ġr ivers
Ġ |
Ġcu er
reg on
Ġarri val
ÐºÐ° Ñħ
ĠM iami
Ð°Ð½ Ñĭ
Ġsurviv ors
ĠSen ior
Dav id
Ġest ado
Ġse ctors
Ġpop ping
Ġch im
ay Ä±
Ġkun nen
Ġgall ery
Ġsun light
ese hen
Ġye lling
ĠMe in
ĠPho enix
Ġman o
Ġhistor ia
Ġoccur ring
æ¬ ¸
ì ¸
Ð°Ð´ Ð¸
å¾ ħ
Ġinstitution al
ĠT ut
ç ²
Ġsl aves
ãģ© ãģĨ
Ġforg iveness
Ġtw in
ĠHy un
Ð½ ÑĮ
ĠK omm
and ra
sh ot
ss Ã¤
ĠÑĨ Ðµ
at ta
Ġexp ense
ĠG PU
ĠP ast
rib ly
ĠëŃĲ ìķ¼
ĠÐ³Ð¾Ð´ Ð°
Ġresp ir
æĿ ±
ĠQue ens
h ops
Ġs Ã©rie
Ġpre f
Ġcom ed
Ġpl ut
ĠOver all
Ġãģ Ŀ
Ġc ush
Ġring ing
Ġincor rect
ĠÑģÑĤ ÑĢ
Ġgeomet ry
Ġadvert is
ĠÐ ¨
Ġreview ed
ãģĤ ãģĤ
Ġdo zens
Ġdeterm ination
ĠPh ill
Ġcontrib uted
ĠC it
Ġpass engers
ĠcÃ´t Ã©
Ġre ver
Ġtechn ological
Ġall en
Ġr aining
av i
Ġsal ty
Ġtyp ing
ĠÑĤ Ðµ
Ġt ilt
Ġì¹ ĺ
ĠÐ¾ ÑĢ
ĠÐ¿ÑĢ ÑıÐ¼
Ġr ou
Ġare na
ar at
åĪ «
HH HH
Ġmanufact urers
ĠEd ward
Ġt uck
Ġbl ows
ing o
ĠMar c
ìķĦ ìĦľ
M ich
ĠCle an
è ´
est o
ĠP ack
Ġsha ft
BRUN O
Ġa ven
u ur
ÑģÐº Ð¾Ð»ÑĮÐºÐ¾
ê´ Ģ
Ġautom ated
Ġvent ure
Ġsurve illance
ĠG row
ĠE mer
ĠÐ´ Ð¾ÑĢ
Ġinvest or
ĠY ok
Ġl atter
ĠN I
Ġfunction ing
ĠHam ilton
Ġ5 1
Ġmurder ed
Ġanch or
Ġc uc
ĠSC P
ĠMad am
Ġconstra ints
Ġb arn
ank en
Ġë§İ ìĿĢ
ĠMot or
ĠDo ing
Ġam en
et ts
Ġinst ructor
eg t
ak o
Ġpost ure
iv ia
ĠPol ish
ĠÐ´Ð² Ð°
Ġcolor ful
Ġel bow
Ġpar le
Ġpass er
Ġcond em
ort al
Ġfert il
Ø§ Ø¯
ĠCol omb
Ġalign ment
Ġastron aut
ĠM ut
Ġsal mon
Ġstructure d
ŀ ×¨
Ġclick s
Ġm iej
æĶ ¿
ãģĦ ãĤĦ
ĠR ound
Ġrain bow
ĠV A
ãģĶ ãģĸ
ì§ Ī
ot z
, </
ĠNico le
l ishing
Ġwh ilst
Ġrep ublic
Ġtam am
vert ed
Ġrecogn izing
ĠÐ³Ð» Ð°Ð²
Ġd ub
ĠJ os
fall s
ich i
Ġcz ÄĻ
ĠÐ ¦
ĠM itch
C R
cl ick
ãģĦ ãģ¦
Ġstun ning
ĠJul ia
m ers
ĠPo ly
Ġdess a
Ġint Ã©
Ġê³ łë
Ġdo ÄŁ
Ġdi ver
Ġstri king
ap hor
Ġap enas
ous es
Ġtraged y
ĠF an
ĠTurk ish
Ġpro phet
Ġdist ancing
ĠH em
Ġcart oon
K e
ant ing
ĠCl ark
ç ¿
Ġdav on
Ġí ħ
Ġy ummy
Ġcomprom ise
Ġstart up
r itt
Ġcert ified
Ġpill ow
b ere
ì¤ Ģ
Ġsegu ir
Ġst adium
at ivo
Ġsimpl er
³ ¸
Ġvis a
Ġpath way
Ġnue vo
Ġr ay
ãĥ Ĳ
é ľ
Ã¶ ÃŁ
ĠÐ· Ð°Ð½
Ġcelebr ity
Ð· Ð°
Ġein es
ĠG iven
ĠA ra
ĠJ ob
Ġy ak
ĠAr beit
ress ing
Ã¡ nd
Ġgrab bed
p end
Ġs ine
ir k
ĠÐŀ ÑĤ
ĠF le
ich en
ç ¦
ĠNe il
èĻ Ł
Ġrepe ating
Ġdraw ings
r ise
Ġgl itter
f ive
Ġsur t
Ġsich er
Ġadjust ments
Ġ éĤ£
ipp i
c ke
Ġrepresent atives
Ġmid st
Ġspo il
me ye
Ġtag s
Ġy ep
ĠStephan ie
Ġg ere
ĠR ud
ç ĭ
Ġgr os
Ġque ue
Ġacc ord
Ġorgan isation
end y
ĠTe xt
Ã¼ yor
ĠÃ Ń
Ġconc lus
Ġì¤ Ģë
Ġam p
ĠL ess
ĠëĲĺ ëĬĶ
c ano
ĠP ix
ap ed
Ġdar auf
u o
yn th
ab el
ĠD one
Ġd ick
ath on
Ġh ilar
ac co
ĠìĨ į
ĠO regon
ĠWe il
Ġmathemat ics
Ġal m
Ġpix els
ĠfrÃ¥ n
Ð± Ð¾
F C
Ð½ Ñİ
he im
g os
ĠFor get
f end
ĠVo ilÃł
ĠG reet
ĠÎ± ÏħÏĦ
Ġrec ur
æĶ ¶
5 1
ĠìŀĪ ê³ł
A t
Ġy ards
Ð¸ÑĤ Ð¸
Ġoff set
ro lling
ĠÐŁ Ð¾Ñģ
Ġen light
ĠP ad
lim ited
Ð¸Ð»ÑĮ Ð½Ð¾
ĠS ara
ĠÑģÐ´ÐµÐ» Ð°ÑĤÑĮ
m art
ĠJ ump
Ġad orable
or se
che ering
Ġemp athy
ĠTon ight
or p
ĠHun ter
P oint
Ð³ Ð°
Ġpass enger
ĠK night
Ġseem ingly
h uh
Ġthe atre
Ġto mb
Ġdep ressed
Ġsum mon
Ġsatisf action
do ors
ĠHou ston
Ð°Ñİ Ñī
ĠR io
Ð³ Ð»Ñı
Ġarr anged
Ġhand les
Ġtr illion
Ġnight mare
ĠQu ando
Ġo le
ĠGu ide
oo o
Ġb ile
Ġem pez
Ġ7 2
cri bed
Ġpro gression
ĠLin ux
ë ¦¬
Ġì²ĺ ìĿĮ
Ġfoss il
Ġqu ero
ìĨ ¡
at iva
Ġpu zz
ĠZ us
ãĤ ª
Ġthr illed
ĠC B
Ġmin er
ÑĢÐ° Ñī
ĠS AR
ĠN os
ĠÐ³Ð¾ ÑĢÐ¾Ð´
Ġcam b
ĠÑĤ Ð°
Ġresult ed
ĠD ick
ou ng
Ġcom ics
Ġabs olut
st an
dim ensional
Ġt ense
m us
ĠInt ell
ĠÑįÑĤ Ñĥ
Ġph ases
Ġvol ta
Ġv Ã£o
b ound
ĠAnd erson
Ġcurios ity
Ġp ont
éĢĻ è£¡
Ġdemonst rated
ol ine
ĠSpe ed
Ġm ama
Ġshock ing
Ġk iedy
Ġearthqu ake
Ġimpl ies
Ġent ers
ŀ Ģ
Ġelev ator
Ġdelight ed
ĠM itt
ĠB ased
ĠD ol
Ġk en
Ġworry ing
Ġfil ed
ail and
ĠÐ¼ ÐµÑĤ
Ġmas c
ĠÎ ĳ
ĠJul ie
Ġdim ensional
h uman
T ok
Ã ¿
Ġun st
Ġse ule
Ġemb ar
Ġíķ ©ëĭĪëĭ¤
ac ion
Ġì ī
Ġë¶Ģë ¶Ħ
Ġhe ated
âĢ¦ âĢ¦
" !
Ġreal ise
ÐµÑĤ Ñĭ
ien ia
ie z
Ġf Ã¼h
ĠEs se
Ġp s
Ġd Ã³
as ters
Ġon s
P M
Ġret ro
m aker
wh en
Ġe lla
ĠL iving
ĠL am
Ġtr ong
Ġappro ve
ĠÎ¸ Î±
Ġs ung
ÐµÐ½Ð¸ Ñİ
ĠRem ove
Ã¨ ne
ire n
Ġstr anger
Ð¸ Ð½Ñĭ
Ġv Ã¦
a fter
ot to
Ķë ¡ľ
ĠA hora
m ill
IS H
Ġgradu ating
k te
Ġre nov
Ġprocess ed
ke ys
ÐµÐº Ð¾
Ġen rich
ĠÅŁ ek
Ġin sec
ĠN an
ca kes
Ġill usion
ĺë ¥¼
Ġa irl
im s
Ġan ten
á»¯ ng
s n
Ġprec isa
ê¸° ìŀĲ
ĠØ§ÙĦ Ø¹
Ġfore most
Ġparag raph
av ais
ĠÐ² Ð¾Ñģ
Ġman s
ÃŃ fic
b ot
ĠØ¹ ÙĨ
Ġbr oth
Ġaltern ate
ĠCh apter
Ġve ctors
es ar
Ġindic ation
ĠNe in
¶ ģ
Ġje ans
Y E
c ond
Ġun ited
ab i
ĠSer ge
Ġpart ially
Ġmac ro
æī į
å¼ µ
Ġeth ical
ru it
Ġshift ed
Ġc abe
Ġmathemat ical
Ġr ude
×Ļ ×ķ×ª
ĠM erc
Ġgan ze
ic ion
Ġunc onscious
Ġbur nt
ĠÑĢ ÐµÐ±
íĬ ¸ë
Ġchar m
and al
ì² ľ
oth y
ĠH adi
Ġappreci ation
EN D
ĠrÃ© al
¶ Ħëĵ¤
ĠN ag
ł¤ ê³ł
ĠLa uren
Ġv á»Ľi
ĠBr idge
ĠU mm
ĠWe g
Ġcha que
ĠS oph
Ġg dzie
í ĳľ
Ġst er
ĠB la
Ġreflect s
Ġbench mark
Ð² Ð°ÑĤ
am ine
ãģ¡ ãĤĥ
Ġan h
Ġcontin ent
ĠF DA
ì ¡°
ĠÃª tes
×Ļ× Ĳ
å¼ Ģ
Ġblo ody
ĠN ine
iel t
em and
Ġë³´ ê³ł
Ġtid ak
ĠS cient
ple x
ost en
Ġanim ated
ass a
Ġder ived
ĠÐ¸Ñģ ÑĤÐ¾ÑĢ
ĠM ig
ìħ ĺ
Ġr os
pl us
os aur
Ġ ^
Ġint ensive
Ġglob ally
Ġdif eren
ìĿ´ ê³ł
ä½ł çļĦ
Äħ d
Ġd Ã©s
Ġpresent ations
ĠC ro
Ġess es
ĠBet ween
P a
Ġn aw
à¸Ń à¸ĩ
Ġbre ed
icht e
ĠÐŀ Ð½Ð¸
ĠBuild ing
Ġcon form
M O
ĠÐ ĸ
ĠK id
n as
ĠD ue
r Ã©s
Ġd iox
ĠB in
Ġtax i
Ġs ap
ĠH ub
çĤº ä»Ģéº¼
Ġcenter ed
Ġsur ge
Ġav ons
Ġle arnt
ĠY am
ĠDies e
Ð½Ð¸ ÐºÐ¸
ĠBe ij
W ill
Ġattempt ed
Ġgr ief
Ã³ j
Ġkid ney
Ġoppon ents
æĽ ´
Ġn ome
5 7
ÑıÑĤ Ð½Ð¾
Ġmid night
Ann ouncer
ac ity
on ed
Ġpued es
Ġproblem atic
Ġcop s
ĠP ete
r int
unt ed
Ġb ip
æ ¢
ĠÃ Ģ
Ġc ens
ative ly
Ġ ä¸į
Ġur gent
Ġstrugg led
ach us
Ġmicrow ave
ĠS ide
ĠD enn
ĠÑı Ð²
Ġur ge
Ġfor cing
w ang
ĠÐºÐ¾ÑĤÐ¾ÑĢ Ð°Ñı
Ġm amm
ĠðŁ İ
Ġtri bes
ĠSh adow
ĠS ang
ĠHit ler
Ġl un
Ġsc ent
ì§ ĳ
Ġoverwhel med
Ġbom bs
Ġcr imin
Ġconsol id
Ġmolec ular
×ķ× §
n or
Ġperce ived
Ġv Ã©
Ġalt ogether
Ġor th
Ġve m
Ġz war
iz o
Å «
Ġmelt ed
ord en
ĠCharl otte
ĠEx cel
art a
ìľ ł
ĠG ew
Ġrom ance
ere mos
Ġcolon ial
Ġtradition ally
Ġqu an
ho o
Ġchampions hip
Ġarbit r
ìħ Ķ
ĠÐ¼ Ð¸Ð½
Ġself ish
Ġble w
ry ing
Ġoper ators
Ġjuris d
ı ħ
u ition
ĠE C
ĠAny body
v ate
iet ies
Ġanaly st
´ì ĹĲ
ĠÐ²Ñģ ÐµÐ³Ð´Ð°
Ã§ ek
ĠK un
Ġag ing
Õ ¡
ÑĢÐ° ÑĦ
ĠMom ent
ĠH ua
è ĥ
th en
ÐµÐ» Ð°
est one
Ġend e
Ġaward ed
ĠnÃ¤ch sten
ĠSp ot
ĠN eg
Ġfair y
ä» £
ĠCo ver
Ġdep osit
Ġstress ful
Ġj unk
Ġmet abol
J a
Ġê· Ģ
Ġundergrad uate
Ġcan cell
Ġcons ensus
Ġo so
éĩ ĳ
áº ·
ÄŁ er
r ada
ĠPal ace
Ġped al
Ġex agger
Ġbehavior al
play er
ll es
Ġconnect or
Ġske pt
įĶë Ŀ¼ê³ł
Ġm itt
ĠH aha
Ġpe que
ĠG ott
f ang
à °
j os
Ġkick ing
Ġmount ed
Ġrepl acing
v os
Ġquiet ly
Ġmil it
Ġown s
Ġnive au
Ġa ur
ĠBu y
Ġpredict ed
Ġc ows
Ġpon er
ĠD ri
Ġremark s
Ġrep orter
Ġark adaÅŁ
Ðµ ÑģÑĤÐ¸
Ġsa ves
ĠÃ§ oc
Ġmet aphor
ĠK el
st ation
semb ly
Ġadvis or
Ġworks hops
Ġaccount ing
Ġto k
n ier
in ner
Ġbur ada
ĠB B
ĠOlymp ic
ĠP ract
Chr ist
ĠÑģ Ñİ
Ġk as
Ġview ed
Ġmark ers
Ġf oto
get ic
ĠLuc as
Ġp ads
ĠJ oh
ĠCD U
aff en
are m
ĠBe ck
ĠG osh
sh it
ãģĮ ãģ¨ãģĨ
ĠM ater
abul ary
ĠRo om
ll en
ĠFollow ing
Ġdo it
ball s
ix a
Ġground s
ĠìŀĪ ëĬĶëį°
L S
Ġwild life
ĠS QL
Ġsh ifts
ä¸Ģ é»ŀ
B ook
Ġhost ed
ll or
Ġsn aps
Ġbes oin
Ġ×© ×Ķ
Ġpean ut
Ã¤ ft
¹ ł
ÅĽ l
Aud ience
ĠBarb ara
Ġadopt ion
Ġw olf
ĠÐ¾Ñģ Ð½Ð¾Ð²
ard a
Ġexp ose
Ġì ¦
j as
Ä ĵ
Ġcount less
Ġì§ ģ
he alth
u ent
is o
ot ion
Ġhung er
Ġmo is
off s
Ġclaim ing
ĠÎ ļ
ĠBel g
ĠÐ½ Ð°Ð¹
ê¸°ë ıĦ
Ġun pre
Ġg ed
ĠI o
ĠÐ¿Ð¾Ñģ Ð¼Ð¾ÑĤÑĢ
Ġco ÅĽ
ĠN arrator
ĠÃĩ ok
íĻ ©
à¸Ń à¸¢
ci pl
Ġtim er
Ġdef ic
av in
Ġcateg or
Ġthr ows
ĠëĤ ľ
ĠÐ¿Ð¾Ñģ Ð»ÐµÐ´
ĠTh ai
Ġmas cul
Ġbek ommen
Ġintern ation
ul se
Ġa ye
Ġpo i
Ġpix el
Chr is
Ġst ove
Î¿ Î¹
Ġgener ator
Ġì» ¬ë
Ġacad em
Ġpract iced
Ġaqu est
Ġcontrib uting
ĠI g
Ġ á»Ł
Ġcont aining
Ġwrest ling
ĠÑĩ ÐµÐ³Ð¾
h aupt
Ġess as
vel ope
Ġexcept ional
Y U
ĠApp lause
ric ane
Ġconven ience
ĠÐ´ÐµÐ» Ð°ÑĤÑĮ
Ð¸Ð»Ð¸ ÑģÑĮ
ĠEn viron
8 5
Ġc Ã¢
ĠìķĪëħķ íķĺìĦ¸ìļĶ
ĠM O
ĠP ope
Ġs ah
ob i
Ġmas ters
ain es
Ġbless ings
Ġo bey
Ġfl ux
Ġbr ow
Ġìĭ ¤
Ġpopular ity
ĠL amb
ze ug
ìĻ Ķ
ıĦ ë¡Ŀ
itu ation
Ġaccom pan
Ġdial og
ĠJam ie
åĬł æ²¹
Ġse wing
Ġble eding
Ġb ail
Ġthread s
od ge
ĠSh ang
Ġdeploy ment
ch ed
Ġsatisf y
Ġla z
Ġmiss ile
ĠLink ed
Ġmak ers
ci um
f re
Ġë¨ ¼
Ġë¬ ´ë
ĠEd ge
Ġsociet ies
Ġag ua
Ġsyn chron
¡ ł
un ft
Ġun m
Ġtri ang
Ġin just
t op
Ġor al
k or
Ġíķ ¨
ld igt
ce ÄŁ
qu et
ĠLe o
Ġsa voir
Ġeas tern
ie u
Ġexp ed
ĠÐ¡ Ð¿
Ġunnecess ary
ĠPer form
ĠM ing
ĠÑĢ Ð°Ð²
Ġintent ions
Ġcomp ression
ĠS ac
Î¿ Î»
ars on
Ġtrou ve
ĠMuh ammad
ĠÐ²Ñĭ Ñģ
Ġfin ite
ĠÐ½Ð° ÑħÐ¾Ð´
ug a
ÑĢÐ°Ð· Ñĥ
Ġcelebr ated
Ġconf ess
Ġsqu ares
ĠG ordon
ĠëĤĺ ìĺ
Ġsynd rome
Ġcomplet ion
Ġback ing
Ġdar f
ĠQ uran
Ġintermedi ate
Ġk er
Ġd Ã¼
hes ive
Ġaccount ability
ĠRe becca
èĳ Ĺ
ĠS leep
ĠdiffÃ© rent
ol s
ĠR ice
Ġë³ ¸
Ġantib iot
ÏĦ Î¬
r z
amb ling
Ġsensit ivity
Ġch ron
all as
6 4
Ġfle et
Ġoptim istic
ÑģÐº Ð¾Ð³Ð¾
Ġj adi
a illeurs
ĠEn ough
Ġsen in
Ġpack s
b n
ĠAre a
ĠT ro
¨ë ¦¬
Ð° ÑĶ
ĠTh om
Ġharm ony
Ð½Ð¸ ÐºÐ°
Ġsom eday
IS E
ĠBroad way
la res
ern ess
à¹Ħ à¸¡
ĠT enn
ĠNAT O
ãĤĬ ãģ¾ãģĻ
Ġminut os
ĠK ansas
ĠM ong
Ġcompt e
åĽ Ľ
Ĭ ¤
ĠìĹ Ń
Ġsuper hero
ĠGard en
ĠM os
Ġattach ment
Ġb ust
à¯ Ĭ
ĠTh ailand
st at
Ġsp ice
ĠLe b
Ġle ap
ze ch
G L
Ġver l
Ġfix ing
Ġë³´ë ©´
Ġpor n
Ġb Ã¼y
ĠÙħ Ø§
ĠV irt
ĠT ommy
Ġcar go
ĠOl ha
Ġro ku
Ùĥ ÙĨ
Ġbak ed
Ġtact ics
Ġmarket place
ĠktÃ³ ra
ar lo
Ġswitch es
Ġc ache
ĠH R
ĠG an
ĠG PS
Ġdu as
her es
ÐµÑĢ ÑĪ
tr ack
Ġl ungs
St ation
igg les
Ġcamp ing
åĵ ĩ
Ġcomplet ing
am as
Ġcy cl
Ġprot otype
ĠJud ge
oty pes
Ġinfect ions
ł ¤ë
ÐµÑĢ Ð³
ob a
ĠB od
ĠSecond ly
Ġap ost
Ġso gar
Ġre ass
ie k
æĸ ¼
Ġash amed
Ġcur ves
ĠÐ² Ð°Ð¶
Ġense mble
at ur
Ġphot ographer
Ġeight h
Ġwas ted
ç® Ĺ
Ġd amp
ĠÐ¼ Ð°Ð»
are na
Ġintern ally
Ġhe els
ĠS alt
Ġbl ir
Īë Ĥĺ
Ġcontr ary
Ġprim a
Ġos s
Ġrab bit
Ġaut or
Ġbroad ly
ÃŃ st
Ġback s
íĶ Ħ
et o
Ġj ury
è ±
Ġprost u
Ġbar a
Ġpar liament
or ient
Ð¸Ð» Ð°ÑģÑĮ
Ġind irect
Ã¡ m
ĠÃ¥ r
Ġtra its
Ġd ÃŃas
ÙĦ Ùħ
ĠC T
aly st
Ġli vest
Ġk os
M ay
ĠJ ing
Ġjournal ists
Ñĩ Ð¸Ðº
ar ms
Ġê°Ĳ ìĤ¬
ĠÐ¸Ð¼ Ðµ
ĠÃ© gal
ĠNew ton
Ġrecover ed
Ġbra uchen
ĠBr on
Ð° Ð½Ð¾
Ġp ale
pr ises
Ġhor as
ch ts
éĢ ļ
Ã¿ Ã¿
ak ers
ĠAl aska
zie j
Ġsc oop
ìĿ´ ê°Ģ
ãģķ ãģĦ
c or
Ã©l Ã©
Ġsur g
Ġv iene
ĠKr ist
5 4
Ġb anned
Ġsmooth ly
Ġtreat s
Ġpron ounce
Ġfl ush
Ġcam bi
Ġmusic ian
ĠAsh ley
ĠSP D
ĠBob by
Ġgl oss
res pect
Ġreview ing
Ġgener ic
Æ°á»Ľ c
ats Ã¤chlich
Ġhealth ier
ub ers
ĠÐ´ Ð°Ð½
ĠMedic are
5 3
Ġcomplain ts
j ac
Ġagric ultural
S pe
ĠJ ong
Ġdiox ide
ê² ¨
el ijk
ĠSh it
ain ts
ĠI an
ĠSim ply
ĠSt re
æľ ĭ
ĠG DP
5 9
as z
ĠKat ie
ĠÐ± ÑĢ
Ġpe ek
owy ch
Ġres ort
Ġres idence
Ġsp ices
ci Ã³
Ġjed er
Ġem o
ar ium
Ġp uff
ë§ ī
ÑĥÐ»ÑĮ ÑĤ
Ġmet a
Ġìł Ħë
Ġoptim ization
g ang
Ġíķ Ħ
Ġefficient ly
Ġvis ually
Ġfr ost
ĠAr thur
Ġ Å¼
Ġachie ving
Ġrot ating
Ġl ining
Ġoccup ied
å¼ Ł
ment ation
Ġstretch ing
Ġst all
ost ic
ĠS ever
Ġgl uc
ĠrÃ³ Å¼
Ġout reach
st ra
ik en
Ġìĸĺ ê¸°
ĠJo in
Ġim pe
Ġcompens ation
ĠT at
ĠCar los
Ã¼hr t
ĠFranc is
c ji
ye ah
Ġmembr ane
Ġex hale
Ġrel i
ĠO R
Ġrefriger ator
ĠV enez
L ike
Ġrais es
ott le
at ura
Ġrul er
Ġwe er
Ġgu ided
ĠM agn
ĠCor por
į Ķ
Ġattrib ute
ĠWo ah
Ġarr ows
Ġaw ait
ĠPr im
Ġdign ity
ĠOnt ario
isch er
Ġìĭ Ŀ
im en
ou ver
AS S
á»ĩ n
op y
achus etts
Ġelder ly
åİ Ł
F A
ĠDa ily
sh ine
Ġ5 6
è ¢
ier no
Ġskill ed
Ġgro ÃŁe
ĠO ak
ç¬¬ äºĮ
igg le
ÐµÐ» ÐµÐ¹
Ġbir az
Ġargu ing
ĠÐ¿Ð¾ ÑįÑĤÐ¾Ð¼Ñĥ
Ġdr ift
Ġh arness
Ġdeix ar
aut re
ĠSee ing
Ġcapital ism
ĠE ld
z ione
ĠBe yond
Ġperfect ion
Ġho e
Ġdecl are
Ð°Ð» Ð°ÑģÑĮ
Ġpo ke
Ġ× ¡
Ġfight ers
ê²ł ëĭ¤
Ð¾ÑĢ Ð¾Ð²
Ġaccording ly
ĠIs a
Ġoptim ize
ĠMin istry
Ġsa ge
ìĭľë ©´
Ġben i
Ġdon ation
Ġcle ared
ĠLuck ily
Ġharm ful
µ ì»¤
Ġc ement
Ð¿ Ð¸Ñģ
Ġded i
ĠCra ig
Ġdem ons
Ġcustom ize
Ġign ored
ĠT ian
Ġhop ed
ĠB ureau
Ġr i
ĠY ah
Ġso cket
Ġfeat uring
Ġpar f
ĠT E
ĠTe acher
Ġcatal og
ê°Ģ ì§Ģê³ł
ĠSe ite
Ġcon e
ĠPalest in
Ġgew oon
Ġg aining
ĠØ ¢
Ġcat ast
Ġneighb our
IS T
Ġste aling
Ġtro is
Ġint end
ĠSh oot
Ġp ione
ĠInt el
ĠL IN
Ġbright er
ĠY esterday
Ġs ow
s in
od s
Ġeth ics
Ġinterview ed
re ll
Ġrefres hing
s Ã¥
Ġabs urd
Ġph osph
f il
Ġste hen
v als
Ġcare d
æĪ ĸ
Ġde ll
b one
Ġho ch
Ġp up
Ġi o
Ġaconte ce
ell es
ĠS pl
ig i
Ġt Ã¤n
Ġele phant
Ġg ates
Ġslic es
Ġpr ank
ok rat
Ġhilar ious
ĠS id
ĠëĴ ¤
Ġess ere
Ġtele phone
in ally
r ator
Ġhelicop ter
ĠiÅŁ te
Ġg id
Ġtour ist
Ġconflict s
Ð°ÑĤ Ð°
Ġt Ã©
Ġass ert
Ġlaund ry
ĠB om
Ġspecial ized
ĠMod ern
og raf
Ġan o
Ġret rie
ĠPut in
ĠH AR
ĠÐ¼ Ð°ÑĪ
ĠÎ± ÏĢÏĮ
Ġtut ti
ĠÐ² ÑĤÐ¾ÑĢ
ìĸ µ
ĠB ul
ëĭ¤ë ©´
ÅĤ e
æľĭ åıĭ
ar in
Ġtherap ist
Ġg Ã¥r
ĠC zy
pp e
m ir
ĠT erm
ĠBe ar
l ace
ĠMore over
ĠDis c
Ġíĥ Ģ
Ġtit led
Ġstri ps
ĠF ahr
ĠR ing
rand o
af a
èº «
Ġshort s
Ġtr unk
Ġsent ido
Ïī Î½
Ġac res
Ġover d
ĠOlymp ics
åı «
ĠMer ci
ĠëĤĺ ìĺ¤
Ġg erm
am med
Ġpre gunt
ĠN ut
Ġ< /
Ġtravel s
Ġvoc abulary
et en
od er
Ġconsum ing
wr iting
è¶ ħ
Ġappe aring
Ġadjust ed
se m
Ġf rente
Ġmaxim ize
Ġzw ischen
Ġz am
c onscious
z ek
è°¢ è°¢
ha o
ì²ĺë Ł¼
ĠEp isode
Ġvis ibility
Ġm ijn
Ġviel en
ĠBr others
×Ļ× ĳ
ĠvÃ¤ ldigt
Ġcrush ed
uf en
ä½ł åĢĳ
act ic
ĠB ed
ĠF A
iss ippi
Ġrem ot
Ġp ets
Ġth under
ĠM am
ìķ µì»¤
p arents
Ġb Ä±
Ġsurt out
Ġseg ments
Ġne hmen
Ġutil iz
ĠRub y
Ġr á»ĵi
Ġhapp ily
Ġbus h
ult an
çİ ©
Ø ¸
ĠH il
Ġla wn
Ġeyebr ows
me z
ĠSy d
re p
in f
éł Ń
Ġover head
cz nie
Ġox id
ĠW ol
Ġdestro ying
ĠAdd itionally
umb led
d ep
Ġdep os
Ġcomm od
Ġc akes
Ġtal ents
Ġpour quoi
Ġcont empl
n els
Ð¾ Ñī
ĠArab ic
ĠMary land
çİ ĭ
ow o
ĠP la
ÄŁl um
Ġprop he
ĠRep resent
op ol
acc ord
ĠMe aning
Ġjoint s
Ġbra kes
ck t
Ġ199 9
Ġpublic ation
ĠRe view
Ð¾Ð¹ Ð´
Ġn iche
Ġsignific a
Ġde br
Ġoverl ap
Ġdemand ing
ĠS Ã³
Ġsubsequ ent
Ġquot es
ĠCurrent ly
Ġprevent ing
Ġ1 30
ĠC el
on n
wnie Å¼
ìķ ½
ĠÐºÐ°Ðº Ð¸Ðµ
AC H
Ġg um
ĠIsrael i
ìľ¼ ëĭĪê¹Į
å ¨
ru kt
Ġcl apping
ĠMass achusetts
Ġresil ience
Ġsubscri bing
Ġjewel ry
ge bra
Ġcor rection
bo o
Ø ¦
l io
s am
Ġen velope
k al
ĠF arm
Ġc attle
Ġbr as
Ġrep ent
Ġt ones
os ion
pe ction
Ġden en
È Ľi
ĠMar g
Ġacqu ire
ibl ings
Ġas pir
Ġs ized
Ġal c
Ġvib ration
t il
em in
Ġcorrel ation
Ġsing ular
ĠÐ¿Ð¾ ÑıÐ²
re k
Ġchap ters
mb re
Ġaud ition
Ã§ as
Ġv amp
Ġt es
ĠÑĢÐ°Ð· Ð²
Ġrespect ed
c in
Ġfuck in
ĠÃ¼ber haupt
ĠÐ¿ Ð¾Ð±
Ġal ike
¶ Ī
ro bi
Ã® t
ĠT ouch
an za
Ġfirm ly
ĠGreet ings
sc ale
d ad
Ð°Ðº ÑĤÐ¸
Ġback yard
Ð¾Ð¶ Ð´
G r
ĠST E
Ð¾ÑĢ ÑĤ
ĠhÃ¤t te
ĠFirst ly
ĠO ften
as ures
Ġdraw s
red it
AT E
P e
C P
Ġcompe lling
Ġsubs id
Ġneighborhood s
Ġdipl om
Ġent ender
per ing
a ug
ch at
ÐĿ Ñĥ
ĠDo ll
Ġìł Ĳ
Ġh ose
n ar
Ġreward ing
ĠSo ld
Ġtak i
Ġbl ades
ĠK ath
Ġjog o
Ġsens ation
u ana
p el
ĠRecent ly
Ġpoly mer
ĠU P
-- -
Ġho ver
Ġrul ed
æµ ·
Ġ×Ķ× Ĳ×
Ġaffect ion
ĠÄĳ á»ĥ
Ġb ree
ç§ ģ
ĠL ay
ĠY ong
Ġrece iver
ľë ¥¼
Ġdis so
ĠQ ing
ĠÃ© v
Ġm Ãºsica
Ġaest hetic
ĠB reat
ĠT A
Ġaccur ately
? âĢĭ
Ġw ages
rawd ÄĻ
Ġsw allow
Ġcompl aint
Ġli ed
bec ue
Ġrelax ing
ĠPok Ã©mon
Ġte cn
b ang
³ ´ì
Ġqu ien
Ð½ Ð¾Ð¼Ñĥ
Ġhabit at
.... ..
ab ling
ĠÑĤÐ°Ðº Ð¸Ðµ
Ġbes ond
Ġemploy ed
Ġarri ves
Ġvess els
ĠA x
Ġdisplay s
1 50
olog ie
ĠìĹ Ĳ
Ġcl o
ĠÐ´ Ð¾Ð²
ĠÐŀ Ð´
Ġv uel
èĬ ±
w end
Ġsl ipp
ur p
ĠL ot
Ġbull ets
Ġr age
Ġsk irt
ient es
Ġnh á»¯ng
ĠNat ural
Ġh ind
Ġwork load
m u
íĥ ľ
Ġsun set
Ð² Ð¾Ð»
p it
åį ģ
ĠAS H
Ġë¶ Ħëĵ¤
Ġdown stairs
é Ń
Ġcount ed
Ġn az
×ķ× ¤
ĠPhilipp ines
Ġ11 0
ĠPark er
Ġg itu
Ġinter es
Ġum bre
ĠN ature
Ġj er
en os
Ġpanel ists
Ġco ating
Ġch erry
ĠP ent
ĠM ist
reg ation
Ġv ind
ĠCor ps
ĠM ission
Ġno ble
Ġfon ction
Ġwarri or
Ġprot ests
our i
Ġconstitution al
ÅĤ am
Ġemer ged
Ġd ye
ĠTry ing
ig m
ä¸Ģ ä¸ª
Ã© qu
L O
ĠV erm
er ving
ĠT IM
ĠC i
Ġfree zer
Ġgrup o
ĠSp orts
ĠÐ¿ÑĢ Ð¾Ð³
ĠÙĦ Ø§
other ap
iff any
b ian
Ġrank ed
Ġpropos als
ĠÄĳ Ã¢y
Ġfree zing
Ġinsect s
v il
Ġcomp ost
çİ °
Ġse mana
Ġdistingu ish
Ġfacil itate
Ġplus ieurs
Ġver g
Ġalgun s
ĠTik Tok
ĠEx press
Ð¼ ÐµÐ½ÑĤ
S U
Ġint imate
ĠAut hor
Ġwitness es
Ġkal au
Ġargu ed
Ġavo iding
ct ive
Ġpurs uing
Ġsy ll
Ã¡ vel
ĠAtl anta
ĠUt ah
ĠT ill
Ġer f
Ġ20 22
Ã¤ ter
Ġfun eral
ĠFl ash
ĠAtl antic
Ġge le
ì¦ Ī
Ġmort gage
ĠëĦ ĺ
lic ht
Ġamb itious
ĠBeij ing
Ġd iving
Ġun box
ill as
Ġot ras
Ġev ac
Ġmar ine
ĠÑģÐ¾Ð· Ð´
ĠCre ate
Ġg j
Ġfrequ encies
ing ton
ĠRom ans
Ġaim ing
ĠB uff
Ġem peror
ĠMo i
Ġprom ising
ãģ ľ
Ġalg uma
Ġpas a
Ġdis orders
S I
Ġsucceed ed
Ġcuer po
Ġsod ium
Ġst ub
he iro
Ġdelay ed
et era
t w
Ġsyn c
h d
Ġtour ists
Ġsy st
Ġm Ã©t
Ġqual ify
ĠO thers
ll ers
Ð°ÑĤÐµÐ»ÑĮ Ð½Ð¾
ĠÐŀ Ð½Ð°
Ġperce ive
Ġê² Ģ
Ġê°Ģ ìŀ¥
ĠÐ¸ ÑģÐº
ĠM atter
ĠBl uetooth
Ġpe arl
Ġar ise
Ġmon ument
ĠÐ¸Ð¼ ÐµÐ½Ð½Ð¾
ag i
ÙĦ ÙĬ
Ġr ho
Ġsm arter
Ġcon j
Ð¾Ðº Ð°
Ġke en
ĠT reat
Ðº Ð»ÑİÑĩ
Ġpack et
els ius
ĠAl ab
Ð¸ Ð½Ð¸
Ġp si
Ġenjoy able
ĠEll en
ĠÐ² Ð¼
Ġelimin ated
ĠR ow
Ġzomb ie
ĠK u
Ġphr ases
Ġg ren
ut er
Ġdire kt
× ĸ
en en
us a
ĠÑģÐ» Ð¾Ð²
Ä °
ĠG h
Ġcor rid
Ġque er
ĠL inda
Ġon a
Ġoblig ation
d ar
ĠØ µ
em ment
ac ies
Ġscrew ed
Ġn ak
Ġay ud
ä¸ Ķ
Ã¡ r
le z
Ġdr own
ĠMedic ine
Ġlab s
Ġjus qu
ĠG onna
Ġterror ist
qu est
Ġfar ther
Ġrepl ied
ĠS W
ĠMiss issippi
ish na
Ġhold er
Ġre ign
Ġaccept ance
Ġu l
¶ Į
ĠHot el
ĠCo oper
t an
ĠG rab
Ġv apor
Ġact ed
ĠK ang
f an
ĠìĿ´ì ĥģ
çĶļ éº¼
ut et
Ġword t
Ġfar ms
d at
Ġcou ples
Ġbe ads
ient os
Th en
ä¿ Ĥ
os ity
ĠStan ford
. -
W ait
Ġdat as
o ire
Ġhasht ag
im me
Ġencounter ed
Ġshout ing
Ġresist ant
ĠSe ung
Ġtra gic
ĠD raw
, ,
Ġshow case
ĠA F
ĠSt ri
Ġback ed
ĠÑĥ Ð³
ĠÐ±ÑĥÐ´ ÑĥÑĤ
ĠCo le
e urs
( ?)
Ġesca ped
AS T
ĠAs sembly
Ġstick er
Ġmie ux
Ġentertain ing
ĠD ON
ĠAm end
ĠK arl
Ġin hib
s st
ie g
~~ ~
Ġhook ed
Ġliter al
Ġsun ny
st eps
Ġë° ľë
ĠMar ine
Ġsu e
Ġprison ers
ĠE b
5 8
Ġdr ums
Ġgu ilt
al g
Ġhapp ier
ĠC M
ĠìķĦëĭĪ ìķ¼
ĠÐŁ ÐµÑĢ
Ñĥ Ð»Ñı
Ġkey word
ĠPar ce
ĠFore ign
ĠAm anda
ç¥ ŀ
Ġëª ©
pl ess
Ī ¬
Ã³ mo
Ġqual quer
ìĿ´ë Ŀ¼ê³ł
Ġconspir acy
Ġstraw berry
Ġhat ten
E s
Ġsp os
Ġvill ages
Ġle v
ĠÑģ ÑĢÐµÐ´
Ġw aking
Ġcalcul ations
ĠÙħ Ø¹
Ġpour ing
Ġleb ih
Ġpol ish
ĠT out
Ġfun ktion
Ð¼ Ð¾
ĠT i
Ġwas ting
ist ically
Ġmanip ulate
Ġsimpl ify
Ġteam mates
ĠÐ± Ð¾
Ġcont am
ĠQu ite
Ġkur z
ĠC and
ty pe
outhe ast
Ġfinan cially
Ð¾Ð» Ð½
els on
Ġfore head
u age
na udible
ĠBeh ind
Ġnegoti ations
Ġë§Ī ìĿĮ
Ġaltern atives
r ank
hold er
æĩ ī
Ġhe aled
ÑĤÐ¾ Ñĩ
ĠSpe c
ä» ¶
ä»ĸ åĢĳ
Ġexhib it
Ġshall ow
Ġgo b
Ġë ľ
Ġfrust ration
ÃŃ o
Ġmel ting
ĠSt orm
Ġpat ent
ĠBar cel
Ġped est
ÙĪ Ùħ
Ġt ai
ĠM ode
Ġw il
Ġëª¨ë ¥´
ĠÃ©gal ement
éĤ£ éº¼
Ġ×Ĳ× Ĺ
ay an
Ġam azed
ì§Ģ ëĬĶ
Ġha ciendo
ĠìĿ´ì ķ¼
Î» Î±
à¸ Ĥ
ÐµÑĤ Ð°
Ġexam s
Ġtrave lling
P ress
Ð¸ ÑĢÑĥ
Ġbas eline
Ġbus es
Ġrein for
ven ant
ĠTr uth
Ŀ ½
o be
Ġye ll
Ġsaus age
T F
ĠEv il
Ġme iner
×Ļ× §
Ġhope ful
ĠrÃ³ wnieÅ¼
ĠPer Ã²
t wo
nd er
ĠÐ¼ Ð¸ÑĢ
Ġcons cience
ĠWar ren
ick y
Ġaim ed
ĠgÃ¶ ra
X T
Ġpy ram
R ed
éĽ »
at u
ĠEst a
Ġearning s
Ġh ats
ĠSt adt
ick et
point s
in ander
Ġmotor cycle
Ġëı Į
Ġíķ´ì ķ¼
k om
ĠD ing
æ Ĵ
Ġrec urs
Ġestim ates
Ġder ni
Ġvers ch
ãģĿ ãģ®
ĠM IC
Ð¸Ð² Ð°ÑĤÑĮ
ĠÐ¿ÑĢÐ¾ ÑĪ
Ġd ost
ĠÐ² ÑģÑĤÑĢ
Ġw iel
Ġs iblings
ĠÐ´ ÐµÐ²
Ġear liest
Ġfat igue
Ġn hi
Ġgust a
Ġbon ne
æľĢ å¾Į
f rom
ĠJen ny
Ġsupposed ly
int age
Ġcount ies
Ġun re
Ġplant ing
ĠGr ac
ĠGen esis
ĠAl pha
ys z
Ġt ile
Ġê²½ ìļ°
Ġ×Ļ ×©
qu el
Ġdistrib ute
de f
Ã© ral
Ġcl utch
adel ph
ĠPlay Station
Ħ ¸
Ġs j
bre aking
ĠëĲ ĺë
ĠC uba
ĠRuss ians
ĠMAR K
Ġper se
Ġrestrict ed
ig es
ĠTra vel
Ġelectron ics
Ġquar ters
ĠKe ith
s ized
Ġdead line
aren th
ĠvÃŃde os
Ġprotocol s
am ment
ĠTra ining
ĠÃ ¢
Ġsequ el
Ð½ Ð°Ðº
Ġke inen
Ġmatt ress
lud ing
Ġclass ified
Ġreact or
ĠK ont
Ġpass ar
Ġhon our
or ig
IN A
ĠN athan
Ð² Ð°
ĠÑģÐºÐ°Ð· Ð°ÑĤÑĮ
t Ä±r
Ġexclus ively
Ġsh ades
ĠÐ¿ÑĢÐ¾ ÑĨ
Ġoccas ions
ij a
çļĦ æĻĤåĢĻ
åİ ²
æħ ¢
f ig
Ġt us
Ġrem em
ĠChrist opher
Ġsl ime
Ġalg una
ĠF ortunately
Ġl ors
v oll
a ver
Ġout let
ĠLinked In
ĠExec utive
Ġorg ans
ĠBe gin
ĠíĻ Ķ
Ġtrans plant
ra gen
V O
ĠF Ã¶r
ĠØ¨ Ø§ÙĦ
ĠAnd re
is ine
Ġlast s
Ġhist Ã³ria
Ġl uz
Ġcoll ar
Ġkid na
Ġopt ical
io v
Ġto b
Ġex terior
Ġmet ric
ie ur
Ġt roll
ĠÑĢ Ð¾Ð·
æĺ Ł
Ġt Ã´
ĠìĺĪ ìģ
ĠGes etz
ĠÐµ Ð´
Ġdenomin ator
ì ³
Ġlet t
åħ ī
Ġgr Ã¶ÃŁ
é¡ ĺ
ĠL uther
Ġrest e
Ġrese mb
Ġperm et
ks i
Ġf isher
ãģŁ ãģĦ
ĠV on
íĶ ¼
ĠÏĥ ÏĦÎ¿
Ġlo cks
Ġsho ots
Ġkam u
ĠK er
ĠO bs
çĿ Ģ
Ġb ili
Ġë° ±
Ġtort ure
ass y
ĠÐ¸ Ð³
Ġlast ing
å¥½ çļĦ
Ġtien es
Ġrece ives
ĠOsc ar
Ġremember ing
Ġproblem as
Ġ ia
åĺ Ľ
Ġmemor able
Ġjour s
Ġfa Ã§on
am ic
Ġë´ ¤
at ique
ĠëŃ Ķê°Ģ
Ġz ip
h alt
ĠðŁ ĺ
Ġfr ies
Ġfind en
g ra
ÑĢÑĥ Ð´
im port
Ġëĭ ¬ë
Ġi ki
Ġcompl aining
Ġfaz endo
Ġgo ogle
Ġtab s
Ġëĵ¤ ìĸ´ì
ãĤ ¦
ug o
ier to
au fen
Ġë¨¼ ìłĢ
Ġskull e
Ġsu iv
Ġsp y
ĠK ai
éĤ£ åĢĭ
Ġmart ial
Ġon der
èª °
at ility
Ġirgend wie
Ġcl ap
int ell
Ġinstall ing
Ġun iqu
ĠCent re
ast s
u ar
Ġrev is
Ġthreat ening
ra is
Ġcu id
s ka
Ġresol ved
Ġr ides
Ġfail ures
Ġse mb
Ġmal es
U FF
å¾Ī å¤ļ
Ġtr Ãªs
app ed
Ġnewsp apers
ri et
Ġapplaud s
Ð ĵ
Ġãģ ¯
ĠN C
åį ĥ
æĻĤ éĸĵ
Ġh eter
Ġhaz ard
Ġr y
Ġstrict ly
Ġ5 4
Ġëĵ¤ìĸ´ ê°Ģ
Ġsp ont
Ġt atsÃ¤chlich
Ġë§Ĳ ìĶ
la ub
Ġabsor bed
acaÄŁ Ä±z
Ġon u
ĠÐĲ Ð½
Ġexplicit ly
Ġìŀ ¬
ĠFut ure
acht en
Ãł o
y on
Ġser ia
ĠHer ren
ce j
ĠAl bert
ìĿ´ ëĬĶ
ect or
Ġpack ing
Ġvirt ue
Ġven ir
D D
Ġy az
Ġlog s
ĠPhot oshop
Ġs id
l ings
Ġremot ely
ĠD ifferent
Ġoper ated
light s
Ġdisc rimin
ist ance
ĠG RE
Ġpl ac
Ġsh irts
Ġjust ify
Ġtrabal ho
ut il
v oc
Ġqu art
ĠÎ ¤
S C
ĠS R
Ġ- "
Ġhes itate
Ġp ak
èĩ ³
gu a
J o
Ġsou vent
ĠAng ela
esse e
adelph ia
ark s
Ġwe ed
Ġkann st
åĤ Ļ
Ġê·¸ëŁ¬ ëĭĪê¹Į
Ġplut Ã´t
ĠComm ander
Ġsummar ize
à¯ Ģ
Ġ9 8
ãģ ĩ
Ġdevelop ments
ĠC ost
Ġtheoret ical
Ġo re
Ġmet all
Î¿Ïħ Î½
f ahr
Ðļ ÐĲ
Ġch uck
Ġadapt ed
ĠOk lah
ĠNether lands
Ġpo et
st o
k at
Ġwe ars
ç ¯
Ġìĸ´ë ĶĶ
ĠEst o
Ġlaugh ed
Ġdon ner
Ġë į°
ĠìĽ Ĳë
oc ur
ĠK ick
ĠDet roit
Ġbicy cle
Ġlack ing
ph abet
ĠK end
A ss
Ġreve als
ĠÎ ł
ĠNo ah
¦¬ ëĬĶ
Ġsell s
ĠAlab ama
Ġterr ific
ĠE lement
Ġí Ĩ
Ġtur bo
ĠH om
Ġtheore m
Ġadvent ures
Ġpurch asing
ĠT Ã¡
ĠÐ¼ Ð°ÑĤ
Ġve mos
Ġd uties
Ġwen ig
Ġbo oth
Ġent rar
V A
Ġge ars
ĠJa e
Ã¨ n
Ġcal cium
ĠRober ts
ĠÐ¿ÑĢÐ¾Ð± Ð»ÐµÐ¼
Ġrib bon
ĠÐ½ Ð°Ð·ÑĭÐ²
Ġla v
Ġinter ventions
ĠUlt ra
Ġnam ely
Ġadequ ate
Ġre cap
Ġdo ck
f ting
Ġvo i
Ġconsult ation
ĠÑģ ÐµÐ¼
Ġpod em
Ġposs ession
Ġcl ues
ĠRus sell
Ġrenew able
åİ² å®³
ĠÑĥ Ð·
in formation
igg ers
W ith
wn o
Ġelabor ate
ctor al
ĠD ow
Ġram en
æı Ĳ
á» ķ
Ġer ste
ĠZ el
ãĥ Ĺ
Ġqu asi
ĠÐ½ Ð°Ðº
ç§ Ĵ
ĠSt ars
Ġtri bal
Ġse ated
Ġw ol
Ġch ol
Ã¤m Ã¤
Ġout break
Ġc res
Ġunser er
Ġí ĳľ
Ġunder water
Ġass ure
OO D
Ġnap rawdÄĻ
Ġestablish ment
Ġinc on
Ġdifer ente
Ġex cus
ĠD im
Ð¾ Ñħ
ĠL ing
ro log
Ġãģ ¾
Ġout doors
na j
Ġepid emic
Ġun ters
Ġ3 000
ĠGab riel
ĠìĹĨ ëĬĶ
Ġenc l
ĠO der
ĠF oot
p as
ĠZ uk
åĵ ¡
Ġwork flow
Ġun p
Ġall iance
ens chaft
Ġyog urt
Ð¸Ð½ Ðµ
Ġer u
Ġf iz
äº Ķ
Ġa ÅŁ
Ġap rend
Ġcual quier
Ġcarr ots
Ä±n Ä±n
af ood
Ġflo ors
Ġkey words
Ġsp otted
Ġdr ank
Ġpar as
ĠÃºlt imo
Ġhab lar
Ġprose cut
ìĹĲ ëıĦ
éĸĭ å§ĭ
ĠÃ© p
Ġstick ers
Ġpush es
k h
Ġrest art
ĠTh under
á» Ŀi
Ġmuit a
Ġfo x
arde ÅŁ
ĠZ ach
ĠMine craft
ç ¸
Ġ== ==
ĠgÃ¶ re
Ġst ance
ig ung
Ùİ Ùĳ
k Ã¤
Ġteaching s
é Ĩ
Ġdec ay
Ġr ic
om ena
ĠÐ²Ñģ ÐµÐ¼
ch ten
ĠV ert
Ġíķľ êµŃ
¬ ´ë
Ġco c
: )
ke iten
ĠB A
eth eless
Ġhead quarters
Ġsp ike
ĠB ase
Ġ10 1
Ġcoordin ates
Ġt ard
Ġbo iled
ĠMon ster
Ġnote book
Ġê´ Ģ
ĠW ake
ĠSet ting
ìĿ´ì Ĺ
ĠSyd ney
ĠFin n
Ġlob by
å¾ ŀ
Ġsen iors
Ð½Ð¸ Ñħ
av an
ĠJ E
Ġtra ff
th ink
Ġsl ap
ĠCast le
© ng
Ġalgun os
ĠPerson ally
ĠM ale
íĭ °
ĠGener ally
ĠP el
Ġdi as
Ġevol ving
it ol
Ð² Ð¾ÑĢ
Ġple in
Ġfl ights
Ġele ven
owe j
á»ĳ ng
Ġa ku
Ġgl ance
Ġconnect ivity
Ġbal d
Ñĭ Ñĩ
Ġint est
Ã¡ g
ĠGR Ãľ
ibl ical
ĠP apa
Ġp ity
Ġf aint
Ġwur den
Ġleg ally
Ġpre y
ĠSci ences
ĠÐ¿ÑĢ Ð¾Ñģ
Ġtrain er
Ġprobl Ã¨me
Ġkil o
Ðº Ð¾Ð³Ð¾
Ġbrid ges
8 9
Ġlast ed
Ġeleg ant
b ows
Ġpal ab
Ġdirect ory
ä¸į æľĥ
Ġbul b
pe ople
I X
Ġge b
Ġ6 6
ĠTenn essee
ah len
ie val
Ġca ut
ĠDam en
pl o
ian e
Ð°Ð» Ðµ
att an
ĠØ§ÙĦ Ø³
Ġrisk y
Ġslee ve
Ġinc idents
Ġë° ķ
C o
Ġapplic able
Ġimper ial
ĠPhil ip
ĠYe a
ÐµÑĢ Ð¾
ĠÐ¿Ð¾Ðº Ð°Ð·
Ã¼ ne
ìĺ Ģ
H ub
t or
Ġsig u
c end
Ġpolit ically
ĠìĤ ´
Ġp ars
Ġou v
Ġprime ira
ĠSh ah
Ġsat ur
Ġcomb ust
Ġpromot ed
ì£ ¼ë
æĢ ķ
Ġtempl ates
Ġëĭ ¬
Ġha ul
ĠÑĤ ÐµÑĢ
Ġsl iding
ced ented
Ġãģ ®
child ren
M R
ĠWe i
Ġb Ã¶r
æĹ ©
ĠprÃ³xim o
ar ÃŃa
Ġsam pling
ÐµÐ» ÐµÐ½
es i
ĠDan ielle
ĠOklah oma
è ħ
çķ Į
ÐµÑģ Ð¿
ĠDV D
ĠÐ²Ñĭ Ð¿
r ous
c ons
Ġenhan ced
éĽ £
Ġpast or
ĠSud denly
è® ĵ
f ar
P ER
ĠN g
1 000
Ġche w
Ġrum ors
ĠA na
Ġann Ã©es
ĠÑĥ ÑģÑĤ
ĠPhil adelphia
åĹ ¯
ÐµÐ¶ Ð´Ñĥ
Ġeffect iveness
è¿Ļ æł·
Ã©t Ã©
Ġd ing
Ġrelig ions
Ġag ed
zie Äĩ
ĠR ic
ĠK ap
ĠP age
Ġs Ã¼
ĠnÃ¤m lich
Ġman kind
Ġrest ing
Ġinflu ences
ĠSch ul
ĠÐ½ ÐµÐ²
Ġman a
Ġconsum ed
ĠP om
ç¾İ åľĭ
Ġconsegu ir
ĠThanks giving
ĠHind u
la is
Ġth rive
Ġcont our
Ð°ÑĨÐ¸ Ñı
Ġfal ando
ĠJ Ã¡
z an
Ð¸ÑĤ Ñĥ
ip her
j amin
ĠHall o
Ġ16 0
ĠÐ¾Ñģ Ð¾Ð±
Ġmet e
Ġìķ Įë
ĠBarcel ona
let ter
ĠÐĿ ÐµÑĤ
å Ļ
Ġad emÃ¡s
Ġcoord ination
un ts
Ġsl op
ĠÐ¿ÑĢ Ð¸Ð´
ì§Ģ ë§ī
Ġquestion ing
Ġdies el
Ġde j
Ġaff irm
įĶëĿ¼ê³ł ìļĶ
ien ne
Ġcr ank
Ġpredict ions
Ġphys i
ch sel
Ġcomb inations
Ġex cellence
éĢĻ éº¼
á» Ŀ
wid th
we ed
Ħë ¥¼
Ħë §Ī
Ġal to
Ġda iry
ĠNorm al
pp en
Ġob en
Ġdevast ating
Ġpo z
ĠH us
m az
Ġwarn ed
Ġden k
ĠA uss
Ġtrad es
he ll
Ġprim ero
Ġm ia
Ð² Ð°ÑĢ
Ø¨ ÙĬ
Ġkick s
Ġa ÄŁ
ĠM Ã¼
Ġl uc
ÐµÐ½Ð¸ ÐµÐ¼
ĠStand ard
r ice
ĠC ub
Ġg ou
ĠJo Ã£o
Ñĥ ÑģÐº
Ġen qu
£ Į
ge w
Ġíģ °
ow ania
ian i
Ġf akt
Ñı Ð½Ð¸
Ġbe f
Ġthumb na
Ġce ux
æŃ¡ è¿İ
app le
N EN
Ġg ad
ap on
ĠFant astic
Ġconcent rated
g irl
l ene
ĠÐĶ Ð»Ñı
ĠÃ© ta
a an
Ġout ta
Ġnar c
ĠB ody
br ush
Ġlegisl ative
ĠMeg an
Ġmist aken
ĠMiss ouri
Ġlabel ed
Ð»Ñı ÐµÑĤÑģÑı
Ġreal ised
y orsun
ãģĤãĤĬ ãģĮãģ¨ãģĨ
ĠSaf ety
Ġacceler ate
Ġsan ctions
Ġpe e
Ġj uego
Ġpe ppers
Ġw al
ê¸ ī
ell ow
ĠÐ¶ ÐµÐ½
Ġcin co
ĠÑģ Ð¸ÑģÑĤ
co very
Ġgr am
ĠÃ© po
ĠBM W
iv ol
ĠCh em
çļĦ è©±
use ment
ĠSupp ose
Ġê°Ģ ì§Ģê³ł
Ġmill enn
ĠT un
Ġmed al
Ġha cia
Ġstimul us
Ġbright ness
a ient
ĠH ands
in et
Ġcoal ition
åŃ ¸
Ġris es
r ina
Ġsc oot
Ġ ãģ§
Ġdef ending
Ġin vers
Ġh ills
Ġfulf illed
åĪ° äºĨ
ll ie
Ġad oles
ĠCh ase
åĸľ æŃ¡
ĠJ J
Ġne uen
ĠT ru
Ġinher it
Ġsixt y
ĠEx p
ĠCl ay
Ð¾Ñģ Ð¾Ð±
ar na
ĠImper ial
ĠÑįÑĤ Ð°
Ġso cially
at y
ody nam
Ġrib s
om ic
ĠT ol
Ð¾Ð» Ð¶
Ġ199 8
Ġfr am
Ġrank s
ĠÐ±ÑĥÐ´ Ñĥ
ĠCol on
H z
Ġaccommod ate
Ġexpl ode
íĦ °ë
HA EL
ĠH art
ĠÐ¶Ð¸Ð· Ð½Ð¸
æ ¡
Ġdel icate
ł ×Ĺ
Ġto fu
Ġachieve ments
ĠS or
Ġagre ements
Ġ5 7
Ġt amp
Ġfr anÃ§ais
Ġher bs
c orn
Ġkon k
AN A
ĠQ i
ĠprÃ³ p
Ġt iger
Ġëĳ ĺ
Äĥ m
Ġapp rent
ah an
Ġrul ing
Ġt sp
Ġtw itter
Ġteen ager
b us
Ġí Ĵ
ĠAmend ment
Ġt apping
ĠAP Is
åł ´
Ġmatch ed
ë ©´
W A
ĠBeaut y
Ġinevit able
Ġg ases
ĠÙ ¾
h igh
ĠO pt
Ġpred omin
Ïģ ÏĮ
Ġtub es
Ġìķ ł
ĠA a
Ġ æľī
omet own
ĠI M
Ġdes ar
Ã¤ ren
ĠÐ¼ Ð°Ñģ
ĠM Ã¶glich
Ġrent al
Ġíķ¨ ê»ĺ
ĠD iana
Ġaut ism
ĠPu erto
Ä± ld
Ġfal an
Ġdream ing
Ġg ute
ĠÐº Ð°Ð¼
Ġw reck
Ġstoryt elling
ĠLeg end
ĠUk rain
ĠÐ¿ÑĢÐ¾ Ð¸Ñģ
ĠS K
Ġíĸ ī
ĠÅĽ wi
ĠBel ieve
Ġmost rar
ĠTod d
ĠN iger
ic ting
h ard
: //
ir able
ig ation
ĠMem bers
Ġìłľ íĴĪ
Ġdisc our
Ł ½
ri ka
ĠD N
ĠF if
ĠCap ital
ÑĢ Ð¾Ð¼
ĠS ans
y un
Ġpil ots
Ġtr at
Ġn yt
Ġë ¯¼
Ġexpon ential
Ġemer ge
Ġtraject ory
ĠÐ¿Ð¾Ñĩ ÐµÐ¼Ñĥ
Ġse aled
att i
Ġw ides
ĠÐ¾ Ð³ÑĢ
ian ces
Ġwitness ed
O r
os i
ĠJo el
on al
èģ ½
ĠInt e
ced es
ĠGot ta
an ium
Ġfem ales
ĠLeb ens
Ġmoist ur
ĠSim ple
ĠDo ch
ar Ã¡
Ġg esehen
US T
Æ¡ i
Ġclass ification
Ġdiagon al
Ġperm ett
com p
ĠØ§ÙĦ ØŃ
ĠMal ays
Ġgeh Ã¶rt
Ġpop ped
Ġcontact ed
Ġ×Ľ ×ľ
Ġ14 0
Ġadapt ation
Ġman us
Ġtur key
Ġpre ach
br ight
Ġdown s
Ġunpre cedented
Ġmight y
Ġc ater
itt i
g s
ĠDep uty
wr ite
ĠB less
Ã¡ c
Ġsum mit
Ġëı¼ ìļĶ
Ġthought ful
Ġsh red
s inging
ĠÐ»ÑĥÑĩ ÑĪÐµ
Ġy en
Ġvibr ant
ĠWal ter
Ġhost s
Ġamb ul
Ġinv asion
og an
Ġreason ing
Ġsu cc
Ð» ÐµÐºÑĤ
Ġfal a
Ġk ings
Ġgo in
Ġcal ib
ĠGRÃľ NEN
ot er
Ġein z
Ġins ulin
Ĭ ¨
Ġsc aling
ĠC orn
hy d
Ġmat te
P L
Ġali ens
ĠSe g
è¯ Ŀ
est i
ast ics
Ġwar mer
Ġing en
ĠM L
Ġro de
ĠE ye
be its
ĠB arn
Â» ,
ĠCh uck
Ġprofit able
ugu ese
ĠArab ia
Ġco co
Ġpued o
Ġinflamm ation
cl ip
Ġtables poons
Ġìł ĳ
ĠSw ed
Ġan at
ìĪ ł
Ġar rib
Ġdan cer
ĠCar ter
Ġmagn ific
st ore
éģ ¸
Ġf ade
Ġaccomp any
Ġw ahr
Ġye ast
Ġmin eral
Ġlegisl ature
ä½ ı
ir os
Ġcrowd ed
ÑĢÐ° ÑĪ
oc ado
ìĸ´ì ķ¼
ĠíĽ Ħ
ĠBar ry
m aster
Ġnick name
Ġ" ...
ĠR s
ĠMo ore
Ġven ue
ĠÐ± Ñĥ
ãĥ ¡
li hood
ĠA gency
Ð» Ð¾Ð²
Ġk ah
ĠìĨĮë ¦¬
Ġm arsh
Ġincorpor ated
ant wort
Ġkim chi
Ġw oo
Ġdistract ed
er ies
Ġinform aciÃ³n
ĠCho ose
ĠJ adi
Ġanal ogy
s ay
uff le
b ok
Ġac ids
Ġacquis ition
Ġvari ants
èµ· ä¾Ĩ
Ġpass iert
ìĿ´ë Ĥĺ
ruct ive
br ig
Ġ ãĢĮ
ep her
Ġp H
ut lich
å· ®
Ġrel ie
u ite
Ġre ception
Ġco h
ĠPre p
Ġanticip ate
æĢ §
ke e
Ġdesign ated
Ñı ÑĤÐ¸
ĠK or
ĠAn im
Ã¼h l
ĠWh it
Ġun cover
ĠMay a
ĠÑĤ Ð¾Ð³Ð´Ð°
° ķ
uten ant
Ġìĸ ¼ë
Ġforest s
Ġmem e
Ġdistingu ished
ĠMar x
ĠL ion
Ġserv ants
ĠD iam
çķ¶ çĦ¶
ĠPol icy
į ¼
Ġtrigger ed
abil ir
ĠìĿ ĳ
Ġnegoti ate
Ġfe z
Ġer w
Ġvar ies
Ġj emand
Ġdis charge
ÑģÑı Ñĩ
ĠP AR
ĠAff airs
Ġvot er
Ġat en
Ġcro is
ob il
ĠO ops
ĠAr c
ĠHe ather
ank a
Ġsim ples
Î¿ Î½
" >
Ġch ords
ĠSand ers
Ġë¶ Ħë
B en
Ġdar Ã¼ber
ili ans
Ġorder ing
ĠMan h
Ġkil ogram
Ġkar ÅŁ
Ġgr asp
Ġghost s
al en
ĠJ edi
ĠÐ± Ð»Ð¸
Ġdownload ed
Ġconduct ing
ĠH ak
Ġresearch er
il an
go od
ĠH annah
ĠdÃ¼ÅŁ Ã¼n
ĠMess iah
u ity
ion a
Ġprob able
ĠY E
Ġindepend ently
Ġbuff er
b urn
our d
ĠMc K
Ġl ingu
uj emy
ÐµÑĢ ÑĤ
Ġintuit ive
Ġcrack s
app ropri
nt y
Ġge en
Ġl end
Ġcert ification
ID S
un ter
pe es
Ġtr ump
Ġbank rupt
Ġfe as
è Ĺ
Ġdu Å¼
æ¸ ħ
Ġvirus es
Ġ5 8
g od
ĠÐ¶ ÐµÐ»
Ġst alk
I nd
ach i
ĠC F
ĠC ond
Ġsan ct
Ġcont en
Ġfre ed
ĠR T
Ġment ors
ì¡ ±
Ġport able
ĠPaul o
r ane
HA HA
ĠS ection
ç Ĩ
hy un
ĠÎŃ Ïĩ
ĠP ub
ĠInd epend
Ġcomp ounds
ĠÑģ Ñĭ
Ġmess aging
Ġded ication
Ġnot icing
Ġdevot ed
ÑİÑĤ ÑģÑı
Ġsn akes
Ġbattle field
p ers
Ġdel a
9 2
Ġha i
ill Ã¤
Ã©r er
e very
Ġrespons ive
×Ļ ×ķ
op f
é ī
Ĭ ¸
Be cause
Ġtour ism
Ġê·¸ ê²Į
×ķ× ¦
Ġcan s
st Ã¼t
Ġdon ne
ĠD ios
ĠU ber
act ory
Ġorient ed
ĠH erm
Ġpat ron
ur f
be i
Ġprogram a
ĠOh h
gen er
Ġf ist
ĠW endy
Ġand a
Ġguess ed
Ġfre ak
ä¸Ń åľĭ
ĠK ings
ch ool
Ġoff line
ĠIndian a
ĠAll iance
Ġ5 3
Ġpartic ul
ĠF ocus
Ġinhab it
Ġê°ĻìĿĢ ëį°
ĠMc G
ows ki
ĠìĿ´ ê±´
Ġpa ÅĦst
Ð¾Ð½ Ð¸
itt a
Ġconfirm ation
ĠBrook lyn
Ġnood le
f und
it ud
Ġgrand parents
Ġbar becue
ÎµÎ¹ ÏĤ
Ġ á
Ġball ot
ĠV eter
Ġpip es
ig ious
ĠG raph
est ed
Ġë¸ Įë
ĠK E
ãģ¡ãĤĩ ãģ£ãģ¨
Ġe ins
Ġhat red
ãģĳ ãģ©
Ġd ang
ee ee
Ġarch ae
ĠJes se
Ġdetect ed
Ġsen i
burg h
Ġdispl acement
Ġdo p
Ġcondition ing
ĠÐ½Ðµ ÑģÐºÐ¾Ð»ÑĮÐºÐ¾
Ġdistur bing
P H
Ġthin ner
Ġwound ed
ĠCu ando
Ġcush ion
Ġwh ites
Ġprefer ences
Ġì¤Ģë ¹Ħ
Ġka Å¼
ĠG ate
ĠP ath
d les
à¸Ħ à¸£
im ore
Ġë³´ìĹ ¬
Ġdiscipl ines
á» ı
Ġmes ma
Ġìĥ Īë
Ġìĭ ¬
Ġg ing
Ġumbre lla
IGH T
Ġp ension
Ġcomb ining
S S
Ġrect angle
á»ĩ t
Ġpro xim
ĠC ow
¸ Į
Ġintention al
æķ Ļ
Ġdec id
ĠÑģÐº Ð°Ð¶
ĠU ma
ias m
b uz
Ġdebr is
Ġc ass
ĠP rop
is ka
ë ł¥
ester ol
uss ian
ìĿ´ë ŀĳ
Ġun limited
Ġadm ire
Ġtight ly
Ġgen ome
ĠJun ior
ven ir
g us
Ġc Äĥ
ĠV lad
Ġí Ĥ
Ġrel ativ
in ci
Ġaun que
ĠBo ys
ÑĨÐ¸ Ð¾Ð½
ĠSw iss
Ġphys icians
Ġíı ī
ĠP ET
Ġw ounds
ab out
Ãł i
on z
ur ities
ĠÑĥÐ² Ð¸Ð´
å· ¦
Ġment ality
Ġvari ance
Ġseg unda
Ġvol cano
al ie
à¥ ĩ
Ġt iles
ĠT erry
ĠØ§ÙĦÙĦ Ùĩ
Ġcan on
Ġsc attered
pt on
Ġdefin itions
Ġal gebra
ot en
ab lo
ij uana
Ġwra pping
Ġses ame
ĠÐ½Ð°Ñĩ Ð¸Ð½Ð°
ĠAl f
ĠÐł Ð¾ÑģÑģ
or no
Ġan kle
Ġspecial ty
Ġattempt ing
ili ation
Ġ19 20
Ġphen omena
ĠPro duct
ĠB uck
ĠA ww
se en
Ġvo id
ĠFrank lin
Ġadvoc acy
ĠS ep
Ġcool est
ĠÑģ ÑĢÐ°Ð·Ñĥ
ĠQu and
Ġ9 00
ĠTr ad
d ies
Ġhas h
æĪĳ å°±
ä¹Ł æĺ¯
Ġpot s
Ġsad ly
Ġvi able
ĠT iger
ĠON E
Ġneur ons
ow anie
Ä Ĺ
ĠSh ar
ĠLand es
Ġconfer ences
è© ²
Ġcred ential
Ġl ime
ine e
x it
p ay
Ġinc ons
Ġ>> :
èª į
Ġí ŀĺë
Ġless er
Ġsp ill
Ġprem ise
Ġ36 5
ĠH ost
Ġtom ar
×Ĳ× ľ
ë ²Ī
ĠWhat s
Ġlight weight
ĠM ap
f ia
ells chaft
Ġvend ors
uest o
ĠM ister
ĠÐŁ ÑĢÐ¸
åı ³
h ma
Ġintention ally
ĠT ang
éĹ ®
Ġident ification
Ġetc etera
ĠN ee
ĠÑĤ ÑĢÐ¸
ê· ¸
Ġcrypt ocur
Ġin hale
Ġadd ict
åĲĦ ä½į
Ġma u
ĠÑĤÐ°Ðº Ð°Ñı
Ġë² Ħ
Ġcomp rar
ied zieÄĩ
ĠÐ¾ÑĤ Ð½Ð¾
Ġbegin ner
ĠÐ¼ ÑĥÐ¶
Ġobs c
Ġlim iting
asc ular
Ġins pection
ac i
Ġre jo
M us
Ġz aten
Ġsz cz
ĠMad rid
Ġvar ieties
Ġest Ãł
ĠSh akes
Ġk its
Ġad minister
Ġla va
Ġg Ã¥
è© ¦
×ª ×Ļ
ĠWay ne
Ġinst agram
Ġr ated
p aper
Ġb ild
Ġpret ending
Ġobser ving
ĠÑģÐ°Ð¼ Ð¾Ð¼
Ġtr or
Ġorgan isms
Ġfal ta
Ġh ometown
ç ±
Ġí ĭ
Ġche g
Ġì ¡
Ġcomm a
is Ã©
Ġlike lihood
av ored
Ġgel di
Ð½Ð¸ ÐºÐ¾Ð²
Ġmed io
Ġjak ie
ĠJ up
Ġgreen house
Ġsp it
ÐºÐ¾ Ðµ
ĠÐº Ð°Ð¶
ĠG ram
ĠCon ference
Ġdef icit
s Ä±n
in se
u ÄŁ
Ġr icht
Ġcoinc idence
åı į
Ġeu rop
Ġbutter fly
p read
Ġìĸ ¼
èĢ ¶
Ġwa vel
ĠIn fin
ĠPlan et
Ġself ie
ient ras
Ġar rog
os er
id al
ł×Ĺ ×ł×ķ
Ã¼t Ã¼n
Ġfresh man
ĠMach ine
Ïĥ ÏĦ
ĠD ia
ìĿ´ ëĭ¤
ãģĵ ãģĨ
ne a
Ġlist ing
Ġconfig ure
ut or
U p
ts chaft
ri Ã¨re
Ġup wards
ĠÑħÐ¾Ñĩ Ñĥ
Ġswe ep
B r
Ġexpress ing
Ġun happy
Ġmand atory
g ender
ĠA ÃŃ
Ġindic ators
Ġoil s
n ote
Ġseg ur
Ð¾Ð¶ ÐµÑĤ
yn asty
Ġdist ances
Ġmer ge
BER T
Ġsur render
Ġbu at
ĠA wards
ĠseÃ± or
od ox
Ġfl avour
Ġab dom
Ġconfig ur
8 6
ĠDI Y
Ġrig id
° ĺ
Ġcorpor ation
Ġg room
j aw
ĠNe ar
Ð¸Ð» Ð¾
Ġoper a
ĠIn nov
Ð¸ ÑĢÐ°
ĵ ±
Ġspec ified
Ġcos m
ĠFre edom
Ġcl own
ĠN em
ĠÐ² Ð¾Ð»
Ñĳ Ð½
Ġchar ger
à¹ģ à¸¥
Ġinflu ential
Ã¤s ident
é ¤
ĠìĦ łë
Ġvol umes
æ Ĳ
Ġout ras
ĠTw itch
Ġfound ing
Ġa while
Ġco il
ê° Ļ
Ġc áº£
ĠTh row
ĠH ence
omm t
ĠBen jamin
Ð³Ð»Ñı Ð´
T ime
ob ic
Ġm our
Ġd read
ĠL Ãł
ĠCh ile
Ġpre val
Ġv ain
Ġart Ä±k
Ġpres erved
ĠÐ¾ÑĤ Ð´
Ġware house
Ġbest e
ĠSever al
ĠS ituation
Ġcard board
T od
er na
Ġgar ant
Ġgest ure
Ġh en
Ġspe lling
ose xual
Ġan ne
Ġm ice
ĠMe ine
c ard
Ġre bell
Ġcert o
Ġìľ łë
Ġvers chied
ĠB os
Ġinv ention
Ġtr ze
Ġman iÃ¨re
ĠCh ad
Ġsp re
Ġorganis ations
Ġpoor ly
Ġan terior
Ġst air
Ðº ÑĢ
Ġatom ic
Ġsymp ath
Ġcontin ually
Ġkle ine
Ã¨ te
Ð¸ Ñī
Î¿ ÏĤ
pe ut
Ġrep osit
Ġent ra
E m
Ġfinan cing
ĠÐ¼Ð½ Ð¾Ð³
Ġthe sis
ĠCom puter
e au
ĠT ree
Ġbr ide
ons ieur
sh ire
w ic
D E
ĠìĪ ĺë
Ġac om
ĠP O
ers ch
ĠÐ¿Ð¾Ð¼ Ð¾Ñī
ĠAr men
Ġì£ ½
Ġz or
Ġprint s
ĠD ass
æ¸ ¯
Ġdur able
ĠTrans port
ìŀĲ ê°Ģ
ĠÐ» ÐµÐ³
ĠdÃ© t
Ã´ le
am ous
Y N
Ġcl iff
Ġgramm ar
ĠÐŁÐ¾ ÑįÑĤÐ¾Ð¼Ñĥ
ĠlÃł m
es ch
Ġmiser able
Ġvol ts
ĠC ad
uk an
ÑĤ Ð¸Ð²
r ust
Ġìĺ¬ë Ŀ¼
Ġver k
Ġchick ens
ĠY oo
Ġout fits
c ode
Ġhier archy
net es
Ġcounter part
Ġt Ã´i
Ġt ed
ĠB art
Ġë Ŀ¼
ĠGen au
Ġinc oming
ĠA BC
ri que
ĠÐ¾ÑĤ Ð¿
qu al
Ġincent ive
Ġih ren
×ł ×Ļ
lo e
Ġ19 30
Ġbar g
Ġd iction
ĠÃ¶n ce
IN S
Ġre h
isia j
m outh
Ġsc oring
l Ä±k
ĠìķĦ ì£¼
OR IA
ĠEst ados
Ġcompan ion
Ġasse mble
Ġpun ished
Ġit al
Ġprev ents
ist es
ĠKent ucky
Ġloc ate
Ġfast ing
ãģ¨ æĢĿ
ĥ Ģ
ĠSe b
ĠCr own
op ia
Ġwh ip
us z
Ðº Ð°Ð¼Ð¸
Ġdatab ases
åŃ Ĺ
Ġprose c
Ġ199 7
ĠìĤ´ì §Ŀ
ĠSol ar
ĠP ues
ĠZ en
oll o
ĠG uru
Ġsque ez
ĠÐĹ Ð°
ĠÄ į
cept ions
c ca
iz able
m and
Ġbreak through
Ġtables poon
ĠS EC
ik h
ĠS Ã£o
ĠÐ¿ Ð»Ð¾
am en
Ġpr ac
Ġdar ling
Ġtall er
Ġrend ering
Ġìļ°ë¦¬ ê°Ģ
ĠÏĦÎ· ÏĤ
Ġm Ã£
Ġes os
uer do
ĠÑģ ÑĩÐ¸ÑĤ
all er
ìĹĪ ìĸ´ìļĶ
Ġmill ones
ler in
Ġpe gar
on ne
Ġenroll ment
Ġli egt
Ġbo a
w iÄĻ
bs p
Ġcy cling
ĠBern ie
Ġ198 9
ĠÐ´ Ð°Ð»ÑĮ
ĠDak ota
ĠÑģÐ² ÑıÐ·
ĠC P
Ġst are
íĤ ¤
Ġprosper ity
Ġarrange ments
Ġarri ving
m Ã¤
Ġkay ak
ip t
Ġp ardon
Ġrel at
Ġver ste
ĠF ig
Ġfo il
ĠTalk ing
pe are
Ġno i
ĠÐ¿ÑĢÐ¸ ÑĪ
Ġhoc key
Ġad o
ĠO UT
6 7
Ġhorm ones
ĠAven ue
ĠSuper man
Ġpres cription
uber netes
C L
ot ive
N IS
ien en
Ġsad ness
ĠV it
T y
Ġstar ter
Ġbed e
Ġfound ations
Ġso re
åº Ĺ
ÑīÐµ ÑģÑĤÐ²
ìļ °ë
ĠÑĩ ÑĥÐ²
l ink
Ġmane u
work ing
Ãł n
ĠAtt ack
ĠC art
ve is
ĠRes p
ens ing
Ġì¢ĭ ìķĦìļĶ
Ġesc uch
ĠR NA
Ĥ ´
Ġad op
Ġb ending
Ø¹ Ø¯
Ġman ages
us p
Ġt art
Ġrout er
B o
Ġestab lishing
Ġbal ancing
Ġathlet ic
ĠS lo
Ġf ills
ĠÐ½ Ð°Ð±
ĠÐ´ Ð°Ð»
Ġpos so
ĠV ielen
Ġcrit ics
Ġlaws uit
ĠIsa ac
ĠÑĦÐ¸Ð»ÑĮ Ð¼
Ġtr as
Ġpra w
ĠCra zy
Ġne u
Ġk ull
Ġtum or
ĠAP P
g ate
ĠA RE
9 8
ĠSte am
Ġfuck ed
l age
ĠâĻ ¬
ĠM D
f y
Ġshell s
ĠSe ems
iz ers
Ġr anges
ĠAnton io
AT ION
ĠB aba
Ġìĥ ī
k un
Ġpray ed
ÑĢ Ñı
ĠÐ¿ÑĢÐ¾ÑĤ Ð¸Ð²
Ġse as
b ury
Ġ×Ķ× ©
Ġtra it
ĠDep ending
Ġd re
ĠkÃ¶n nt
ÑĨ Ñĥ
Ġlip stick
ee z
ĠÐ¿ÑĢ Ð¸Ð¼ÐµÑĢ
Ġassign ments
B ob
Ġmet als
Ġspe cially
å°į ä¸įå°į
Ġìĺ Īë
ĠÅ ¡
Ġv ista
ĠÎ ¬
Ġtw ins
Ġnot able
ĠS au
ĠdÃ© velop
ĠÃ§ ek
Ġpoly nom
av am
Ġtamb Ã©
Ð¾Ð½ Ð¾Ð¼
Ġpl asma
Ġe fect
ĠlÃ¤ ng
Ġcas i
Ñģ Ð°
Ä±m Ä±
ãģĻ ãĤĭ
ĵ¤ ìĿĢ
Ġlab our
oss en
ĠP un
r if
Ġd oses
Ġoper ates
Ð¸Ð» Ð»Ð¸
Ġja ar
st aw
ĠìĤ¬ëŀ ĳ
Ġat m
Ġprotect s
Ġimp ed
H O
Ġc ima
Ġto ch
ab is
Ġsend o
la us
Ġcur l
ĠN um
Ġspons ors
ĠdÃ© but
ĠAlex a
ĠB Ã¼r
ĠA mer
Ġc ope
ĠÐ¸Ð· Ð²
j al
Ġ199 5
ap at
res se
ĠPri ze
ĠCla ire
ĠBrand on
Ġwszyst ko
Ġval ued
à¸Ļ à¸°
Ġse ct
Ġsecret ly
Ġdiam onds
ĠEv an
ĠRP G
ãģ« ãģª
Īë ıĦ
ĠUnivers al
Ġdoub ts
ĠP in
wiÄħ z
ļ ©
Ġal bo
Ġbra ucht
AU L
ĠM obile
gr ades
Ġsch em
wh y
ĠN icht
p i
g le
Ġchor us
Ġg ly
Ġrein force
Ġm uff
ĠSh en
ĠH ola
Ñĥ Ð³
vid emment
v ial
ac ious
laim ed
ĠR ico
Ġve gg
Ġillust ration
ĠBut ter
ow ad
Ġeu x
Ġenf ants
ĠLe ader
ĠVill age
et ically
ÙĨ ÙĬ
Ġst ew
Ġsurpr ises
Ġc ue
ĠGrand ma
ĠC elsius
ĠR icht
en c
Ġpet ition
Ġher b
Ġw icked
Ġsch le
oc aly
Ġtrans f
Ġtok ens
ĠGr ay
ĠB BC
I K
Ġ15 00
z n
ĠNe v
Ġk oy
Ġz ar
Ġbull shit
ĠColomb ia
ul ative
Ġwides pread
y ect
k it
Ġempres a
Ġn our
Ġburn s
at in
a ired
Ġrevolution ary
ĠÐ³Ð¾Ð´ Ñĥ
ĠLog an
Ġ199 6
ĠGra ham
re b
ĠN HS
æľ Ľ
Ġcost umes
Ġnaw et
Ġlo vers
ĠLuc y
ĠInd igenous
íķĺ ê¸°
Ġimmun ity
¥ ´ë
uit o
Ġexcess ive
Ġdon ations
Ġ×Ķ ×¨
Ġì² «
éī Ħ
Ġdry ing
mel on
Ġsurve ys
Ġë¬´ì Ĭ¨
é¢ ¨
aa a
Ġpro be
an cial
Ġlou der
Ġhot els
Ã¼ ÄŁ
ag ner
Ġorig ins
Ġë§Ī ì§Ģë§ī
Ġ* *
Ġstr angers
ĠHa us
com ed
Ġan throp
Ġus o
ĠìķĦ ì§ģ
ĠY uan
ĠíķĦ ìļĶ
pl er
ress ive
Ġsp raw
ĠSt ew
Ġ199 4
Ġeld ers
Ġme inen
Ġj unt
Ġac oust
ĠW ohn
Ġban anas
Ġproject ion
ĠSt ick
leg t
spe ed
ĠcÅ ©ng
ĠW ort
ĠBalt imore
ĠÑĨ ÐµÐ»
Ġdun no
å¼ ·
? ,
ãĥī ãĥ³
ĠLoc al
ost o
Ð Ń
Ð¾Ð´ Ð°
ĠPort uguese
Ġtheir s
ĠdÃ© m
åı ¦
Ġdra uf
ĠBuddh ist
ert a
G e
Ġcar rot
ĠWonder ful
Ġso ak
Ġchair man
gg i
IC A
f ried
Ġfl ick
ĠThrough out
Ġìļ °ë
Ġc ough
Ġfl uffy
sch ool
Ġr ipped
---- ----
ĠZuk unft
ĠÐ½ ÐµÐ±
Ġst o
ĠB O
p ent
ĠLaw rence
Ïī ÏĤ
st icks
ĠE ins
ĠÑĢ Ñĭ
ĠStr ong
Ġcar amel
Ġsp ite
az ar
éĥ½ æĺ¯
Ġcrit ically
Ġob ra
ow itz
ĠZ one
ĠÑĢ ÐµÐº
Ġsu g
ard ed
Ġg Ã¬
ff entlich
an che
Ø Ł
ast ically
ìĿ ¼ë
Ð» Ð°Ð²
Ġsimpl est
ĠF riend
Ġque llo
Ġamb ition
Ġabb iamo
åº ķ
ĠÑĦ Ð¾ÑĢÐ¼
ĠEs sa
Ġeduc ators
Ġstatist ical
éĢĻ éĤĬ
Ġchang er
Ġat au
Ã©ta is
ĠShakes peare
ë Ĳĺ
Ġtr iggers
Ġreal iz
Ġcel ui
whe el
Ġloyal ty
Ġscream s
ke hr
ĠM ega
e ast
Ġtop s
ĠTot ally
ount ain
l ord
Ġviol ation
ĠG A
Ġnic er
ĠF resh
ĠMel issa
fun ction
Ġra pe
Ġexcept ions
Ġsil icon
Ġliber ty
Ġhousehold s
ãģį ãģ¾ãģĻ
ĠC A
ĠÐŀ Ð±
Ġli b
ŀ Į
c ific
Ġtrop ical
Ġinvestig ating
H D
Ġad apter
ĠP itt
an cia
ĠShe ll
friend ly
Ġconclus ions
Ġtur tle
Ġdec omp
Ġanim ations
ĠÑģ ÐµÐº
ins i
Ġret ention
k ie
Ġinject ion
ĠMad ison
ì° °
Ġv ient
Ġvar ied
Ġviol in
ĠB il
Ġluck ily
Ġh tt
l Ã¤
Ġr anch
çľĭ çľĭ
ĠsÃ³ lo
ìķ ħ
ĠD erek
ĠScript ure
Ð¾ÑĢ Ð°
Ġclassroom s
av il
form ed
Ġbefore hand
ĠG em
pre ch
Ġl in
Ġgre ens
ÑĨ ÐµÐ²
ĠMer cedes
Ġdr ought
gas ps
Ġab ortion
Ġter ribly
Ġspos Ã³b
Ġsec ured
Ġat rÃ¡s
Ġwavel ength
Ġgra ins
ect ive
Ġspace craft
Ġtour s
Ġprof es
Ġsur geon
ĠP ie
Ġide ally
arn er
U P
op ard
s ce
Ġimm ense
ĠOr t
roll er
ĠD allas
ĠNich olas
Ġs ulf
ĠToy ota
Ġquant ities
ce ans
Ġcu i
an Ã§a
ĠC AN
itzer land
åĦ ¿
Ġz ou
ĠCy ber
le gen
ĠIn it
ed u
Ġa pert
Ġad jac
ou v
èĢĮ ä¸Ķ
r s
Ġcab bage
Ġwheel chair
iny l
ĠD ynam
ĠìķĦëĭĪë Ŀ¼
Ġl ing
h l
ĠÐ¼Ð¾Ð³ Ñĥ
Ġcris p
Ġm ij
Ġd ug
n in
Ġbl oss
Ġbelong ing
Ġloud ly
Ġminer als
Ġconclud ed
Ġsearch ed
9 6
ĠMe et
ĠS EO
ĠÐ¡ Ðº
ĠH ob
ot ta
Ġpropag anda
Ġcin namon
Ġhun ter
Ġgeme ins
Ġsculpt ure
uls ion
Ġv Ã¤l
Ġmagaz ines
Ġcontrovers y
ä¸Ģ æ¨£
Ġsequ ences
ãģĦ ãĤĭ
Ġíļ Į
Ġdel eted
ä½ ¿
Ĳë ıĦ
Ġvary ing
ãĥ Ĩ
Ġmount ing
Ġaff air
Ġpath ways
æ ¦
Ġdig o
äº ®
ĠÐ´ Ð¾Ðº
A lex
Ġtob acco
ĠC V
Ġbother ed
Ġamb ient
ink y
ĠS L
Ġh ates
Ġje Å¼eli
Ġcon greg
Ġel as
Ġde uts
ĠStud ios
ch ÄĻ
Ġdocument ed
ĠCru z
ĠL en
ĠDoug las
ĠPort ugal
ent i
Ġsp ouse
Ġanal ys
av ia
Ġed ited
Ġl áº¡i
bu ilt
Ġv ille
ad ora
Ġbrac elet
Ġs ushi
Ġp m
Ġtra ils
Ġl ug
ĠÃ¶ ver
Ġs orrow
Ġcol ony
ado x
Ġser ie
any ak
ĠØ ·
ĠG ulf
æĺ¯ ä¸įæĺ¯
ĠP V
ĠSam uel
ĠK it
ĠR al
ont in
ex pl
Ġent ries
Ġactiv ists
P s
Ġs ant
ĠÑĤÐ¾ Ñĩ
ĠBr uno
ke ley
Ġtut to
é Ķ
Ġv intage
Ġterr ified
ĠÐ¿Ð¾ Ñħ
us ive
ow ers
Ð°Ð¹ ÑĤ
ë ıĻ
Ġtwist ed
ĠTh ought
Ġt ah
Ġshr ink
Ġshe er
l it
Ġdal am
Ġd ib
Ġv ard
ow ane
Ġdo br
ĠR ena
ĠÑģÐ²Ð¾ Ñİ
ĠpaÃŃs es
ĠE ra
ãģ® ãģ§
ĠB UT
s ighs
Ġê·¸ ê±°
Ġgro ÃŁen
Ġë¹ ¨ë¦¬
Ġn erves
Ġconst it
Ġpreoc up
ĠG ay
ĠX u
keep er
he ure
.. )
ĠCal m
ĠUn idos
ĠìĿ´ ê²ĥ
ĠAqu i
Ġìłľ ìĿ¼
d Ä±r
ì¦ ĺ
y our
ĠÑįÑĤ Ð¸Ð¼
20 20
Ġr und
ĠH O
ĠC atherine
iel i
Ġf usion
Ġide ology
Ġfor am
sh aped
ĠíĽ Ħë
Ġw t
Ġret r
Ġpr Ã©c
Ġê° ĳ
Ġopen ly
v ity
êµ¬ ìļĶ
Ġobst acle
Ġbo o
Ġse iner
ic orn
Ġeigen lijk
Ġhead er
are mos
Ġso fter
ĠÐŁ Ð¾Ð´
Ġpre jud
Ġdefin es
ier te
Ġbl ending
Ġbelie vers
ĠWo chen
ĠÐ½Ð¸Ðº Ð°Ðº
ĠÐļ Ð¾Ð³Ð´Ð°
ĠTyp ically
Ġíģ ¬
ç® ¡
ci os
Ġmiss iles
Ġsp onge
ĠK itchen
Ġt ren
ning en
Ġsc rap
Ġser ait
´ì ł
ç ¹
Ġë° ĺë
Ġrest ored
Ġprzy kÅĤad
ĠK ubernetes
Ġsa it
Ġu w
Ġen abling
Ġtra vers
amp s
åı Ĺ
ĠOM G
ens or
Ġz osta
Ġpronoun ced
A ng
norm al
Ġeconom ies
t in
ĠChamp ion
iz en
Ġar beiten
ĠG ospel
ĠZ u
ng a
Ġliter acy
ĠM ans
Ġcircul ation
Ġad ap
ĠTot al
Ġmere ka
Ġol acak
ÑģÑĤ Ð°ÑĤÐ¸
J ack
Ġm und
Ġth ief
b ies
Ġê² ģ
a que
ĠÚ© ÛĮ
ĠSc ar
å ²
Ġab ol
Ġdev ote
Ġ0 1
Ġs itten
ĠVis ual
we ek
s ome
ing t
Ġjournal ism
ĠH ir
ĠB achelor
in ery
Ãľ ND
ãĥ Ł
ç» Ļ
Ġcolor ing
ĠCr ist
Ġcelebr ities
ĠÑĩ Ð¸Ñģ
ĠC rit
Ġdifferent iate
ĠÐľ Ð½Ðµ
el im
Ġse afood
Ġalgum as
otherap y
æĪ °
Ġgla ub
Ġarbitr ary
g ens
ĠÐ±ÑĥÐ´ ÐµÐ¼
Ġt av
Ġcream y
ĠCount ry
a Ã±
Ð¼ ÐµÑĤ
Ġh inter
Ġm ism
Ġillust rate
ÃľND NIS
Ġdecre asing
Ġwen iger
AK I
ix on
ĠÐ½ ÐµÐ¹
Ġfat to
Ġn erd
ç ł
Ġb itte
P er
Ġt ane
ĠgÃ¶ z
Ġfor te
ĠE y
ĠÐ½Ð°Ð² ÐµÑĢ
è¢ «
ĠWord Press
ĠM is
Å ¯
z Ã¤h
ĠintÃ© ress
osa urs
ĠFall s
Ġn essa
9 7
Ġmuseum s
Ġcorrespond s
Ġs ings
f our
Ġed er
ĠCommun ist
o a
ne k
ĠWH O
Ġcor po
Ġmess ing
ÏĦ Î±Î¹
Ġbrush es
Ġb isc
ĠAr beits
ĠT ax
Ġse le
Ġflag s
ou pe
Ġanticip ated
ãĥ ĳ
ĠN ad
Ġpou red
Ġm l
Ġll ama
Ġvisual ize
Ġlisten ers
ÙĦ Ùĥ
al ten
Mich ael
Ġcos Ã¬
Õ¡ Õ
op us
Ġíķ´ì £¼
Ġh ike
ĠAtt orney
ĠHill ary
ud ed
Ġíķĺ ì§Ģë§Į
Ġdo ve
Ġstorm s
Ð°Ðº Ñģ
Ġdoct rine
Ġhe x
ik s
no ÅĽÄĩ
Ġscript s
ĠÎ´ ÎµÎ½
ĠÑįÑĤÐ¸ Ñħ
ĠÐ Ĩ
ab er
ĠV as
Ġcent imeters
×ŀ ×Ķ
Ð½Ð¸ Ð±
Ġrid ers
ĠT rib
åĮ ħ
Ġtak Å¼e
Ġn oun
Ġic ons
Ġsole ly
mind ed
Ġdisp on
ĠSw itzerland
Ġcl usters
Ġqu eda
ail ing
Ġman ga
Ġ6 8
Ħ Ī
Ġt et
g ins
ha us
ç© º
å· ¥
ĠO P
ot ed
Ġnouve au
AL LY
ÙĪ Ø¯
Ã² n
Ġmort ality
ĠGit Hub
d rop
Ġdis gu
Ġrec om
Ġloc als
Ġhome made
amb a
Ġpron unciation
Ġal phabet
Ð°Ð½ ÑĮ
ow any
ir as
id ency
OM E
ĠÑĢÐ°Ñģ Ñģ
ar ak
v iamente
Ġnon profit
ĠYouT uber
Ġp arenth
ĠB oo
v at
ĠSt ir
Ġpre cip
Ġan ts
Ġall y
ĠMa ori
ĠëĮĢ íķľ
åı¯ æĺ¯
og ene
ĠLab our
aret te
Ġrecy cling
ens a
Ġpurs uit
Ġs ak
ĠÐĹÐ´ ÐµÑģÑĮ
Ġtoler ance
Ġsa at
Ġclick ed
âĻ ¥
Ġface book
ĠInt o
Ġincent ives
ê¸° ëĬĶ
ĠD ennis
ĠW ik
ges ch
à¹Ģà¸ Ľ
ĠÏĢ Î±
ĠWh oo
Ġround ed
Ġdo pe
Ġcapt uring
ĠWar ri
Ġcivil ian
Ġchar ming
Ġes as
Ġsust ained
Ġle aning
Ġabund ance
ÃŃ lia
Ð°Ð»ÑĮ Ð½ÑĭÐ¹
Ġph áº£i
ac ja
Ġê°Ļ ìķĦ
act iv
à¸² à¸¢
Ġ9 7
ĠÐ¼ Ð¾Ð¹
c ro
ĠJack ie
itt ees
br acht
ul ent
Ġìł ľë
Ġplug in
v antage
part y
Ġsu as
Ġan te
Ñĥ Ð»
ÐĿ ÐĲ
æĤ ¨
ĠÏĥ Ïħ
Ġmet h
Ġenthus iasm
ÑıÑĤ ÑģÑı
íĻ Ķë
Ġsynth etic
Ġseason ing
ĠL ost
on omy
ĠSp ark
Ġb ure
Ġass ured
Ġimag in
Ġcar ro
S ha
Äħ t
Ð½Ñĥ ÑĤÑĮ
Ã¡t ica
T Y
Ġk ern
ĠBrazil ian
Ã °
Ġsusp ended
ĠCar ib
Ġbiz im
ĠOl iver
ãģ ¶
T om
ĠÐ¿Ð» Ð°Ð½
Ġn ope
omet hing
Ġbe iden
ÑĨ ÐµÐ½
Ġflu ct
ĠÎ¼ Î¿Ïħ
Ġf athers
ĠBl ake
Ġup ward
ĠD ash
ĠL il
ĠìĪ ĺëıĦ
Ġrevel ation
Ġelev ated
ĠJi ang
LE D
ĠThom pson
ĠÐ¼Ð¾Ð³ ÑĥÑĤ
ÑģÑĤ ÑĢÑĥ
if iers
Ġcome back
Ġbuy ers
ê² °
ĠS ales
Ð¸Ñĩ Ðµ
c iones
Ġwh istle
Ġd ull
LE X
Ġíķĺ ê²łìĬµëĭĪëĭ¤
Ġcrimin als
Ġdes cent
ipp le
mas Ä±
Ġfool ish
ĠÐ´ÑĥÐ¼ Ð°Ñİ
t ar
Ġman go
Ġchore ography
M att
Ġterr itor
Ġac aba
ĠEin stein
ĠI BM
ĠMet al
ĠCry stal
Ġr ah
Ġf oul
ĠIsland s
Ġint act
ĠR ail
. :
Ġac Ã¡
ĠÐ¿ÑĢ Ð¾Ð¿
ÐµÑĢ Ðµ
ĠWr ite
he he
ĠF O
ĠÏĥ ÏĦÎ·
Ġdo in
h eld
Ġappropri ately
Ġdeliber ately
Ġarch ive
Ġgive away
ãģĵ ãģĵ
Ġfin ale
Ð» Ð°Ñģ
ÐµÐ½ Ð¾
Æ¡ n
æ£ Ĵ
og o
çī ©
ĠAud ience
ãħ ł
Ġsub ur
Ġhead ache
Ð°Ð½ Ð½Ñı
ĠW itch
ĠSwed ish
ĠB I
Ġer ase
Ġk hi
Ġcomment ary
ĠS ultan
íĥ Ŀ
ĠLe ban
Ġë³´ì ĭ
ĠP am
pe kt
mon th
Ġground ed
ê ¾
ĠÅŁek ilde
2 50
ĠS CH
ios o
Ġin aug
he imer
Ġreflect ing
ĠR uth
ĠO il
Ġtrou ver
u ep
.. ]
Ġìŀ Īë
Ġol ha
Ġreason ably
Ġgl itch
U B
ĠGr an
Ġad alah
Ġl ent
Ø± Ø§
Ġtr action
Ġadjust ing
´ ¤
Ð½Ð¸Ð± ÑĥÐ´ÑĮ
ĠÐ´ Ð¾Ð¿
Ġstretch ed
Ġor t
Ġcos ine
vi ol
Ġì ħ
c ir
Ġbast ard
ä¸ ĩ
ĠÑħ Ð¾Ð´
Ġqu ier
Ġpress ures
ĠAn h
å¹ ¾
Ġell es
ĠÐ´ ÑĢÑĥÐ·
ĠÐ¼Ð¾Ð¶ÐµÑĤ Ðµ
Ġch á»
ĠM Ã©
Ã¶ k
áº§ u
ìł Ī
z in
Ġca ution
ib an
Ġjud ging
ÑĥÑİ ÑĤ
Ġb aj
ĠÐ¡ ÐµÐ¹ÑĩÐ°Ñģ
ĠPo or
ĠNaz i
Ġup beat
y ang
Ġweek ends
ĠEss entially
Ġol uyor
Ġspat ial
ack er
Ġsell er
Ġ×Ĳ ×ķ×ª
ĳ ×ľ
Ġv ivid
ĠB ond
ê ¶Į
is kt
ãĤ µ
Ġgo at
dri ver
Ġm ug
ict ional
Ġall t
ĠIn iti
ĠR and
Ġfinish es
Ġê° Ī
Ġvit am
Ġteen agers
ĠMor ris
ì¤ Ħ
ĠO ri
i ya
Ġmy Ã¶s
St ep
ĠK re
è¾ ¦
Ġdin osaur
Ġëª ĩ
aff e
ĠëĲ ©ëĭĪëĭ¤
Ġz eg
åĪ ĩ
ĠManh attan
Ġsu jet
ue lle
st off
Ġd Ã¼r
Ġsub mar
es es
Ġa quele
Ġn ou
ĠFa ith
t z
ĠÑĤ Ð¾Ð¼Ñĥ
ace ut
li ers
Ġband width
Æ°á» Ŀ
Ġrespect ive
ĠA ve
Ġspread she
ĠS ent
ic amente
Ġinf ra
Ġlearn ers
Ġà® ī
ai ah
ren al
Ġmust ard
Ġhab t
ç ĥ
ĠQu Ã©
Ġanaly zing
æ¯ ı
Ġso lic
Ġ×Ķ ×ķ×Ĳ
Ġcaus a
Ġwel comed
ĠS uccess
Ġfac ile
ĠÐŁÐ¾ÑĤ Ð¾Ð¼Ñĥ
sche in
Ġf etch
Ġstr at
ĠÑģÑĤÐ¾ Ð¸ÑĤ
ìĹĲìĦľ ëĬĶ
ĠÑģÐ¿ Ð¾ÑģÐ¾Ð±
m am
Ġser ÃŃa
nam ents
wr iter
Ġconsult ing
íĺ Ģ
ĠBer keley
e u
as ive
U U
ĠAnal yt
Ġsubm ission
Ġmagnific ent
en za
Ġe con
Ġprof iles
Ġinc ar
A b
ĠN un
Ġh ic
scream ing
Ġresil ient
åĪ ©
gr und
Ġconc ur
Ġbere its
L D
Ġnur t
ì ī
Ġfe ast
Ġenc uent
ĠMich el
Ġsup rem
" ]
Ġfeed s
ĠKoll egen
iss er
ĠF eng
ĠW en
m un
Ġten ÃŃa
ĠW rest
Ġìĺ¤ëĬĺ ìĿĢ
Ġst ead
Ġrest oration
Ġdon ated
Ġdel s
Ġc ensus
Ġdesper ately
worth y
H E
ĠSp a
ĠBry an
Ġh j
ĠR aw
ìķĦ ë
ĠCam era
Ġz ien
Ġst yl
ĠT W
ĠChe ese
bor ne
Ġob l
ĠAl ready
Ġunst able
Ġfl ames
p ost
H a
rom agn
ĠìĹ Ħë§Ī
d est
Ġkole j
Ġtempor arily
Ġdeterm ining
ĠGl ass
ÑĢ Ð¾Ð½
ol an
Ġdom inated
åĮ ĸ
__ __
ĠÙĩ Ø°Ø§
ĠD ana
Ġdin heiro
a qu
ë ¯¼
ĠÃł s
ĠJo ey
ĠGr iff
Ġatt ain
Ġtrans itions
ĠLiter ally
ÐµÐ½ Ð´
ĠHa ven
Ġgrab bing
Ġcryst als
ĠFour th
Ġcand les
ĠÑģÐ»ÑĥÑĩ Ð°
ric o
Ġ5 000
et to
Ġund o
Ġk to
Ġdi vert
Ġch ir
Ġper sec
Ġh iking
Ġannounce ments
çĶ ±
Ð· Ñĭ
Ġa uc
Ġsystem ic
ĠR M
Ïĥ Î±
ĠÐĶ Ð¶
Ġy ar
ĠW ard
Ġpiss ed
Ġcar n
Ġautonom ous
ãħİ ãħİ
so ver
æ²Ĵ éĮ¯
å¾Ī å¥½
Ġref lex
Ġgard ens
Ġd ated
ì ±
ami ÄĻ
Ġcontinu ity
Ġcitizens hip
Ġsch wer
Ġz ak
t able
ĠÑģ Ñĩ
è§ ģ
ĠÏĥ Îµ
Ġgener ates
êµ¬ë Ĥĺ
Ã¶ h
Ã³ m
al am
ĠJUD Y
ĠB ug
Ġãģ ¦
Ġdr ones
ĠÃ¡ gua
ac aks
æ ļ
ĠÐļ Ð¾Ð½
× ĸ×Ķ
Ġstri ve
ĠAl tern
Ġne arest
Ġpro yect
ter a
ĠASH LEY
Ġwor m
Ġre play
Ġt ara
ĠInd ians
ãĤ °
ica id
ĠìĪ ľ
Ġappe aling
ĠW es
Ġment ions
ĠÐ´ÐµÐ» Ðµ
Ġk w
Ġfrag ile
is z
k Ã³w
h ang
col or
Ġpresident e
8 7
Ðµ ÑĦ
çĪ ¸
ĠÐ´Ð¾Ð± Ð°Ð²
ĠN elson
Ã¡ fic
ĠMIC HAEL
Ġmechan ic
Ġmet res
Ġo czywiÅĽcie
ĠC ind
Ġog sÃ¥
Ġlands ca
AC E
Ġhead lines
Ġcat alyst
ĠC atch
ink les
Ġp ills
ord o
Ġimmig rant
Ġexam ination
Ġacc idents
zÄħ d
Ġqui ere
Ġne lla
Ġ6 7
Ġpass a
Ġsuper fic
ist or
Ġno v
ëĭ µ
Ġmand ate
is ons
ĠVirt ual
Ġsel ber
Ġcounsel ing
ĠN BA
Ġse pt
Ġbelie ver
Ġmar vel
ĠInte gr
ĠÐ¼ Ñĸ
Ġor ph
Ġback ward
ĠGen eration
ĠP ict
ĠÑĤÐ¾ ÑĤ
Ġtap i
pro chen
Ġhall way
ht e
ĠÛģ ÛĴ
ĠZ um
èĢģ å¸«
ach ment
iqu er
fol g
ĠEd die
ĠK il
Ġwell ness
st ock
è¼ ĥ
Ġka Ã§
Ġterror ism
Ġpo inter
O f
her ic
ĠUlt imately
Ġmes es
ĠTr ade
Ġp int
Ġtu ition
Ġdisag re
Ġê²Į ìŀĦ
Ġmanus cript
Ġro omm
Ġoutput s
Ðµ ÑĨÐ¸
Ġr ies
Ġsal ud
otz dem
Ġmass es
Ġby ÅĤa
Ġclear ing
Ġdisc ourse
ats on
Ġfold ed
ĠJ ar
ÙĦ Ùī
9 00
ĠÑĥ ÑģÐ¿
Ġprophe cy
Ġinterf ere
Ð¸Ñħ Ð¾Ð´
à¹ Į
Ġth ri
Ġ×ŀ× ©
Ġlaz Ä±m
Ġ199 2
Ġfut uro
Ġlock ing
Ġembar go
ĠNe ither
iv amente
ĠmÃ¥ ste
Ġm ik
Ġcollect or
ÐµÐºÐ¾ ÑĤÐ¾ÑĢ
ĠG and
Ġsent ir
ĠM ight
å¡ Ķ
Ġgan zen
U C
Ġrel ating
S D
Ġmos quito
G R
Ġho llow
âĺ ħ
ĠWalk er
Ġaffili ate
Ġduplic ate
Ð½ ÐµÐ¼
Ġgra pe
ĠOrgan ization
Ġsy nt
J oe
Ġg eg
Ġreve aling
ĠEth an
out er
Ġy ay
é« Ķ
Ð» Ð°ÑĢ
Ġreported ly
Ġihr er
Ġrecogn ise
Ġbum per
ĠR andy
ĠVen us
t les
Ġappet ite
Ġgluc ose
Ġch odzi
ĠFurther more
t ir
Ġcont a
Ġint uition
Ġalt itude
Ġch unks
ĠJosh ua
Ä±ÄŁ Ä±m
ry lic
le ans
ĠíĶ ¼ë
L L
Q ue
Ġg or
ĠÐ·Ð½Ð° ÑĩÐ¸ÑĤ
Ġpo ems
Ġexc el
Ġexpl ored
Ġpop ul
Ġinclus o
st Ã¤
ĠG avin
all ing
ĠÏĦÎ¿ Î½
é ©
ar beit
ĠG as
Ġgl orious
rie ben
Ġsp am
Ġindo or
Ġthr ust
ĠA ld
ĠPri or
Ġon board
ãģł ãģķãģĦ
o ca
AS H
£ ł
ĠChrist ine
Ġdra wer
Ġno on
Ġìŀ ĺë
Ġperman ently
æ· ±
ĠÐ½Ð°Ð¿ÑĢ Ð¸Ð¼ÐµÑĢ
Ġpodcast s
era peut
pr it
Ġstain less
ĠÚ© ÛĴ
Ġfamil ia
ĠÑĢÐ°Ð· ÑĢ
un to
ĠÑģÑĤ Ð¾Ð»
Ġh Ã¤
ĠH ai
ĠP B
iz on
Ġkon nte
ĠbÃ¼y Ã¼k
Ġutil izar
Ú Ĩ
Ġaqu esta
Ġmix er
ud ent
Ð»ÐµÐº Ñģ
ÅĤ u
ĠÑģÐ¸ÑģÑĤ ÐµÐ¼
ĠÐ½ Ð¾ÑĢÐ¼
Ġfat al
Ġconsider ations
Ġvalid ation
Ġo li
Ġk ardeÅŁ
ĠGL ORIA
Ġp all
ÐµÑģÑĤ Ðµ
Ġrect ang
Ġmed ieval
allah i
ast i
ĠSy rian
Ġshe ar
Ġdeb ug
ĠM ai
Ġknock ing
ĠLe x
ard an
ro v
Ġmem orial
æ° £
ook y
Ġstuff ed
Ġpass Ã©
Ġw ig
Ĥ ł
ĠprÃ³xim a
Ġ199 1
ĠÐ¼ ÐµÐ¶Ð´Ñĥ
Ġnuest ros
ĠBe ast
Ġsm o
atch ed
olog ia
ĠÐ¼ Ð¾Ð´
Ġge e
Ġconcept ual
ĠÃ ´
Ġdecre ases
Ġquer ies
Ð¾Ð»ÑĮ ÑĪ
ĠA part
Ġex empl
å± ±
Ġfl ed
ĠO FF
gg ak
Ġbe ad
h ir
l ies
ĠClear ly
Ä± lar
Ġch ess
Ġwhich ever
Ġ9 6
áº ±
Ġrespect s
ĠÐ¼ Ð¾ÑĢ
Ġorgan ism
Ġgrand pa
ĠV ie
è·Ł ä½ł
Ġflo oding
Ġupgrad ed
Ñĳ ÑĢ
Ġcheek s
Ġcon quer
Ġstub born
Ġpuzz les
Ġau ction
Ġre lying
ĠPRO F
ĠEs per
ĠÐľ Ð£
Ġhy pe
Ġposs ibil
Ġimp rison
ĠEr n
ìĹĪ ìĬµëĭĪëĭ¤
Ġenv ie
Ġresur rection
ä¸į è¡Į
Ġs per
ĠVenez uela
s om
Ġìŀł ê¹
Ġnouve lle
Ġclos es
Ġ19 40
Ġqu a
ĠJ ared
ĠP ir
Ġind e
Ġscr ub
uk u
Ġrequ iring
ĠÐ² Ð°Ð¼Ð¸
Ġconsider able
åĲ Ľ
il ia
Ġin ne
Ġmein em
Ġhard ship
Ġtra ps
ro c
ĠìĦ ¤ë
Ġresearch ing
ĠMarg aret
Ġpen ny
ĠbÄ± rak
Ñĳ Ð»
Ġw ool
Ġr het
Ġflat ten
ç ĩ
à¹Ģà¸ £
Ġp ied
ĠCh ap
Ġunder m
Ġf ret
Ġcrash ed
ĠFra uen
Ø° Ùĩ
iv an
Ġliter ary
late go
Ġsp Ã¤ter
Ġsimilar ities
â Ĩ
ĠCor on
ĠC reek
Ġboss es
Ġaccompan ied
Ġdeb ates
Ġassemb led
ĠÃ ģ
ĠV ai
Ġtr act
Ġsimple ment
ĠAr in
Ġvulner ability
Ġhorm one
I EL
OO K
Ġrel ay
ĠAnd rea
r il
Ġnecess ity
aceut ical
Ñİ Ñī
ous ing
nah men
Ġfoot print
m ap
ĠT ier
ann ya
int end
åĸ ®
å ¢
Ġdecor ate
Ġzomb ies
ĠHy d
ĠSu z
Ġcampus es
ĠE mb
Ġthr ottle
Ġad min
Ġop ortun
Ġmir rors
Ġident ities
ĠCl in
Ġë¹ Ħë
á¹ £
ĠO tt
Ġbl ues
Ġimpress ions
- ,
Ġv ague
a fe
Ġinfer ior
eral d
Ġmedic ines
Ġpre gunta
os ely
Ġt Ã©lÃ©
ĠMon th
ĠLe aders
ĠEgypt ian
Ġr ation
k ers
he its
Ġre cht
P lay
Ġe g
Ġpoll s
ĠWOO DR
Ġsl ots
j am
B oth
ĠR at
ÑĢ Ð°Ð¶
ĠBr ight
ä¸Ģ å®ļ
á»ĳ i
ur ious
Ġsing ers
Ġlo gin
Ġt Ãªm
l ation
ĠM um
Æ°á»Ŀ ng
ĠEd itor
åĲ ĳ
Ġinnov ations
h ave
ĠS ek
Ġwe aker
ĠG ob
A fter
´ì §Ģ
Ġë¬¸ ìłľ
ãĥ¼ ãĥ¼
Ġdisad vantage
ç¢ º
Ġg aze
ĠM ack
Ïģ Î¯
ĠK iss
ĠH olo
ĠBir th
iz i
b ab
ä¿ Ŀ
ìĭľ ê³ł
Ð´ ÐµÑĢÐ¶
Ġsqu at
ÐºÑĥ Ñģ
un i
ĠComm e
ĠWOODR UFF
ĠChampions hip
Ġwel che
ĠY outh
z em
Ġod pow
Ġpersist ent
r ut
ìĶ ©
íĸ ¥
la ir
ik u
Ġvend or
Ġch Ãºng
Ġfinan ci
Ġover ly
Ã¢ u
Ġgl uten
Ġ18 00
Ġdiv isions
Ġciud ad
Ġob ed
Ġwar um
Ġe her
Ġel im
ĠÐĴ Ð¾
Ġpeu vent
ĠW anna
Ġattend ance
Ġassess ments
ĠB og
Ġimag ery
Ġcollect ively
Ġinform al
ĠSch we
Ġde utlich
ĠCh el
ĠP E
ow ed
Ġb anner
Ġshel ves
ĠRet urn
æĭ ¿
LAUGH S
Ġcongrat ulate
ĠNor way
Ġd well
ĠCarib bean
Ġnorm s
ĠAn imal
ĠValent ine
Ġext ending
ĠV ou
or r
ĠCh eng
Â ¡
ĠÐ´Ð¾ÑĢ Ð¾Ð³
Ġve g
Ġh Ã¥
ĠX in
Ġì¹ ´ë
em et
Ġhyp oth
Ġinteress ante
ric es
I Z
ĠUS D
Ġrun ner
ĠB ag
Ġê ½
ĠcomeÃ§ ar
Ġpig s
Ġweakness es
P h
ĠVi ol
ä¸į çĶ¨
Ġdra gging
ĠAqu ÃŃ
ĠCS S
Ġmill imeters
Ġest Ã¡s
Ġac ute
Ġde jar
i ÄŁ
ob ra
L ove
Ġsil k
** **
Ġjo ins
Ġpro l
Ġê°ĲìĤ¬ íķ©ëĭĪëĭ¤
æĶ ¯
ØŃ Ø¯
agh etti
Ã¤n ner
Ġstr ang
Ġdoub led
Ġdescri ptions
Ġst ellen
Ġpart i
ç« ĭ
² Ħë
ĠÃ¶ ÄŁ
ig hing
Ġang ular
Ġnat uur
ĠSh el
Æ° Æ¡
Ġr ays
Ġse per
st art
v ised
Ġrush ed
Ġinternation ally
Ġnive l
Ġbox ing
fall en
á»ĳ c
Ġse inen
plic ity
Ġcarb oh
ĠTra vis
us o
ĠPh ase
Ġactiv ation
Ġop io
· ¨
Ġdecre ased
C ar
Ġbund le
Ġexp end
orm al
Ġadjac ent
Ġme e
ĠÐ¾ÑĢ Ð³
Ġtrans cript
ĠLang uage
G S
è§ ī
Ġse ul
Ãł nh
Ġn ya
ning s
Ġìĭ ľë
ĠëĶ°ë Ŀ¼
ĠA gr
ÃŃ d
çķ Ļ
Ġab y
ĠNe o
Ä±yor uz
ĠThink ing
a ime
Ġv ite
Ġtrav Ã©s
Ġ×ĳ× ¢
ĠÐ¼ ÐµÐ´
O ur
ho ot
Ġl iner
ĠP izza
Ġhy g
fl ies
ĠContin ue
Ġdent al
ĠT ib
Ġreg ulate
lie ÃŁ
AL K
ĠTa e
ê¸ ¸
ĠBre xit
ĠG ut
Ġoccup ation
Ġz robi
Ã¢ m
Ġwh isk
ä¸ĸ çķĮ
Ġkans ke
om on
ro be
Ġwar fare
Ġth á»ĥ
Ġjak i
Ġstro kes
Ġpe as
ĠDam it
H AN
Ġinter ference
ĠÐ¼Ð¸Ð½ ÑĥÑĤ
N ER
out ing
Ġtext ures
Ł ī
ow i
Ġíķ Ļ
Ġd ens
Ġprotagon ist
Ã¤n n
Ġgod dess
Ġwoll te
ij o
ĠWo che
ĠV PN
st ory
Ġkind erg
Ġfun nel
Ġdist ress
Ð½Ð¾ÑģÑĤÑĮ Ñİ
Ġno isy
ĠÐ¿ÑĢÐ¾Ð´ Ð¾Ð»Ð¶
Ġdar an
Ġenzy me
Ð» Ð¾Ð¶
Ġm ute
Ġd war
ĠØ§ Ø³
Ġkom pl
Ġmer it
Ġf osse
ĠDr ink
Ġfor a
Ġw ohl
Ġbree ze
Ġsan it
Ġdr in
ĠìĿ´ê±° ëĬĶ
Ġ6 2
Ġì° ¨ë
aby tes
Ġde eds
ĠÐ ¹
i Ã¨me
igg ling
Ġ" '
ĠÑĩÐ° ÑģÑĤÑĮ
ĠAns wer
Ġev angel
Ġ10 80
ĠVis it
ic ient
Ġreli ability
Ñİ ÑģÑĮ
ĠEar lier
Ġf id
çŃī ä¸Ģä¸ĭ
Ġslee ves
iy orsun
Ġb ib
ĠAcc ount
Ñı Ð»Ð¸
cipl inary
z as
ĠÐ± ÐµÑĢ
Ġneck lace
Ġbl ender
ĠPhill ips
et i
ĠJup iter
Ġprov oc
ĠYe ars
ent re
ac io
Ġk Ã¼
Ġanten na
Ġnovel s
Ġf art
ĠS ugar
ĠJud y
Ġcollaps ed
ç °
rit is
Ġìĥģ íĻ©
ÐĹ Ð«
ĠVer f
rane an
ere um
ĠTar get
Ġ8 8
ĠÐĺ Ð·
ide o
Ġreg ression
ì¶ ľ
ĠmÃ³w i
Ġstud ios
i ens
ip h
Ġfr ying
Ġfasc inated
ĠW ah
b ucks
m aya
ĠSat urn
ĠM ommy
Ġrating s
Ġaut umn
Æ°Æ¡ ng
Ġlos er
Ġcent ro
Ã©rie ur
ĠF old
Ġsuper visor
ĠNo bel
Ġunder est
ob ia
ĠÐ² ÑģÑı
Ġver w
Ġfu els
Ġartif acts
Ġë¶ Ļ
ĠAut om
çļĦ æĺ¯
Û Ķ
×ķ× ¡
Ġih nen
Ġ5 9
ound ing
ÐµÑĢ Ñĭ
in ars
ch ant
Ġadd icted
Ġexplos ive
Ġdisp ers
â ĸĪ
ax is
AR Y
Ġl um
ĠÑĥ ÑģÐ»
ĠØ Į
Ġru pees
ĠPe arl
c amp
t v
oy a
Ġconclud es
Ġcoll ision
Ġbuy er
Ġplay ground
Ġspr ings
Ġfemin ine
ĠR as
Ġincar cer
íĹ ĺ
Ġdial ect
Ġclos ure
Ġchat ting
Ġb abe
Ġspot light
Ġnot ation
è· ¯
St ar
i Ã£o
Ġt Ãªte
Ġt ide
Ġjun to
Ġsen ator
Ð ¥
Ġexcus es
Ġbl ink
Ġadm ission
ĠL ily
Ñĭ Ð¼Ð¸
Ġam igo
Ġl ust
ëĭ ¬
Ġam ino
äºĭ æĥħ
Ġconsult ant
ĠElect ric
Ġëħ¸ë ŀĺ
uj ah
Ġshoot er
icht en
ĠUkrain ian
Ġaim s
ĠEnter tain
Ġmir acles
èŃ °
Ġze igen
Ġl am
Ġres s
ĠJ ill
yl an
Ġro ok
Ġh aya
Ġpass port
ad ata
Ġju icy
con f
Ð» ÐµÐ¹
ĠS z
Ġinter cept
ãģĤãĤĬãģĮãģ¨ãģĨ ãģĶãģĸ
ĠTe ams
Ġmak en
ir rel
ĠLI KE
áºŃ y
êµ °
Ġshort age
Ġparad igm
Ġpap el
Ġast ero
ãģ¾ ãģŁ
Ġsoll en
ĠMic key
ĠOr leans
Ġchol esterol
Ġgo ose
ÑĨÐ¸ Ñİ
ãģĤ ãĤĭ
ĠF L
ĠÐ³Ð¾Ð» Ð¾Ð²
Ġtrib ute
ĠG am
ĠÃ© videmment
Ñı Ñħ
å® ŀ
çĶ °
Ġin appropri
uh an
Ġorganiz ational
ail ed
Ġend ure
Ġ7 6
Ġshot gun
Ġliv re
Ġsu ited
Ġwarm th
ĠS IM
Ġenv ision
Ġde grad
Ã® ne
La ughing
ĠWho ever
ĠBuddh ism
Ġspr inkle
ceÄŁ iz
Ġru ins
Ġst arch
ĠHer z
Ġinjust ice
Ġhum idity
Ð¾Ð¶Ð°Ð» ÑĥÐ¹
ĠOb ject
ĠI gn
ĠEx am
ig ers
Ġth ou
ĠSo y
iv as
Ġpol es
m ath
ĠÐ² Ð½Ð¸Ð¼
ING ING
ed ral
Ġexpl or
Ġroast ed
Ġcraw l
Ġco ff
Ġan om
Ġw ij
Ġimpro ves
Ġtreat y
Ġdiscover ing
Ġstat ute
Ġmerc ado
ĠÑģ Ð¸Ð»
Ġint el
ĠChance llor
ĠMed icaid
ug i
Ġver bal
Ġd Ã¶n
Ġscript ure
Ġit eration
ek s
ĠOx ford
Ġw Ã¤h
ĠV ad
ĠA K
ĠìķĦ ìĿ´ë
Ġi ets
Ġneed les
Ùĥ Ùħ
Ġpas ado
Ġalbum s
Ġye a
et zen
Ħë ıĦ
Ġdeterm ines
Ġthe e
ĠPlay ing
Ã¤r t
Ġ× ¦
c led
Ġdown ward
al one
Ġsol u
Ġpart ition
Ġw z
d d
Ġpesso al
å ª½
Ġfact ories
Ġble ibt
à¸¡ à¸²
als a
ĠNF L
Ġfu era
Ġres erved
ĠE arn
Ġhel t
Ġshort cut
Ġconvin cing
sp ace
Ġen force
Ġc ores
Ġe fter
Ġrecess ion
x ico
Ġprop osition
ar ians
rop ol
Ġëª °ë
ĠÎ ľ
ĠìļĶ ì¦ĺ
Ġactiv ist
Ġconv iction
Ġz ab
Ġcancel ed
ÑĤÐ¾ ÑĩÐ½Ð¾
ĠÎ ®
éĢĻæ¨£ åŃĲ
n ite
Ġfund ra
buz zer
ÐµÐ» Ð¾
ic ations
Ġz ona
Ġte ens
Ġmethod ology
Ġì¤ĳ ìļĶ
th an
ĠU l
ĠG rey
Ġh og
IN K
ĠS ung
ĠC laud
ĠCN N
Ġdel ivers
al in
ĠAd obe
ot he
ĠDes wegen
à¸ ³
Ġwer de
Ġgre ase
Ġup grades
ĠFin land
ac cept
Ġinter rog
be e
Ġãģ «
Ġpre de
ĠN ep
ĠCam bridge
Ġgraph s
Ġha unted
Ñģ ÐµÐ¼
æ §
åħ ĭ
S ome
ĠM all
Ġrehears al
ĠUr ban
ĠL ag
Ġn im
ê° ķ
Ġposition ed
Ġavo ided
EM A
Ġlleg ar
ĠrÃ¡p ido
Ġgou vern
Ġh ing
Ġdeal er
Ġreform s
Ġfat ty
Ðº Ð¾Ð»
ĠA ce
Ġne p
Ġì² Ń
Ġcomput ation
ĠSt ream
bour ne
t ur
P or
Ġsleep y
Ġbang et
ãģĤ ãģ®
Ġwe ighs
Ġble iben
ĠG ren
Ġun ions
Ġêµ Ĳ
Ġap render
uit ar
ĠJ est
um ing
ĠPlay er
ĠExt rem
Ġinteg er
Ð°Ñĩ Ðµ
Ġconcert s
×ķ× Ľ
Ġtro chÄĻ
ĠRe pe
éĩį è¦ģ
à¹ Ĥ
Å¼ en
Ġsound ing
Ġan onymous
Ġex ca
ĠIran ian
Ġener getic
Ġw ives
ĠÑĨ Ð²ÐµÑĤ
Ġa is
ãģĭ ãģª
Ġsud ah
Ġunder wear
Ġcrunch y
ĠP ain
Ġger Ã§ek
red ict
Ġm isma
Ñĸ ÑĤ
Ġsurv iving
ÎŃ ÏĤ
Ġparticip ant
ĠH essen
Ã¡ri as
Ġsub way
ist Ã¤
Ġcor al
Ġmar ijuana
ĠMem orial
ÑĪ Ð¸Ð¹
ri z
Ġsatell ites
Ġle ase
ĠCam eron
um ph
Ġclass mates
Ã¤h Ã¤n
ÑģÑĤÐ² Ðµ
Ġh ue
ĵ¤ ìĿĦ
Ġproport ional
Ġn oss
Ġl aps
r Ã¥
Ġbit coin
ÐĹÐ« ÐļÐĲ
Ġì¶ ©
ĠÙĦ ÙĦ
ĠM ort
ĠEs p
arn os
ĠÑģÐºÐ°Ð· Ð°Ð»
ĠÃ¤ nd
åħ Ħ
×Ļ ×Ļ×Ŀ
ĠGe b
ge hen
I naudible
bor ough
ÑĦ ÑĦ
Ġfellow ship
ĠP aper
Ġcur ved
ĠGE OR
Ġcalcul ator
ĠCat al
ĠvÃł o
Ġby pass
Ð» ÐµÑĤ
à ³
tr ans
ren cies
ì ¡Į
ig ent
Ġtast ed
Ġo ceans
u ft
erv ice
ĠÐľÐ£ ÐĹÐ«ÐļÐĲ
ĠClass ic
Ġrespect ively
~ )
Ã® tre
ĠN ash
Ġz it
ĠìĽ ĥ
ĠëĨ Ĵ
qu ote
ĠUn s
Ġt ac
Ġpro ves
ĠPort land
b ly
Ġ ere
ì¶ Ķ
ĠÃ©po ca
ĠÑĤÑĭ ÑģÑıÑĩ
7 6
Ġhad e
ĠF ro
ĠpolÃŃt ica
t ag
Ġíķ Ń
Ġsch Ã¶
are tt
Ġprov isions
Ġmot ors
Ġimag ing
Ġdo k
ul ously
Ġme ille
çİ° åľ¨
ë Ĳ
ĠIS O
ĠST EM
ĠBow l
Ġto wers
ĠE e
ĠPerform ance
Ġlo in
cuss ion
Ġcoast al
ial e
com pass
Ġspell s
Ġdisappoint ing
Ġë²Ī ì§¸
E ER
Ġvers atile
as ury
Ġen fin
Ġdown side
Ġgu iding
ĠØ§ÙĦ ÙĤ
Ġnin ety
char ged
ĠF ans
Ġphilosoph ical
Ġg arn
ĠmÃ¥ nga
Ġwilling ness
Ġport ions
ab en
Ġ ï
Â ¿
ra ul
Ġspr int
if en
Ä±y la
ĠÐº ÑĥÐ¿
ãģı ãģłãģķãģĦ
Ġens uite
ĠCap itol
Ġ6 3
ĠÐ³Ð¾Ð²Ð¾ÑĢ Ð¸ÑĤ
Ġappoint ments
æī ¾
omi ast
Ġcare g
Ġpubl isher
Ġher aus
ĠÎµ Î¯
ĠV S
ãģĿ ãģĹãģ¦
ä¸Ń åħ±
Ġsacrific es
th ird
Ġhuman itarian
ĠëĤ ´ì
im on
Ġine qu
Ġz ob
Ġcomfort ably
ĠD inge
Ġcancell ed
ĠPS AKI
ĠRob inson
Ġfin s
) ?
ĠHist or
ĠÑĩÐµÐ»Ð¾Ð²ÐµÐº Ð°
Ġt bsp
te xt
k im
Ġupd ating
Ġgel d
f eld
ı ¼
Ġm Ã¤
Ġcaf Ã©
Ö Ģ
ĠS ri
ĠReg ion
ĠH ahaha
Ġfin ances
ĠØ§ÙĦØ ´
Ġb unk
ru k
ha ft
Ġlater al
Ġext ensions
ĠìķĦ ìĿ´
Ġdefin ite
ĠZ hao
ĠLu is
st y
Ġcas os
ĠK lim
Ġ199 3
Ġreal ization
Ġhistor ian
Ġcrack ed
ëĤ ´
Ġsyst Ã¨me
ĠC IA
ĠÑĤ Ð²Ð¾
osp heric
Ġfle e
Ġr áº¥t
ĠRegard less
Ġrel uct
Ġtim ely
ĠJul ian
G M
é Ĵ
ad ura
é£ Ł
Ġdress es
çģ £
ĠëĶ Ķ
Ġnom inated
Ġadvoc ates
ym ph
Ġrecord ings
Ġdev iation
Ġpriorit ize
Ġspir al
ĠYOU R
Ġtransp ose
amp oo
ĠìĽĲë ŀĺ
ĠV ision
Ġpol ite
Ġha mb
ĠPat ient
æ¯Ķ è¼ĥ
íģ ¬ë
Ġs ia
Ġê³ ³
ĠÅ¾ e
è§ Ģ
Ġsuper market
ë ¹
ĠS ierra
Ġgr illed
ĠUp on
Ġabs ent
Ġme c
ĠAp ollo
Ġp unk
ĠPa ÅĦst
ĠÑģÐ² Ð¾Ð¹
Ġê±° ê¸°
G irl
Ġskin ny
ĠPrem ier
Ġterrit ories
Ġli ability
Ġj erk
r atic
Ġdan cers
ĠÑĥ ÑĢÐ¾Ð²
Ġê´ Ģë
on ly
ĠSt u
Ġske leton
ĠëŃ Ĳë
ĠÐ·Ð°Ðº Ð¾Ð½
Ä± kt
ĠMI KE
Ġl Ã¶
m ie
Ġre iter
ãģĵãĤĮ ãģ¯
ĠKoll eg
ĠAd ams
lich er
ĠÃ§oc uk
Ñı Ð³
Ġbl ush
Ġsun shine
Ġe z
ĠDev il
Ġê¸ ¸
Ġãģ Ĭ
ad d
Ġlic ensed
Ġv inyl
ĠC zech
im ag
Ġcrack ing
Ġì º
Ġud ah
Ġs ommes
Ġìĸ¼ êµ
wa Äĩ
Ġf res
åĳ ½
ĠWal mart
ĠÐ¢ ÐµÐ¿ÐµÑĢÑĮ
at isf
C I
l ang
Ġdiff usion
çĶ ·
Ġsom os
ĠM akes
æĪĳ æĥ³
ĠRick y
Ġmuch a
íķ ¨
Ġhorse power
as ia
Ġfib ers
Ġ erm
Ñģ ÐºÐ¸Ðµ
Ġjest e
Ġfire fight
Ġcu isine
Ġbesond ers
d ig
Ġì¢ ħ
ĠÑĥ Ð¶
Ġtr acing
Ġcertain s
ĠApp ly
ÑĭÐ² Ð°ÑĤÑĮ
ç Į
Ġbr u
ĠY ES
ĠB ai
ĠD it
ĠB is
Ġun le
ÑģÑĤÐ° ÑĤÐ¾ÑĩÐ½Ð¾
ĠAw ak
.. "
Ġ12 5
Ġroot ed
Ġcaut ious
con st
Ġorchest ra
çľ ¼
ĠÐ²Ð½ ÑĥÑĤ
Ġquel qu
ĠÐ¾ÑĤ Ð²ÐµÑĤ
ĠMet hod
ì¹ ľ
ĠÎ¼ Î±ÏĤ
l Ã¼
ĠìķĦ ê¹Į
Ġn aming
C har
ĠS icher
Ġprivile ged
ĠF ly
Ġãģ ĭ
áºŃ t
Ġadv ances
ĠZel da
Ġand ra
Ġgr inding
ĠEd ition
p f
Ġwarri ors
Ġh edge
Ġuns eren
ĠÑģÑİ Ð´Ð°
el iness
Ġpersonal ities
Ġf Ã¶
' M
ĠÑĤÐ¾ ÑĩÐ½Ð¾
Ġsh ipped
Ġmete or
Ġsurround ings
ĠF ill
u esta
ĠPerson al
ĠAll e
OR T
ä¹ ħ
ĠS che
V I
Ġcompar able
dam n
Ġd itch
Y AN
ism us
Ġpick up
Ġd ak
ĠE P
b est
ĠS ue
Ã¤ll t
Ġpop corn
Ġfold ing
h ome
Ð¸Ð² Ð°ÐµÑĤ
å·² ç¶ĵ
Ġan not
ch uck
Ġfier ce
Ġdam aging
Ġfl op
Ġpas ar
Ġre ef
ĠÑģÐ²Ð¾ ÐµÐ¹
Ġz oo
o vers
j ets
Ġpr Ã¨s
ĠSil icon
te ok
ĠS eth
at amente
Ġtransm itted
Ġrepl icate
Ġsl im
ĠC ream
æĦŁ ãģĺ
Ġside walk
ìĪ ĺë
ĠÐ¶Ð¸Ð· Ð½ÑĮ
ĠMon ica
ä¾Ĩ äºĨ
Ġcop ied
ĠTer ra
ist ent
ç³ »
ĠÐ¾ Ð½Ð¾
Ġwh ale
ĠW ITH
Ð» ÑĥÑĪ
å½± çīĩ
ĠE en
ĠÑģÐ²Ð¾ Ð¸
Ġord in
Ġpl ural
Ġsp okes
Ġdisp ute
Ġsens ible
Ġpre aching
ĠktÃ³ rzy
pt ed
av ier
Ġpist ol
ĠTap i
Ġ ÅĤ
ff ff
Ġac rylic
Ġignor ance
ĠZ iel
r ans
Ġweld ing
m id
æĪĳ ä¸į
ĠÐ·Ð°Ð½ Ð¸Ð¼
Ġlan es
Ġmin es
Ġmom s
×ķ× Ĺ
ĠCham ber
t ier
Ġmod est
ĠìĹ¬ê¸° ìĦľ
Ġun as
Ġw rench
hand ed
Ġsatur ated
ĠF ang
ĠCommission er
à¤ °
Ġ× ĸ
ĠLouis iana
ĠM ask
Ġcub es
ìĶ ¨
ĠvidÃ© os
ĠnÃ¥ gon
Ġr ider
Ġì¶ ľ
Ġs Ã³n
ĠLat ino
b ank
íķ´ì £¼
ĠB rend
Ġsexual ity
... ,
Ġforget ting
Ġ ÛĮ
ĠAven gers
ĠBon jour
cess or
ÐºÑĢÐ° ÑĹ
c ence
Ġge ograph
cul o
Ð¾ ÑģÑĤÑĮ
Ġswe ating
íĥ Ģ
Ġsymm etry
ts Ã¥
Ġj an
ĠFer r
é¦ ĸ
Ġamb assador
ziÄĻ k
Ġmus un
ĠÑĥ ÑĤ
ĠL G
iss ent
comm un
Ġcour s
Ġdevelop s
Ġbron ze
Ġsubst ances
dri ven
ì£¼ ìĦ¸ìļĶ
Ġa os
åĦ Ħ
ĠPROF ESS
h alf
Ġsort ed
ĠB omb
Ð» Ð°Ð³
ĠMalays ia
ĠChrist ina
Ġteam mate
èģ ŀ
F T
Ġk Ä±
heart ed
+ +
ogen ic
Ġbell s
ĠOu ais
Ġspecial ists
Ð± Ñĭ
dep th
lass es
g ies
ĠCo ffee
Ġmark ing
Ġfo ll
ul i
Ġad hesive
ĠB ot
ĠP unkt
e ye
ĠB ub
el ong
åĪ ¶
ĠÐ¿ÑĢ Ð¸Ðº
Ġdon or
8 4
Ġen for
Ġcatch es
Ġbr icks
Ġkn itting
ĠKnow ing
ok s
H Y
r ide
ĠFant asy
im an
Ġp se
Ġìĺ ¨
ĠÐ² Ð´
Ġrest ra
Ġevalu ated
ÑĢ ÐµÐ²
Ġfortun ately
Ġche gar
Ø± Ø¨
Ġdom ains
ib i
ar ry
Ġshut ter
Ġfic ou
M ike
Ġinc lu
Ġdon ors
Ġa pl
ĠL ower
Ġimport ed
Ġacad emy
Ġfin als
Ġdisappe ars
ÙĬ Ø§
Ġadministr ator
j s
Ġcut ter
Ġr anging
Ã¶r per
Ġconstra int
ĠT able
ĠSh an
v ic
ĠF ix
ĠSw ift
oun ces
ĠWar um
Ġlett uce
app elle
Ġsh ave
Ġb Ã¡s
Ġ7 7
ĠO oo
a o
ĠMc M
ĠD rew
Ġl ump
Ġl ashes
schein lich
R ep
in is
ĠC ette
Ġcompos ite
emet ery
Ġsort e
ĠFin ancial
Ð¾Ð½ Ðµ
ron es
ĠV oy
Ġt Ã©c
ł ¹
ĠNin ja
ĠCor in
ÐµÐ½ Ð½Ñı
ìĿ´ìĹ Ī
Ġn ich
Ġdetect ive
âĢ¦ "
Ïĥ Îµ
Ŀ¼ë ıĦ
Ġë³ Ģ
Ġë¸ Ķë
Ġpro pe
ĠW right
Ġ×Ķ× ª
ĠSh i
Ġãģ Ł
Ġinvestig ations
éĤĦ æĺ¯
ĠPower Point
ĠCh u
Ġìĺ ¤í
ĠìĻĦ ìłĦ
ĠFra gen
un ning
Ġpour rait
Ġtext book
Ð¼ Ñĭ
Ġf ahren
Ġ ÑĤÐ¾ÑĢ
Ġl akes
Ã¼nd e
I nt
ĠMet ro
Ġmans ion
ĠÐ° Ð±
ĠZh ou
Ġcorrid or
Ġesc ol
Ġindic ating
ia ÅĤa
Ġm ommy
Ġarch ives
Ġfound ers
eng ine
ĠDie u
Ġsick ness
Ġë³´ ëĭĪê¹Į
Ġar b
Ġn ed
ĠCh op
Ġco vid
Ġsl am
Ġpublic ations
D C
Ġsp ends
æ ¾
Ġrefuge e
Ġd ile
Ġ×Ĳ× ĸ
ific ar
ĠS ach
G u
Ġre load
?? ??
Ġje ÅĽli
ĠÑģ Ð¾ÑģÑĤÐ¾
Ġsim plicity
Ġbull ying
ĠÐ¼ Ð¾Ð»
Ġreal idad
Ġuncle ar
app a
le vant
ĠIS IS
ĠW atson
Ġde in
ĠMic ro
íķ ľë
Ã¼ g
Ġdev am
Ġtwe eted
å° İ
Ġunderstand able
at an
Ġvers a
Ġpre ca
Ġv á»ģ
ĠCop y
ĠOr acle
Ġmindful ness
Ġdisc ret
ern en
ĠP le
H ave
Ġisol ate
Ġde u
Ġsevent y
ĠH ills
Ġarc ade
ĠÑģÐ¿ ÐµÑĨÐ¸
Ġsigu iente
ĠB ÃľNDNIS
lig a
ĠÐ²ÑģÑĤÑĢ ÐµÑĩ
Ã´ m
Ġtwe ets
Ġsch auen
Ġcrit ique
ĠðŁİ µ
Ġst att
ĠÑģÐ°Ð¼ Ð¾Ðµ
Ã¢n cia
Ġsuper natural
Ġplug ged
F l
yn Ä±
ĠTamb iÃ©n
Ġencourage ment
ĠSer ver
ëĤ ľ
up a
Ġast on
Ġhe ars
ÑĢÐ° Ñħ
Ġsch e
Ġr ats
Ġrec uper
Ġun ten
ĠFight ing
Ġacadem ics
ç¤ º
ĠS Ã¼
Ñģ ÐºÐ¸Ñħ
Ġpa ired
Ģ ìĿĦ
ĠÃ¡ rea
Ġsweet ness
åı Ĭ
Ġde fer
Ġmuit as
ĠAud io
Ġlock er
ÙĬ Ø¯
ĠÑģÑĤ Ð°Ð²
Ġbu ena
AN S
Ġdetect or
av o
be k
ĠÎ± Î½
íİ ¸
Ġdra gged
ĠÐ´Ð¾Ð»Ð¶ ÐµÐ½
Ã ĸ
Ø± Ø©
ìĿ´ì §Ģ
Ġcell e
ck ing
ĠØ§ÙĦØ ¬
ĠCan vas
Ġespa Ã±
Ġgl imp
Ġspread s
ong o
ĠM ason
ĠIn g
Ġê°Ģ ëĬ¥
ÏĦ Î¹Îº
Ġsec ular
Ġb ater
Ġinqu iry
Ġenerg ies
Ġmanufact ured
Ġveget arian
Ġpine apple
ÑıÑĤ Ð°
Ġpractition ers
2 000
Ġíķ´ì ļĶ
ĠìĹ¬ëŁ¬ë ¶Ħëĵ¤
Ġë¶ Īë
ĠJeff erson
ĠJo an
Ġtr am
å® ¹
ch mal
ĠH ait
á¹ ĩ
Ġun real
Ġsymbol ic
Ġste alth
Ġspl ash
ĠEntertain ment
Ġmetall ic
?" .
è¶ Ĭ
ar ound
Ġdesp air
ĠNev ada
ĠFin ance
Ġk rie
ĠL ux
ĠSm ash
ke eping
ĠÐ· Ð°Ð³
Ġnarc iss
Ġdz isiaj
Ġtoler ate
o ard
Ġlink ing
ĠEconom ic
Ġì ¼
Ġmor ph
ĠN ak
ĠB aker
at on
r ings
ĠP eng
ĠAir port
ãģĭ ãģ£ãģŁ
íķĺ ëĭ¤
§ ģ
pr ints
Ġhad i
Ġemp ir
ĠL ives
ann ers
ĠÐ½ Ð¸Ð¼
ĠPROFESS OR
Ġpositive ly
ant om
Ġbad ge
ke lt
Ġinter fer
Ġfulf illing
Ġvisual ization
éĹľ ä¿Ĥ
ĠPr ice
ï¿½ ï¿½
Ġscen ery
Ġpr one
Ġw izard
Ġb anyak
ver b
s ky
Ġwish ed
Ġrail way
ĠÃ¼ zer
Ġalgu ien
ĠA W
ĠÐºÐ¾Ð» Ð¸ÑĩÐµ
Ġreact ing
ĠB uch
à¸ ¶
Ġan th
Ġsi h
Ġh ust
ĠSc reen
il ant
ah o
Ġfragr ance
Ġelev ation
ĠMed iter
Ġë ¿
ĠÃ© qu
Ġwra ps
Ġin ert
Ġrecre ate
Ð» Ð°ÑĤ
Ġbo leh
Ġharass ment
unk y
Ġglimp se
reg ierung
Ġfut ur
Ġreposit ory
Ġeng ra
Ġtraff icking
ass is
ĠTre k
Ġë² Į
Ġë§ Īë
ĠK ab
ani u
g ive
Ġdin osaurs
Ġfe ather
Ġatt itudes
Ġpl um
ĠR S
ĠAn fang
ill ery
ĠìĬ ¤
M Y
Ġtrze ba
Ġsk ies
ĠA j
ur able
C U
ĠSh ane
Ġdepart ure
ĠT ON
iet en
r ats
æ° Ĺ
is u
Ġb ord
Ġinteresting ly
çĻ »
oug hing
Ġr ushing
Ġvol atility
Ġp yt
Ġform ats
ĠÐ· Ð°ÑĤ
Ġê¼ Ń
Ġwhat not
Ġcomp ort
s w
ore an
ĠRel ax
Ġcl an
ĠA H
Ġpe w
Ġdiction ary
T ake
sh irts
ĠH ugh
ĠØ¹ÙĦ ÙĬ
ĠP ic
Ġenroll ed
Ġjed nak
Ġoffer ings
Ġcor az
L ife
Ġ !!!
Ġcl er
ĠVide os
ĠRod rig
ĠId ent
ĠP os
ĠSt age
ĠR ace
Ġen act
ãģĦ ãģ¾ãģĹãģŁ
ĠG y
ĠHis pan
Ġdef ence
ĠCamp bell
m atic
Ġrele v
Ġpe ach
Ħ¸ ìļĶ
Ġparad ise
Ġcere mon
Ġannoy ed
æĮ ĩ
la x
Ġexplo it
Ġcla use
ek er
ĠBlo om
n ant
ate urs
Ġhe ights
E ven
Ñģ Ð¾Ð½
Ġoutra ge
ĠVietnam ese
ãģ¯ ãģ¯
T R
Ġe er
Ġcann on
ĠCom b
Ĳë §Į
è» Ĭ
Ġê²ĥ ëıĦ
Ġaccomplish ments
ĠAnalyt ics
Ġshap ing
re iben
Ġb achelor
Ġfing ert
ack ed
Ġpyram id
ĠStew art
Ã¡ st
Ġsurviv or
Ġdu ct
Ġdeal ers
æ´ »
Ø¹ Ùħ
Ð»Ð¸ Ð½
Ġed e
×ķ× ¢
ĠÙĥ Ø§ÙĨ
ĠÏĦ Î¹
Ġcho oses
ĠO wn
Ð³Ð¾ ÑĤÐ¾Ð²
h ire
Ð°Ð»ÑĮ Ð½ÑĭÐµ
ĠÐĽ Ñİ
ĠÐ¾ ÑģÑĤÐ°Ð²
te ch
Ġdro it
Ġsubject ive
en es
Ġdiv is
ave z
Ġmaneu ver
à¹Ħ à¸Ķ
ade ce
ĠEn s
ac ial
ĠProt ection
ĸ ´
Ġform ally
Ġwy d
ingu Ã©m
Ġz iem
Ġrecru iting
×Ļ× ļ
n em
Ġforb idden
ĠB apt
×Ĳ× ł×Ļ
Ġsubs et
ĠMag az
n ement
Ġaqu ela
rag on
Ġcomm ittees
ĠÃ©ta ient
ud i
ĠDa wn
Ġb ore
Ġcompos er
ĠwiÄĻ cej
ang a
Ġdis like
ĠD ays
åŁ º
Ġpar al
Ġm ientras
Ġheaven s
ãģ Ĵ
he id
Ġtrad ers
on ce
Ġmasc ara
ĠÏĢ ÏģÎ¿
Ġwhis per
ĠMus k
éĽ Ĩ
ĠFamil ie
All ah
ĠOl ivia
ĠPr os
Ġol ika
il im
ĠrÃ©p ond
ĠP eters
Ġ å¾Ī
Ġbit es
Ġv ic
ĠN Y
em ption
Ġ4 50
Ġvisual s
Ġlie u
Ã¼ck en
ĠSte el
ĠG P
w ait
Ġnotice able
uch a
Ġreh abil
Ġreject ion
ĠÑģÐ»ÐµÐ´ ÑĥÑİÑī
Ġsl ider
Ġregard ed
Ġgrav it
ĠRes erve
c ount
Ġbre eding
Ġlon ge
ale b
Ġkn ight
ĠÐ² Ð¾Ð¹
ĠprÃ©s ent
Ĥĺ ìļĶ
ĠSpec ifically
Ġpos es
Ġve ure
ok ay
em as
Ġ ãģ§ãģĻ
Ġma jÄħ
Ġweb inars
Ġcann abis
Ġdam als
ĠNorth west
Ġp ada
Ġcrowd s
Ġfut ures
ĠÃ¤ n
Ġciv ilians
ĠS achen
æ į
Ġtr aces
Ġë¨¹ ê³ł
Q U
é¡ĺ ãģĦ
ĠI F
an Ä±n
ìĤ ´
Ġb iblical
ĠV ed
Ġst oring
ÑĢÐ°Ð² Ð»Ñı
æĩī è©²
Ġn ast
Ġd Ã¶
ÑĢ Ð¾Ð¿
el ia
Ġside ways
ĠUnder stand
ĠQ ur
Ġper pend
ĠMill ionen
Ġwater melon
ĠDiv ine
ult ur
ab ord
Ġsuccess es
Ġhom bre
Ġcar p
Ġsus cept
ung kin
Ġk ij
ul us
Ø§Ø ¬
Ġnot ch
Ġpolynom ial
å¹ ²
å ©
ĠÃºn ico
Ġteles cope
Ġpolit ique
k iem
ĠÎŃ Î½Î±
Ġaggreg ate
ĠGe off
Ġtr il
ĠG RA
Ġsubscri ber
im et
ĠÐ´Ð¾Ð» Ð»Ð°ÑĢ
op ing
Ġth erapeut
ĠCan cer
Ġpar ade
Ġir rig
âĻª âĻª
Ġclear er
Ġb og
ĠM aur
à¸² à¸ĩ
ĠShang hai
acht e
ĠK ol
el ujah
Ġha v
ĠCr ime
se k
Ġë ¡ľ
ien na
ĠG or
è Ľ
ĠÐ¿Ð¾ÑĤ ÑĢ
ĠÐºÐ°Ð¶ ÐµÑĤÑģÑı
ĠL ift
ĠS ort
ĠP sal
Ġp ing
ĵ Ŀ
ph is
ĠF UCK
ĠS yn
Ġbam boo
¬ ìĺģ
c uts
Ġm mm
Ġfunktion iert
Ġ _
ÃŃ cio
St op
Ġimag inary
Ġnot amment
ĠIniti ative
ãĥ ¥
ĠK urt
Ġlo osen
Ġbus car
çģ «
Ġz elf
Ġpro ps
åĽ ī
Ġmoet en
Ġmill i
Ġhall s
ĠM atch
Ġbrack ets
ĠC ou
æ¦ Ĥ
ĠÐľ Ð°ÑĢ
IS A
Ġcig arette
Ġcompet itions
ĠM IN
Ġbeh Ã¶
vo or
Ġ ust
ĠZ i
ĠO cc
ul ates
Ġball oons
Ġpr onto
ĠM iy
ĠF ile
ĠÐºÐ» Ð°ÑģÑģ
Ð½Ñĥ Ð»
Ġcere al
Ġincre ment
Ġref ined
åı¦ å¤ĸ
pr ising
ĠR F
Ġrespect ful
Ġlo ot
ask et
Ġdeix a
ing le
Ġfuncion a
ĠRe vel
Ġso ber
Ġperform s
ĠG entle
ãĤ ¨
Ġrecip ient
ĠHa use
Ġë ĥ
F rom
Ġmin isters
Ġpar adox
å°±æĺ¯ èªª
Ġtast ing
Ġ×Ķ× Ĺ
Ġre use
ĠL ane
ĠÑģÐ¾Ð² ÐµÑĢÑĪ
Ġremem bers
Ġfemin ist
Ġcommit ments
Ġproject ed
Ġg az
iyor uz
Ġoblig ations
R o
z ar
Ġch w
ĠJ AM
ĠbÄĻd Äħ
asp berry
ĠÐ¼ ÐµÑģÑĤÐ¾
ë² ķ
Ġreg ulated
Ġw icht
ĠTre vor
Ġsecond ly
ĠIh re
els h
Ġrep orters
ÑĤÐ¾ÑĢ Ð°
oy o
G I
Ġinter connect
é Ĳĺ
OS H
æŃ ²
Ġbr ass
Ġign oring
[...]
